#version: 0.2 - Trained by `huggingface/tokenizers`
 

. 

다 .

▁ 이
▁ 그
▁ 있
▁ 대
▁ 아
으 로
▁ 사
에 서
▁ 지
▁ 하
▁ 한
▁ 수
▁ 1
▁ 어
▁ 가
했 다.

▁ 것
▁ 전
▁ 정
▁ 2
▁ 보
▁ 시
▁ 기
▁ 거
▁ “
▁ 나
▁ 자
▁ 다
▁ 네
▁ ‘
▁ 일
▁ 인
▁ 주
하 는
▁ 등
▁ 경
▁ 중
▁ 제
▁ 해
▁ 국
요 .

▁ 말
▁ 내
0 0
▁ 공
▁ 부
하 고
▁ 안
▁ 때
▁ 예
▁ 오
? 

▁ 우
이 다.

▁ 여
▁ 않
니 다.

▁ 없
라 고
▁ 위
▁ 고
▁ 상
▁ 조
▁ 의
▁ 선
다 ”
▁ 관
▁ 비
▁있 는
니 까
들 이
▁ 3
▁ 만
▁ 모
지 만
▁ 소
▁ 연
▁있 다.

▁ 유
▁ 미
▁ 되
고 

▁ 저
▁ "
다 는
▁ 서
▁ 생
▁ 뭐
▁ 문
▁그 래
렇 게
▁ 최
▁ 같
▁ 개
▁ 또
▁ 마
▁ 교
▁ 많
▁ 김
▁ '
다 고
는 데
▁ 원
▁ 요
. .
▁이 제
▁ 세
▁ 방
▁ 신
▁ 무
▁ 분
면 서
까 지
▁그 런
▁ 통
▁ 동
▁ 구
▁우 리
▁ 바
▁아 니
▁그 러
▁ 들
▁ 발
▁ 근
▁ 강
▁ 진
▁ 당
▁ 현
▁ 4
다” 고
▁ 불
▁ 올
▁ 받
▁ 결
▁ 도
▁ 반
▁ 재
▁지 난
▁ 5
▁ 실
▁네 .

▁ 계
▁ 성
▁ 영
▁사 람
▁ 더
습 니다.

▁ 장
▁그래 서
▁한 국
부 터
▁ 학
▁ 후
▁ 건
라 는
▁말 했다.

▁ 노
었 다.

▁이 렇게
▁ 박
▁ 좀
적 으로
에 는
▁이 런
▁ 남
▁ 스
▁네 

▁ 알
▁ 차
에 게
▁어 ~
▁그 ~
▁ 두
▁ 회
▁ 감
▁지 금
적 인
▁ 했
▁2 0
다 "
들 은
▁ 게
이 라고
▁ 좋
요 

통 령
▁때 문
▁ 추
하 게
▁생 각
▁ 못
▁ 열
▁하 는
▁대 한
▁대 통령
▁ 따
▁ 입
▁ 했다.

▁ 6
▁ 할
▁ 출
해 서
▁근 데
▁ 과
▁것 으로
▁ 달
▁ 특
▁서 울
▁ 적
▁ 맞
▁ 응
▁ 참
▁ 확
▁ 물
▁ 새
니 다
▁정 부
▁들 어
▁ 음
▁ 단
▁ 외
▁ 평
▁ 집
▁ 잘
▁ 배
▁ 직
▁문 제
▁ 뒤
▁ 작
하 기
▁ 밝
▁ 설
▁ 매
고 ,
▁ 민
▁미 국
▁ 앞
▁ 삼
▁ 명
들 의
▁ 청
▁것 이
▁같 은
▁ 역
▁ 총
▁그 렇
기 를
▁ 북
▁ 너
▁ 검
▁1 0
▁가 지
리 고
죠 .

.. .
▁ 살
▁ 7
▁ 금
▁2 00
▁ 얘
▁ 처
▁ 된
장 은
▁ 막
잖 아
▁많 이
▁ 양
▁ 에
▁ 포
▁인 제
▁ 법
▁ 데
▁대 표
는데 

▁사 실
▁ 걸
▁ 파
▁ 프
▁때문 에
▁ 행
▁중 국
▁ 간
▁ 합
하 지
▁ 번
요 ?

자 는
▁ 피
( )
다" 고
서 

는 

▁ 8
▁ 초
▁ 드
▁1 9
았 다.

보 다
▁의 원
▁있 어
▁ 언
▁ 먹
▁ 약
▁ 투
위 원
됐 다.

면 

▁ 본
▁정 도
한 다.

▁후 보
▁ 필
대 로
▁ 점
▁위 해
▁20 1
리 는
▁ 9
니까 

가 

들 을
면 은
사 를
이 나
▁경 우
▁ 높
▁ 심
▁ 운
▁일 본
▁하 고
▁만 들
▁밝 혔
▁것 은
에 도
▁ 판
▁그 냥
▁관 계
▁ 줄
▁ 임
다” 며
장 을
▁어 떤
▁ 변
▁ 논
▁너 무
▁밝혔 다.

▁이 번
▁ 함
데 

▁국 민
이 라
00 0
▁제 가
▁이 상
▁지난 해
▁ 치
▁다 른
▁ 씨
▁ 타
▁북 한
▁관 련
▁ 활
▁이 날
▁ 담
장 이
” 

▁하 지만
▁ 갖
습 니다
▁ 돌
지 는
▁가 능
▁교 육
▁ 준
▁ 왜
도 록
▁ 취
▁ 채
▁ 손
▁ 늘
▁ 화
▁그 는
▁ 넣
▁하 나
▁ 돼
하 면
리 를
에서 는
▁ 목
▁사 회
거 든
기 가
▁ 친
▁대 해
▁ 산
해 야
▁아 이
졌 다.

▁ 넘
기 도
▁그 리고
▁ 증
▁ 크
▁세 계
▁다 음
▁그 렇게
▁이 후
▁ 체
▁필 요
▁ 야
▁것 이다.

▁ 각
▁ 될
였 다.

기 에
▁가 장
▁시 작
▁ 찾
▁ 규
▁ 책
▁정 치
▁ 협
▁ 애
다 가
▁어 떻
▁함 께
▁ 종
▁시 간
▁ 식
▁ 환
▁ [
처 럼
▁ 벌
▁내 가
▁ 독
▁ 싶
▁ 누
▁ 속
으 면
▁ 큰
▁사 업
▁ 표
▁이 어
에 

▁응 

▁교 수
▁그 거
▁ 버
▁이 게
▁통 해
▁어떻 게
▁따 라
성 이
도 

▁ 힘
▁올 해
▁지 역
▁경 제
▁ 쓰
▁등 을
▁ 엄
▁ 복
가 지
▁ 리
▁있 었
▁최 근
▁지 원
▁기 업
” 이라고
자 가
▁상 황
▁예 .

▁국 가
▁1 2
0 년
▁ 절
▁ 승
지 

▁ 호
▁프 로
▁ 충
▁ 편
회 의
▁ 업
▁ 군
▁ 권
▁민 주
어 요.

▁학 생
▁얘 기
▁ 완
▁ 광
▁ 얼
▁보 고
요 .
▁1 1
▁모 두
▁어 

▁ 날
▁예 

이 라는
다 

▁처 음
사 가
되 는
▁ 카
▁없 는
▁ 갈
▁위 한
▁자 신
하 면서
▁국 내
지 를
▁아니 라
정 을
만 원
된 다.

기 업
▁ 질
리 가
시 아
▁많 은
력 을
▁ 끝
▁다 시
▁ 허
▁한 다.

▁연 구
▁저 는
▁경 찰
▁결 과
▁ 맛
성 을
이 

▁ 느
▁대 학
▁ 창
▁ 잡
▁ 형
거 나
▁ <
▁ 첫
▁ 돈
▁되 는
( 1
▁아 주
▁당 시
억 원
▁나 오
▁그 게
화 를
▁것 을
▁여 러
▁부 분
▁학 교
▁ 은
( 2
▁ 됐
하 겠
▁ 메
▁ 항
사 는
▁내 용
▁ 순
▁않 는
▁선 생
▁말 씀
▁현 재
▁ 쪽
▁있 을
▁검 찰
▁계 속
▁ 놓
▁선 수
▁ 백
▁전 문
▁이 거
▁ 눈
▁사 이
▁ 태
기 는
▁준 비
▁ 온
▁ 볼
한 테
스 트
▁계 획
▁삼 성
▁1 5
▁가지 고
▁우리 가
▁발 표
학 교
에서 도
주 의
들 에게
▁중 요
▁이 ~
명 이
▁그러 나
▁ 토
위원 회
▁ 핵
▁오 늘
▁이 유
▁ 몰
어 

) ,
▁ 트
▁3 0
▁ 홍
운 데
하 며
왔 다.

입 니다.

▁해 야
▁그 니까
지만 ,
▁동 안
▁알 려
가 는
▁조 사
상 을
▁사 건
했 던
▁거 기
시 는
▁만들 어
▁ 길
▁ 코
▁사 용
다 면
▁최 고
▁좋 은
▁ 굉
▁정 말
▁ 농
이 고
이 는
▁관계 자는
▁경 기
▁ 및
▁굉 장
▁ 병
▁진 짜
▁ 빠
▁ 커
▁ 폭
▁ 글
▁평 가
▁ 난
▁가 운데
부 는
▁여 기
나 라
▁ 접
▁굉장 히
▁저 희
씨 는
▁ 월
▁것 도
니까 ?

이 었다.

▁감 독
이 었
▁네 .
▁이 야
▁국 제
▁요 구
다 .
x x
▁대 해서
▁ 천
기 로
▁ 년
▁설 명
▁해 서
▁선생 님
에 선
▁있 다는
▁그 럼
▁ 측
▁ 철
은 

자 를
하 다.

▁대 상
▁거 야
▁좋 아
자 의
▁특 히
▁나 온
▁받 아
레 이
’ 을
인 이
교 육
▁지 적
▁ 곳
안 을
▁예 정
▁ 로
▁국 회
▁수 도
▁보 면
▁있 습니다.

▁맞 아
▁ 육
더 라
시 간
▁아 닌
▁ (
▁그러 니까
▁기 록
▁주 장
▁새 로
지 고
▁인 터
▁정 책
▁금 융
▁ 용
▁같 이
면은 

들 도
▁운 영
▁않 았
으 며
▁ 떨
▁ 베
▁ 축
어 서
▁ 와
▁뭐 ~
▁조 금
▁진 행
▁현 대
▁ 면
▁ 디
▁참 여
▁ 향
▁추 진
▁피 해
▁그런 데
▁포 함
▁개 발
▁이 미
▁않 은
▁결 정
장 의
▁그 것
▁보 인
▁사람 이
0 %
▁과 정
비 스
▁일 부
명 을
▁문 화
센 터
▁여 성
렸 다.

▁마 음
와 대
원 이
밖 에
▁1 00
▁ 팔
▁정 보
▁그 랬
▁ 별
▁직 접
▁ 떠
▁ 탄
다" 며
습니다 

▁나 는
▁ 잠
력 이
▁갖 고
▁자 기
▁이 용
의 를
▁기 준
▁ 맡
어 나
▁돌 아
▁확 인
▁ 몇
대 표
제 로
▁ 브
느 냐
▁모 든
▁모 르
" 

죠 

이라 며
▁어 려
장 에서
도 를
▁ 급
▁ 범
▁분 석
▁보 여
▁바 로
▁ 라
▁장 관
▁것 ”이라고
▁않 고
▁공 개
▁전 체
누 리
2 0
▁ 갔
케 이
동 을
하고 

려 고
지 .

▁ 효
르 면
▁아 

▁ 탈
▁열 린
▁ 골
났 다.

▁찾 아
금 을
▁1 3
▁ 팀
▁아 무
은 행
▁때문 이다.

▁ 낮
▁이 에
( 3
머 니
▁1 8
▁떨 어
▁있 다”고
어 .

’ 를
▁기 술
▁1 6
▁생각 을
회 를
▁청 와대
▁이 를
들 과
정 부
▁ 십
▁아 직
▁민주 당
대 를
▁경 쟁
거든 요.

장 에
▁얼 마
▁최 대
▁수 준
▁음 

▁나 타
▁개 인
위 를
▁ 먼
8 년
▁내 년
▁수 사
▁ 터
▁투 자
▁그러 면
) 는
연 구
되 고
▁ 혼
▁가 족
2 년
▁비 판
▁ 봐
" 이라고
▁엄 마
▁선 거
▁ 왔
▁외 교
누리 당
구 요.

▁그 때
지 가
▁상 태
▁약 간
원 을
▁관 심
▁ 압
▁영 화
) 의
▁1 4
▁ 둘
▁요 즘
▁위 원
▁국 정
▁ 뜻
m e
▁결 국
▁모 습
식 을
▁ 뉴
▁강 조
▁있 다고
▁외 국
인 데
▁ 머
▁때문에 

▁친 구
▁ 죽
▁ 극
랜 드
▁소 비
근 혜
▁시 민
▁기 자
잖아 요.

주 는
치 를
▁규 모
5 년
’ 는
리 아
▁대 선
▁거 예
▁올 라
n a
▁없 이
겠 습니다.

▁ 윤
▁다 양
▁이 름
동 안
▁ 송
7 년
▁나 라
▁회 사
에서 

이 가
▁책 임
료 를
▁등 의
원 은
▁마 련
▁ 몸
▁만 나
▁ 폐
▁ 혐
▁ K
▁전 국
▁대통령 은
했 다고
▁위 해서
▁노 동
▁ 키
사 회
제 를
▁대통령 이
▁ 패
도 가
▁그 걸
점 을
▁있 으
사 업
▁공 동
▁새 누리당
더 라고
▁정부 가
▁자 체
▁있 고
▁같 애
▁등 이
▁없 다.

하고 ,
▁1 7
▁2 5
▁ 쉽
▁정 상
겨 레
▁된 다.

▁상 당
▁ △
▁ 존
▁반 대
▁ A
개 월
▁출 신
▁ 황
을 

▁있 었다.

▁인 사
▁오 후
▁영 향
▁물 론
▁않 을
▁앞 으로
▁ na
▁방 송
전 을
시 키
▁na me
▁ 봤
▁거 의
▁지난 달
업 체
▁우 려
단 체
▁하 지
지만 

죠 ?

▁ 답
3 년
권 을
명 의
) 를
▁ 밀
▁새로 운
서 는
한 국
▁지 지
▁먼 저
1 년
▁ 싸
그 램
▁어 느
▁인 정
▁다음 에
) 을
▁주 민
▁논 란
▁ 침
조 사
▁ 풀
▁보 도
▁언 론
그 룹
▁보인 다.

4 년
더 니
▁ 테
▁ 휴
) 가
기 관
▁전 망
▁따 르면
▁특 별
▁19 9
합 니다.

▁ 러
▁자 유
▁평 균
( 4
민 주
부 를
▁ 으
원 의
한 겨레
▁크 게
▁기 대
) 이
▁“ 이
▁하 루
▁하 면
▁한 번
▁받 은
9 년
▁ 희
▁ 됐다.

문 을
어 야
▁일 반
▁강 화
하기 로
마 트
▁문제 가
부 가
▁중 심
▁의 미
▁ 얻
) 에
▁예 산
드 는
시 고
▁ 빨
( 5
▁말 이
▁만 에
▁ 뛰
▁되 게
▁추 가
인 은
면서 

▁어 렵
▁해 외
니까 .

▁전문 가
▁않 아
▁판 매
▁ 귀
▁서울 시
▁어 디
▁ S
부 분
▁일 이
▁분 야
▁드 러
시 면
▁가 격
▁들어 가
▁의 견
▁방 법
▁발 생
지 도
문 화
▁때 는
냈 다.

▁얘 기를
▁합 의
▁않 았다.

▁아 ~
▁역 사
▁의원 은
달 러
자 인
르 는
▁ 헌
▁부 산
지 막
전 히
▁ 퇴
▁ xx
마 다
자 로
경 제
이 지
▁사람 들이
▁받 고
▁ L
서 를
으 나
▁제 품
▁해 결
▁박 근혜
수 를
▁시 즌
▁작 품
자 들이
▁ 긴
림 픽
▁ 딱
) 은
0 .
도 로
▁맛 있
▁생 활
▁활 동
리 에
스 로
▁성 공
▁직 원
▁힘 들
사 의
업 을
잖아 .

▁예 상
▁역 할
▁ 페
▁기 간
치 는
▁참 석
▁음 .

▁마 지막
수 가
▁ 읽
정 보
▁없 어
▁확 대
▁중요 한
6 년
▁가능 성이
학 생
▁사 진
▁ 붙
▁ 퍼
▁무 슨
▁판 단
▁변 호
▁있 도록
▁논 의
전 에
▁수 가
▁ 울
인 의
▁부 담
▁가지 고

스 를
▁ 플
▁넣 어
▁이 뤄
▁환 경
▁ 듣
” 이라며
▁생 산
롯 데
▁ 악
▁사 고
▁자신 의
하 자
▁ 겁
▁없 었
▁유 럽
▁대통령 의
▁지 방
▁공 격
▁요 렇게
▁알려 졌다.

▁역 시
▁효 과
정 이
▁프로 그램
▁방 식
▁만 큼
▁ 홈
▁대 부분
▁주 요
▁다양 한
▁ 겨
계 를
시 에
▁같 아
▁전 했다.

▁ 삶
물 을
▁이 러
▁나 가
니다 

▁영 국
▁높 은
▁2 1
▁내 려
▁언 니
▁시 장
▁우 승
▁이제 

▁에 ~
로 

과 의
▁때 

▁ 쪼
▁우리 나라
▁기 존
▁구 조
5 %
구 나
▁있는 데
하 려
▁거 죠.

▁ 숨
동 차
하 다
▁의 혹
습 니까?

▁구 성
▁교수 는
▁ 놀
▁ 빼
선 을
▁방 문
▁혐 의
개 발
리 그
▁전 에
▁서 비스
▁핵 심
▁건 강
▁오 전
▁제 공
▁말 을
▁되 고
▁이 해
▁아 까
랑 스
▁아 마
▁주 변
▁ 끌
▁나 와
▁제 대로
무 원
경 기
▁일 단
▁경 영
▁감 사
▁앞 서
▁씨 는
▁도 입
되 지
는 다.

▁지 나
▁어 린
▁달 라
▁고 려
인 을
파 트
▁하 고

’ 이
스 템
▁2 4
▁ C
▁ 레
▁작 년
▁ 석
대 에
▁있 다
▁활 용
▁증 가
▁업 체
▁ 격
▁ 찬
▁정부 는
▁살 아
▁통 일
▁보 내
▁미 래
▁안 전
상 이
▁만 든
▁인터 넷
▁ 꼭
▁사 무
▁2 2
▁그래 도
▁성 장
▁문제 를
▁나온 다.

k m
화 가
▁상 대
▁적 용
▁건 설
▁지 도
▁집 중
’ 의
대 학
정 치
▁있 고

▁유 지
’ 

▁대 신
▁ 롯데
▁검 토
정 책
▁ 깨
▁ 젊
▁ 괜
▁등 에
적 이
연 합
지 역
▁한 편
▁여 자
▁비 롯
인 가
▁ 익
▁관 리
씨 가
죠 .
▁시 절
▁통 합
▁사실 은
이 트
▁한 다는
습니다 .
▁[ 한겨레
( 6
장 과
▁그 의
세 를
▁기 본
▁각 각
▁예정 이다.

세 요.

▁재 판
▁거예 요.

년 간
▁보 수
▁왜 냐
▁목 표
▁ 꾸
어 난
▁5 0
▁대표 는
▁ 녹
▁대 회
▁표 현
▁적 극
▁ 클
▁조 선
▁ 흔
라 며
▁2 7
고 .

▁넘 어
▁[한겨레 ]
▁중 앙
▁ 움
한 다는
▁일 을
▁이야 기
이 스
▁ 찍
▁우 선
▁현 실
▁ 갑
▁ 캐
원 에서
▁나 서
쳤 다.

▁2 3
▁경 험
▁뭐 

▁신 청
▁알 아
▁2 8
▁설명 했다.

▁ 꿈
▁한 다”고
▁ 밥
▁확 보
▁ 능
▁ 뿐
▁자 리
잖아 

기 술
▁과 거
▁계 약
대 는
들 에
▁그래서 

▁그 리
▁예 .
’ 에
지 에
▁가 서
▁ 밤
니다 .
당 이
럼 프
▁정도 로
▁배 우
관 이
▁저희 가
겠 다는
하 던
▁저 기
▁업 무
▁질 문
▁ 졸
▁내 놓
▁비 슷
원 에
▁ 낙
훈 련
▁원 내
▁도 움
▁ 워
▁등 으로
▁ 써
와 의
히 려
▁실 제로
정 한
▁있 게
▁선 택
아 

▁ 딸
▁시 행
▁번 째
감 을
했 고,
▁받 았
▁그 동안
▁2 6
다 가

▁방 침
▁가 까
▁조 직
▁산 업
했 지만
▁가 는
▁분 위
▁정부 의
▁인 천
▁놓 고
▁제 작
는데 ,
▁6 월
▁ 듯
▁개 정
▁ 뭔
▁ 옛
시 장
▁ 끓
바 마
했 다는
나 는
▁해 당
▁ 견
▁ 묻
▁차 지
▁ 됩
▁이 것
▁행 사
▁움 직
대 가
이 에
▁정 권
▁계획 이다.

를 

▁과정 에서
▁개 선
▁4 월
▁5 월
▁ 색
▁대 응
▁생각 이
▁괜 찮
▁전 략
▁반 면
▁이 사
▁오 히려
▁있는 데

▁설 치
▁ 빈
스 는
▁공 연
▁잘 못
' 을
▁제 기
인 트
▁아 시아
▁아 파트
▁독 일
▁ 술
▁그 건
▁있 기
▁엄 청
▁해 도
소 년
▁3 월
▁ 풍
▁주 는
▁두 고
▁국민 의
▁ 혹
▁얼마 나
▁ 쫌
보 다는
지 지
▁대 비
등 학교
▁아 버
▁수 출
회 가
▁국 방
▁ 징
섰 다.

전 자
▁남 북
두 고
이 를
로 부터
장 으로
▁요 청
방 송
▁사실 상
▁돈 을
▁보 이
▁또 는
▁해 서

▁여 론
▁ 을
▁발 언
가지 고
▁고 민
▁저 ~
· 1
’ 로
▁ 펼
관 은
라 이
비 를
▁부 족
▁관 광
▁프 랑스
리 지
▁사 랑
” 라고
▁ I
학 과
▁벌 어
▁ 벗
국 이
중 에
▁요 리
▁7 월
▁9 월
T V
위 에
▁교 과
▁러 시아
▁ 티
▁가 입
산 업
▁스 스로
해서 

▁젊 은
가 가
어 를
진 다.

▁스 타
▁ 엘
▁서 로
▁ 옮
▁인 간
▁부 모
▁나 왔
▁오 는
▁4 0
▁ 즐
▁남 자
▁1 년
▁기 억
▁매 출
▁비 교
▁200 8년
인 지
▁12 월
보 고
선 거
▁사 는
▁자 연
▁내 부
로 벌
▁주 택
20 1
▁많 아
학 년
▁다 니
▁빨 리
▁중 소
▁필요 한
▁인터 뷰
국 의
명 박
▁것 "이라고
▁받 는
▁ 뽑
▁안 에
행 을
▁오 바마
▁알 고
▁관련 해
가 를
율 이
제 가
하 도록
▁오 래
대 의
일 부터
재 인
▁ 콘
라 도
▁이 는
▁있 다"고
▁북한 의
▁합 니다.

▁ 겪
▁ 맨
▁실 제
▁ 착
▁ 케이
까 요?

▁그 럴
▁통 과
▁주 시
▁제 일
▁선 발
거 리
▁있 던
▁ 끊
구 를
장 ,
으며 ,
스 타
' 는
▁이 른
▁상 승
▁발 견
▁목 소
스 가
▁구 체
▁ 왕
▁요 거
▁ 틀
▁공 공
▁복 지
▁정 신
사 일
▁공 무원
▁회 의
▁싶 은
만 큼
▁이 십
▁있 다”며
으로 

▁사 례
▁있어 요.

▁ 봉
▁ 웃
▁하 게
회 담
▁원 래
▁열 어
회 사
▁2 9
▁ 욕
금 융
되 면
▁유 명
더라 도
관 리
했 다”고
▁비 용
▁되 겠
▁위 험
▁ 쓴
▁시간 이
위 는
▁대 형
▁공 정
▁민 간
▁되 면
없 이
이 기
▁결 혼
▁ 훨
▁선 정
▁총 리
▁8 월
” 고
▁보 는
▁공 식
▁받 았다.

▁ 꼽
▁ 믿
랐 다.

▁우리 는
과 학
대 회
▁이 전
개 를
관 계
▁따 른
▁감독 은
' 를
▁발 전
▁느 낌
▁내용 을
▁거야 .

▁ 걱
지 원
▁소 속
▁ 잇
정 은
▁다 르
▁도 시
▁가능 성
라 인
▁트 럼프
▁모르 겠
▁못 한
▁훨 씬
▁1 월
▁수 밖에
00 만
▁ 품
시 설
▁기 능
▁연 결
▁사람 은
▁차 례
▁높 아
▁대상 으로
▁가 져
▁공 부
▁소 득
복 지
▁중 단
▁진 출
▁달 리
▁진 보
) 과
m 2
주 시
▁대 화
▁전 혀
▁줄 어
임 을
▁10 월
▁처 리
▁운 동
▁ 땅
위 가
’ 가
▁ 0.
▁반 영
▁스 마트
님 이
자 들은
▁공 급
▁영향 을
안 이
음 을
▁제 시
▁제 외
▁19 8
▁ 옆
▁당 선
▁갈 등
자 기
자 들의
혁 신
▁하 겠
▁무 엇
대 한
▁그 대로
▁미국 의
▁은 행
▁ 깊
식 이
▁되 지
▁했 던
▁음 악
▁있 지
▁거 부
▁협 력
자 리
까 .

’ (
▁ 똑
▁ 숙
일 까지
점 이
▁1 만
) 와
공 사
▁시 스템
▁ 쓸
국 민
▁대 책
▁지 속
▁경 기도
▁상 품
▁ 썰
반 도
▁수 입
▁개 혁
물 이
에 스
▁필요 하
▁충 분
▁ 걔
▁ 좌
▁노 력
▁종 합
. 3
▁ 쉬
드 컵
사 진
야 

▁바 람
▁ 늦
▁정 당
▁고 객
분 이
7 %
▁사 태
▁보 통
▁거 래
▁불 법
는 지
소 를
▁이렇게 

▁야 당
5 0
▁ 흐
소 득
▁자 료
▁제 출
▁단 체
▁ 뜨
▁ 잔
▁ 캠
너 지
량 을
▁소 개
▁최 종
▁방 향
▁지금 까지
▁원내 대표
요 ?
▁ 블
치 가
▁전 시
▁인 도
▁여 야
▁아니 냐
▁반 발
▁설 립
▁ 옷
고 를
▁나 도
고 요.

운 드
1 9
▁역할 을
▁ ○
▁ 납
통 신
’ 으로
만 

포 츠
▁오 른
다” 는
▁ 엔
▁ 헤
▁제 주
▁올 림픽
었 던
이 란
▁이 천
▁어 머니
▁2 월
▁고 용
▁불 가
4 %
했 을
하기 도
▁한 다고
▁자 동차
▁성 과
▁헌 법
▁ 셈
연 금
▁한 나라
▁실 시
▁토 론
네 

▁받 을
▁본 격
▁얼 굴
단 을
생 활
운 동
치 고
▁하 시
사 로
▁주 목
▁제 한
▁좋 겠
▁200 9년
▁중 에
3 0
어 도
▁먹 고
· 2
부 에
▁전 화
▁보 호
▁201 0년
▁선 언
▁글 로벌
▁있 지만
▁하 면서
▁만 드는
▁저 도
▁어~ 

▁혼 자
▁ M
어 요

▁사 망
▁수 석
▁지금 은
▁과 학
▁L G
스 럽
▁이 건
▁ F
▁ 히
▁예 를
▁남 아
▁ 니
경 찰
▁그 가
▁대 기업
감 이
서 울
0년 대
’ 라는
▁ 암
수 록
▁ 던
부 의
우 리
▁대 변
▁대 출
▁주 로
▁참 가
▁행 정
▁언 어
▁ 뿌
▁ 싫
야 .

▁하 기
▁시 각
▁분 명
▁그~ 

더라고 

▁졸 업
▁ 낸
▁200 7년
▁누 구
▁ 칠
수 는
자 와
▁2 년
▁구 속
로 는
사 에
▁전 환
▁사람 들
구 가
세 계
인 데

▁지 하
1 0
▁판 결
▁11 월
명 은
였 던
주 택
▁이 명박
▁예 술
▁적 이
▁양 념
상 에
▁이 들은
▁지 켜
▁수 익
들이 

▁노 래
▁앞 두고
1 %
▁ 촉
나 

스 크
▁기 획
▁인 권
▁재 정
▁후보 는
▁취 업
북 한
▁거 는
▁불 과
▁쉽 게
원 으로
하 거나
디 어
중 앙
▁모습 을
▁ 냉
▁ 짜
▁아 니다.

▁국 무
▁최 소
▁근 무
▁담 당
▁주장 했다.

▁ 밑
구 

▁ 쏟
▁ 푸
국 은
▁ N
노 동
실 을
▁반 응
▁그렇 죠.

▁변 화
▁ 빌
▁이 하
▁나 왔다.

▁의 료
▁이 동
▁전 달
▁대한 민
▁입 장
▁ 망
▁이 걸
▁강조 했다.

▁ 컨
▁아 프
▁ 팬
▁제 도
▁한국 의
▁어려 운
. 6
▁ 훈련
환 경
▁장 애
▁청 소년
▁ G
내 는
프 로
▁문 재인
▁201 2년
가지 고

▁상당 히
라 마
▁있는 

▁군 사
관 을
▁안 보
▁대 법
▁거 쳐
▁바 뀌
▁ 곧
니 깐
적 을
▁이 끌
▁약 속
▁검찰 은
네 요.

▁아 빠
▁ 끼
▁ 썼
거 래
트 를
▁더 욱
▁ 뭘
겼 다.

동 산
스 러
▁각 종
심 을
▁범 죄
보 는
▁아니 면
▁여 기에
▁관심 을
▁어린 이
▁전 통
▁보도 했다.

갔 다.

약 을
▁1 000
▁가 진
▁여 전히
▁어 어

▁건 물
▁누 가
▁ 꺼
르 고
지 로
차 를
▁중 인
▁축 구
회 에서
▁그 림
▁지 급
▁유 엔
▁작 업
▁작 은
) 로
▁ 궁
량 이
보 험
▁ 챙
게 

▁주 고
라고 

2 %
▁그 룹
▁가 정
▁공 간
▁관 한
▁게 

▁확 정
( 7
분 을
▁단 계
▁201 1년
▁탄 핵
▁ 칼
려 는
▁것 처럼
▁주 도
’ 은
기 의
월 호
▁고 위
시 켜
▁강 남
▁못 했다.

▁ 컴
▁제 안
▁조 성
▁느 끼
▁ 솔
▁ 앉
▁매 우
▁실 패
▁언 제
으 니까

▁강 력
. 8
. 9
하 신
▁거 

▁당 연
▁형 태
▁시 험
▁인 수
▁똑 같
도 시
명 으로
카 드
▁바 꾸
이 어
▁하 는데

▁여 행
▁들 었
규 모
금 이
으 면서
▁인 상
▁최 초
▁행 복
▁희 망
▁한나라 당
▁ B
▁ 억
회 는
▁영 어
▁투 표
▁압 박
▁중심 으로
든 지
▁대 구
▁되 는데

▁점 을
▁중소 기업
선 수
▁전 쟁
리 스
우 는
▁미 리
▁현 장
▁나타 났다.

격 을
구 요

▁보 험
▁회 복
( 약
▁ P
▁ 덕
▁ 즉
▁하 셨
▁북한 이
▁이유 로
▁ 줘
▁아 침
▁작 가
▁밝 혀
▁없 다”고
▁회 장
▁나오 는
▁여러 분
▁있 겠
▁에 스
하겠 다는
▁됩 니다.

차 례
하 다는
▁이 루
▁비 해
▁신 고
▁6 0
▁ 잃
어 ?

중 국
▁" 이
▁브 랜드
▁나 중에
▁아니라 

경 을
사 와
▁한 다
) 에서
네 .

는데 요.

리 로
하 라
▁교 통
▁문제 는
▁것이 라는
대 전
▁남 편
( S
▁청 년
▁사실 을
▁처음 으로
▁ 쇼
주 고
▁때 도
▁않 다.

▁방 안을
▁통 화
▁명 이
▁겁 니다.

▁ 볶
율 은
▁“ 지
▁원 을
▁외국 인
( 현
▁ 짓
리 기
일 보
▁국 회의
) 씨는
도 는
반 기
응 

▁서울 대
▁타 고
▁대해서 는
▁뉴 욕
요 일
▁나 선
▁등 장
▁않 겠
▁상 대로
▁장 기
▁지적 했다.

▁스마트 폰
▁ 루
▁ 빚
▁의원 이
▁항 상
재 를
▁전 해
▁국 립
▁의 무
▁열 리는
무 현
한 다고
▁정 확
00 여
▁후보 가
▁이번 에
▁ 곤
한 다
▁아 아

▁가 야
▁뭔 가
▁감 소
거든 요

▁거기 서
▁이야 기를
회 견
▁달 러
▁음 식
씨 의
▁자 기가
▁영 업
▁필요 가
▁상황 에서
▁ 흘
▁기 다
▁연 속
▁건 축
▁아 들
▁등 록
▁순 간
▁혐의 로
▁ 멀
▁ 다.

대 

▁스 트
▁배 치
▁사업 을
▁식 으로
▁광 고
▁그것 도
부 모
이 자
▁대 북
▁불 안
▁사람 들은
▁노 조
▁15 일
) '
며 ,
위 로
하 시
하 지만
▁3 년
▁ 까
▁ 슬
스 터
▁소 송
▁되 고

▁뭐 냐
▁그냥 

으로 는
▁“ (
▁ 택
스 의
▁보 유
▁기 초
▁안 정
▁방 안
▁들 여
▁거야 

▁기 관
▁회 장은
하 다고
▁이 달
▁부 동산
▁집 에
▁결과 를
▁나 머
00 만원
▁평 화
▁치 료
▁규 정
▁갑 자기
( C
▁아 닙
▁아 .

▁위 반
▁심 각
▁씨 가
▁소비 자
려 면
문 이
▁원 칙
▁출 전
▁S K
▁ 깔
▁아 예
▁3 1
▁개 최
▁언 급
▁절 반
▁광 주
▁옛 날
▁쏟 아
5 000
리 카
만 이
사 고
품 을
▁수 술
▁완 전히
다. ”

성 과
▁재 산
▁했 는데

▁기자 회견
심 히
▁사 라
▁“ 그
▁다 만
▁국 토
▁불 러
’ 고
▁시 설
성 화
오 는
▁5 일
▁맞 는
▁201 3년
▁정치 적
▁ 흥
▁수 는
▁못 하고
▁중국 의
▁말씀 드
▁쪼 끔
▁ 혜
▁의 사
▁경찰 은
▁끌 어
▁ 염
▁ 탓
무 리
▁경 남
▁모 델
▁늘 어
▁ 덧
되 면서
안 전
에 요.

▁보 니까
▁메 이
국 제
▁전 자
▁많 다.

▁동 아
▁11 일
▁걱 정
드 시
레 스
지 의
▁나 올
▁신 뢰
면서 도
▁6 일
▁둘 러
▁논란 이
▁겨 울
▁ 쌓
철 수
▁가 르
▁가 치
▁조 건
▁생각 해
▁출 연
▁있어 야
다 고

단 이
평 가
▁금 지
▁같애 요.

계 가
일 이
퓨 터
▁부 인
▁없 다는
▁드 라마
▁독 립
▁상황 이
▁비슷 한
규 직
있 는
▁거 기에
▁중 간
잖아 요

▁몰 라
▁의견 을
사 에서
역 을
인 들이
▁자 녀
▁부 회
▁사회 적
. 5%
투 자
▁별 로
▁16 일
▁ 혁신
국 가
법 을
포 인트
▁시 도
▁경우 가
▁27 일
병 원
셔 도
▁해 석
▁소 통
에는 

본 부
▁그 쵸
▁하 는데
▁만 약
▁재 미
▁맞 춰
" 이라며
대 책
▁1 일
▁것 이라고
▁만 난
) 

했 고
▁부 정
▁들 고
▁계 열
▁출 마
▁맛 이
세 가
조 선
▁보 기
▁세 월호
▁분 이
▁존 재
더니 

이 터
▁없 을
▁바 꿔
▁바 이
▁쓰 는
▁월 드컵
롭 게
▁남 성
▁끝 나
받 은
인 으로
▁어 제
▁미 술
▁그렇 습니다.

▁7 일
▁카 드
▁셈 이다.

기 구
▁어 쨌
▁처 벌
연구 소
▁ 뇌
▁ 쿠
으 니까
▁2 차
▁동 시에
분 의
율 을
▁지 키
▁해 주
▁마 찬
▁있어 서
▁절 대
▁ 봄
가 량
▁것 ”이라며
▁없 었다.

▁있었 던
▁자 주
▁저 녁
▁분 들이
▁인제 

▁그거 는
▁나오 고
▁이름 을
~ 2
’ ,
▁ 넓
▁ 맥
건 설
▁지 시
▁10 일
▁ 맺
로 ,
지 면서
▁사 상
▁신 문
▁강 원
▁할 머니
▁시간 을
▁측 은
▁22 일
아 야
움 을
의 회
장 관
해 도
▁전 날
▁기 소
▁근 로
▁먹 는
▁변호 사
가 루
의 

펀 드
▁일 정
▁좀 

▁10 년
▁12 일
▁ 슈
별 로
가 족
로 운
번 째
서 관
전 이
▁교 사
▁파 악
▁빠 져
▁28 일
( I
점 으로
▁한 화
▁모 양
▁20 일
▁9 일
▁힘 을
률 이
웠 다.

▁이 케
▁기 념
▁또 

▁허 용
문 학
▁삼 십
▁그렇 죠

▁ 섞
들 

주 일
▁열 심히
▁행 동
▁완 성
▁연 장
▁근 까
▁추 천
▁법 무
▁8 일
▁채 용
▁그거 를
▁베 이
▁13 일
▁14 일
▁교과 서
단 의
통 합
▁어 .

▁것 과
▁비 중
▁문 학
▁그러 고
▁대표 팀
▁부분 이
▁이거 는
▁대한민 국
들 한테
수 석
았 던
이 면
▁유 치
▁물 어
시키 는
" 고
▁ 줬
▁직 후
단 은
안 보
▁3 일
▁올 려
▁스 포츠
▁뛰 어
수 로
올 림픽
▁이 곳
▁조 정
▁넣 으
거든 요?

▁ 든
수 사
스 (
스 코
▁전 기
▁소 설
▁들어 서
▁먹 을
▁병 원
▁25 일
어 요
▁아 래
▁미 사일
▁현 지
▁입 장을
에 다
자 ,
▁나 섰다.

▁선 보
▁관련 된
▁늘 어나
▁자신 이
▁디 자인
▁덧 붙
조 건
▁보 니
▁분 양
구 의
조 정
짜 리
차 가
▁시 청
▁안 녕
▁화 장
▁ 밖에
상 의
세 대
협 회
▁것 에
까지 는
▁재 료
▁보면 ,
▁도움 이
▁ D
당 은
린 다.

▁근 거
다 른
아 무
▁넘 는
▁않는 다.

▁비롯 해
리 의
▁두 산
▁따 로
▁포 기
▁사실 이
▁속 에
교육 청
▁등 은
▁입 학
▁앞 에
▁그렇 지
▁19 7
▁취 임
▁교수 님
▁사 퇴
▁정 리
▁말 고
▁되 어
▁했 는데
(1 9
억원 을
▁어쨌 든
▁수 요
▁확 산
▁검 사
▁투 입
) 도
▁ 뒷
▁ 혈
명 에
프 트
한 다”고
▁이 들
▁가 고
▁5 년
▁자체 가
비 가
순 실
자 에
▁내 세
▁여 름
▁컴 퓨터
께 서
장 님
종 의
▁기 름
▁유 리
▁총 선
하겠 다고
대 강
성 장
▁않 으면
▁이상 의
▁26 일
▁ ■
▁ 밖
▁ 짧
수 도
일 본
▁있 으면
▁개 입
▁못 하는
▁상황 을
▁사이 에
▁접 근
▁17 일
도 에
명 ,
▁대 중
▁사 과
▁201 4년
이라 도
개 의
까 ?

나 요?

항 공
▁자 꾸
▁고 추
▁노 무현
▁21 일
▁충분 히
수 의
▁이 래
▁자 료를
▁선 진
▁반 드시
▁활 동을
▁돼 요.

▁ 는
▁ 죄
도 의
에 만
진 을
▁한 반도
하겠 다”고
▁내용 이
” 라며
원 ,
▁시 대
▁인 근
▁안 타
▁마 무리
▁통 신
▁차 량
▁증 거
’ 이라는
개 혁
등 급
어 요?

피 언
▁선 고
▁규 제
▁항 공
▁여기 서
▁왜냐 면
▁ 류
전 문
▁나 눠
▁책임 을
▁불 구
▁출 범
▁잡 아
성 에
증 을
▁생각 하는
▁가능 한
▁쪽 은
" 라고
▁ 둔
조 차
했 습니다.

▁아 베
▁자 리를
▁조 사를
▁비 행
▁바 라
▁매 년
▁쪽 으로
▁마찬 가지
기 고
챔 피언
▁2 일
▁유 일
▁김 치
▁차 이가
▁회 담
▁ 닭
군 요.

놓 고
안 에
이 션
텐 츠
▁1 위
▁나 이
▁위 협
▁도 전
다" 는
▁말씀 을
· 중
계 의
리 트
면 을
전 에서
▁주 식
▁대표 가
▁ 덜
하 셨
▁보 였다.

000 만
000 만원
▁메 시
▁30 일
▁주 인
▁일본 의
▁홍 보
▁최고 의
▁아닌 가
▁듣 고
▁ 긍
부 와
이 익
▁보 장
▁자 격
▁사람 을
▁특 검
▁집 에서
▁밝 힌
▁200 6년
▁24 일
' 의
▁ TV
계 획
▁바 탕
▁4 일
▁밝 히
▁매 일
▁시작 했다.

하려 는
1 2
아 이
▁대 체
▁지 정
▁일 어나
▁제 재
▁단 일
▁기준 으로
. 5
B S
경 영
기 와
세 요

▁게 임
▁못 해
▁준비 를
▁ 레이
대 에서
해 진
▁나 무
▁특 수
▁살 짝
▁친 박
▁벌 써
▁폐 지
기 록
시 킨
실 험
폭 력
▁그 치
▁자 율
▁속 에서
▁골 프
▁18 일
관 광
장 인
점 에서
▁있 고,
▁연 간
▁음 ~
▁19 일
▁임 명
▁ 왔다.

단 에
론 을
어 요.
트 남
▁이 와
▁단 순
▁규모 의
▁나머 지
자 금
지 면
체 육
으로 부터
▁비 상
상 은
성 은
텔 레
협 력
▁그 만
▁보 면

▁와 서
▁울 산
( K
권 의
나 무
야 구
재 판
▁마 을
▁출 시
▁법 률
▁23 일
▁덧붙 였다.

서 비스
셔 야
해 온
▁부 문
▁구 축
▁올 랐다.

▁도 로
▁발표 했다.

c m
▁ E
르 게
회 에
▁한 다"고
▁최 저
▁같아 요.

' 이
▁ 액
번 에
없 는
▁고 교
▁개 념
▁동 의
▁노 인
▁추 정
▁관심 이
.3 %
야 ?

▁보 이는
▁위 안
▁만 한
▁문 을
▁확 실
▁취 소
▁협 의
▁뜻 을
과 는
조 를
조 합
▁주 말
▁말 하는
▁지금 

▁출 발
겠 다
의 원
정 당
▁“ 대
▁에 너지
▁커 피
▁장관 은
▁쉽 지
데 .

해 를
▁1 억
▁것 .

▁기 반
▁전문가 들은
▁혹 시
겠 다고
미 국
시 켰
자 에게
▁안 철수
▁김 정
▁간 단
▁온 라인
▁통 한
▁차 별
▁창 업
▁평가 를
▁방식 으로
' 에
B C
가 고
릏 게
분 기
▁예 방
▁위 에
▁뒤 에
▁측 면
▁안녕 하
. 4%
0 여
1 1
’ 에서
일 을
▁새 정치
▁돌 려
▁방침 이다.

까 

받 는
후 보
▁자 산
▁정보 를
▁혜 택
. 7%
제 는
티 브
했 으나
▁1 차
▁응 .

아무 개
▁ 뮤
▁공 천
▁신 경
▁무 기
▁그러 면서
▁강 한
▁201 5년
▁뉴 스
▁ 굴
▁ 싱
페 인
학 을
▁발표 한
이었 던
e r
▁ 굳
▁ 득
디 오
▁개 막
▁그러 니까

▁도 와
▁협 상
거 운
▁없 다고
▁집 행
▁명 예
▁심 리
(현 지
▁ 벤
리 즈
승 을
시 고

신 을
▁가 슴
▁때 까지
▁연 기
다 음
▁같 습니다.

▁국정 원
▁29 일
라 면
▁대 규모
▁보 건
▁일 자리
▁김 영
▁앞 에서
민주 당
▁ 삭
▁ 튀
권 이
실 에서
주 년
▁수 상
▁보 니까

▁당 국
▁올 리
▁따라 서
▁ 걷
▁ 겸
▁ 괴
소 가
형 을
▁이 재
▁개 헌
▁아니 고
▁평 소
▁권 력
▁테 러
▁아버 지
.6 %
▁ 런
▁ 휘
▁하 락
▁수 업
▁공 약
▁마 이
는데 .

▁재 밌
▁더 불
▁된 다고
▁ 쳐
센 트
▁아 내
▁마 늘
▁책 을
▁프로 젝
자 치
진 이
▁받 지
▁생각 하
▁떠 나
노 조
▁자 살
▁안 팎
▁ 냄
▁ 탐
금 은
위 의
준 다.

▁기 부
▁거 를
▁제 목
▁고 기
▁구 매
▁받아 들
▁하 겠습니다.

다” 라고
▁운 전
▁비롯 한
계 약
당 을
▁사 전
▁인 물
▁인 생
▁중 이다.

▁유 통
▁통 해서
▁아니 고

▁집 단
▁명 의
▁높 이
▁낮 은
축 구
▁불 편
▁성 적
' 로
4 0
▁ 낳
주 를
▁인 기
▁시작 한
▁꾸 준
▁ 케
기 간
니 아
서 의
처 를
▁‘ 이
안 은
위 기
해 주
했 다
▁원 전
▁된 다
▁ 텐
▁ 챔피언
데 요.

영 화
했 다"고
▁회 원
▁정상 회담
▁옮 겨
▁분명 히
▁있 습니다

▁관 객
▁교 체
▁실 험
▁총 리는
▁넣 고
▁힘 든
▁호 텔
▁돌아 가
▁떨어 진
▁ 옥
마 을
만 을
스 탄
우 고
▁이제 는
▁신 용
▁진 술
▁쓰 고
▁길 을
▁포함 해
▁갔 다
▁흔 들
감 독
연 맹
장 도
적 이고
▁전 면
▁전 반
▁오늘 은
래 도
하 다”고
했 다”며
▁지 구
▁지 배
▁수 원
▁어 우
▁인 식
▁소 금
▁학 부모
▁특 정
▁것은 

▁잠 깐
▁ 꽃
고 기
군 은
씨 를
▁이 들이
▁아 .
▁가 면
▁200 5년
▁베 트남
▁찬 성
▁더불 어
안 타
어 가
해 양
▁하 이
▁제 조
▁많 았
▁프 리
▁점 에서
▁ ―
시 를
으 면

인 과
전 쟁
지 ?

▁이 틀
▁아 름
▁거 론
▁최 순실
▁늘 어난
A )
▁ 섬
▁경 선
▁근데 

▁걸 로
▁버 스
▁수도 권
▁벗 어나
. 1%
건 을
렀 다.

수 한
▁내 는
▁없 다
▁연 락
▁발 사
▁문제 에
▁앉 아
명 과
시 대
정 에
▁때 부터
▁여 부를
▁알 았
하게 

▁대통령 과
▁현대 차
▁가까 운
▁이른 바
대 .

으 니
▁일 으
▁등 에서
▁상 담
▁소 리
▁매 각
▁찾 는
▁여론 조사
만 의
시 민
이 던
▁이 란
▁대 전
▁일 주일
▁내 고
▁때 마다
▁했 습니다.

▁ 홀
로 를
어 진
예 술
지 방
으로 써
▁지 휘
▁국 어
▁발 굴
▁사람 의
▁역 대
▁지적 이
▁ 폴
개 국
메 달
▁4 년
▁물 을
▁환 자
도 ,
만 에
었 습니다.

▁개 편
▁한국 에
▁남 은
▁응 답
▁손 을
▁지원 을
.9 %
' 가
구 는
동 의
이 드
한 

▁구 입
▁철 저
▁희 생
▁당연 히
▁ ◇
▁ 균
▁ 콩
같 이
공 항
자 동차
▁시 위
▁공 직
▁부 처
▁무 료
▁강 제
▁이유 는
▁브 라
진 은
▁비 난
▁싶 어
▁삼성 전자
▁봐 야
▁긴 급
▁색 깔
▁메이 저
0 만
보 면
수 수
점 은
▁어 어
▁기 회를
▁비 밀
▁과 정을
▁들어 간
▁중국 이
▁19 6
▁가능 성을
▁체 험
▁권 한
▁핵 실험
▁정책 을
▁마음 이
▁ ▲
호 를
▁수 비
▁전 남
▁공 항
▁불가 능
( 8
) 보다
- 1
▁ ◆
력 은
시 가
에 이
지 법
촬 영
▁사 장
▁위 기
▁배 경
▁먹 었
▁담 은
▁분위 기
▁촉 구
▁ 낼
▁ 라고
▁수 용
▁담 아
기 지
당 한
발 전
범 죄
▁거 듭
▁세 종
▁성 격
▁성 향
▁된 다는
▁끝 에
▁인터뷰 에서
▁ 돕
되 어
물 관
주 로
케 팅
▁2 만
▁오 십
▁마 치
▁그러 면은
▁회 장이
▁본 인
▁교육 을
▁길 이
▁구체 적인
▁궁 금
내 고
장 애
증 권
▁이 르
▁초 등학교
▁채 택
▁형 사
▁계획 을
▁사건 을
▁글 을
▁답 변
스러 운
▁ /
▁ 꼬
▁ 센
나 ?

점 에
▁이 익
으로 ,
▁나 아
▁다 섯
▁연 극
▁하는 

▁끝 난
▁ 값
러 스
이 지만
▁이 탈
▁전 공
▁내 일
▁외 부
위원 장
▁승 리
끼 리
액 은
▁대 우
▁전 력
▁“ 국
▁자 금
▁10 %
▁누 리
. 2%
▁ 흡
라 

억 달러
직 을
▁아 동
▁전 용
▁통 계
▁지금 도
다" 면서
▁하나 의
▁눈 에
▁삼성 전
▁마음 을
연구 원
▁결국 은
▁머 리
▁관광 객
k g
▁ 땐
▁ 빛
미 술
자 

적 이다.

질 을
▁대 로
▁그래 ?

▁심 사
자 들
체 를
▁없 고
▁신 규
▁반 기
▁초 반
▁같애 .

▁국민의 당
( M
다 운
부 장
지 검
▁3 개
▁모 아
▁도 발
▁경우 는
▁돈 이
▁이유 가
▁쪼 금
▁ 며
▁ 봅
▁ 냈다.

제 도
지 ,
지 컬
▁하 다
▁하 니까

▁전 북
▁타 이
▁코 스
▁ 벽
▁ 털
가 의
▁가 게
▁전 부
▁거 는

▁걸 쳐
i n
게 요.

군 의
보 를
신 이
여 서
위 터
체 가
화 에
▁사 장은
▁" 그
▁우리 의
▁바 다
▁한국 은
▁20 %
▁적 은
▁청 문
▁종 목
▁완 전
▁name 2
1 8
▁ 뚜
시 즌
주 가
▁바 른
▁재 벌
▁열 고
▁활 성화
▁충 돌
국 을
정 희
▁모 임
▁드 리
▁씨 의
세 로
세 요
실 에
업 계
했 기
▁사 법
▁1 조
▁고 통
다” 

▁소 유
▁연 대
▁좋 을
▁뒤 집
▁본 인이
▁올해 는
▁ 왼
▁ 첨
단 계
비 아
웨 이
함 을
▁있 죠.

▁소 위
▁원 하는
▁넘 게
▁애 플
▁가까 이
( A
2 00
무 성
받 고
▁아 는
▁지 상
▁수 정
▁것 들이
▁거 리
▁경 북
▁학 습
들은 

▁들어 오
▁좋아 하는
▁피해 를
▁비판 했다.

▁홈 런
게 임
▁아 시
▁작 업을
▁체 결
▁리 더
▁라 이
화 된
▁그 를
▁하 면

▁부 드
▁영 상
▁머 물
▁적극 적으로
o n
구 조
세 기
정 규직
▁이 승
▁예 비
▁그렇 죠
▁임 금
▁몰 아
▁xx x
▁서비스 를
▁혹 은
.8 %
류 를
아 시아
청 은
총 리
▁나 누
▁자 본
▁5 0%
▁실 질
▁바탕 으로
▁꾸준 히
것 도
활 동
▁원 자
▁동 생
▁당 장
▁감 안
▁했 지만
▁설 계
▁임 시
▁주인 공
I A
관 에서
말 로
표 를
해 왔다.

▁경 고
▁상 임
▁조 합
▁했 을
▁적 지
▁번 역
▁트 위터
▁홍 콩
▁향 후
▁포함 한
▁으 음
▁효과 가
선 이
심 이
싱 턴
지 털
훼 손
▁차 원에서
▁다음 에

재 로
지 사
▁정 의
▁자 

▁위 치
▁대변 인은
o r
▁ 놨
교 통
당 의
에 다가
인 권
▁그 린
▁보 면은
▁다 가
▁상 징
▁선 두
까지 

적으로 는
▁우려 가
▁휴 대전
만 으로
분 에
서 가
이 랑
직 원
해 

▁나 갈
▁제 2
▁고 등학교
▁결 정을
▁설 탕
▁대해 선
▁피해 자
▁그것 이
▁ 쌀
기 획
습 니까.

▁대 단
▁지 식
▁한 미
▁많 았다.

▁직 업
▁7 0
▁체 포
▁충 남
▁맞아 .

▁기록 했다.

▁위원 장은
▁줄어 들
6 0
▁ 짐
란 드
성 의
여 야
위 권
져 야
지 게
▁1 인
▁공 유
▁관 측
▁도 착
▁장 면
▁후 반
▁과 연
▁설 득
▁에 이
▁이거 를
▁대해서 도
▁전해 졌다.

▁ U
▁ 흑
겠 다”고
지 기
하 나
▁아 우
▁노 력을
▁새 벽
000 여
▁복 귀
▁완 화
▁느 껴
▁잇 따
( 이
▁ 냈
▁ 콜
▁ 촬영
명 한
버 스
액 을
었 는데

우 스
전 거
했 는데
▁물 러
▁창 출
▁움직 임
▁솔 직
( F
( N
1 5
▁ •
▁ 잊
라 엘
아 버
전 략
했 지만,
▁자 원
▁또 한
▁민 족
만원 을
(2 0
▁능 력
· 미
가 .

개 로
슬 람
▁인 공
▁주 문
▁경 기를
▁비 싸
▁특 징
▁청 구
▁법 인
▁데 다
▁업 계
▁감사 합니다.

▁반기 문
같 은
지 구
▁부 상
▁선 물
▁무 조건
▁법 안
▁민주 주의
▁기술 을
▁엄마 가
▁위해서 

▁캠 프
달 라
정 의
▁수 행
▁다 녀
▁연 습
▁200 4년
▁후보 를
▁북한 은
~ 3
워 크
재 단
촛 불
히 는
▁연 출
▁세 력
▁무 역
▁5 00
▁출 석
▁얘 기가
▁야 권
▁학생 들이
▁플 레이
▁사무 총
▁맨 날
▁냄 새
드 를
라 운드
바 이
신 문
질 이
▁공 감
▁구 간
▁추 석
▁논 문
스럽 게
▁ 횡
자 원
▁그 다음
▁수 십
▁2 위
▁거 짓
▁때 가
▁연 설
▁늘 었다.

▁기업 의
▁혐 의를
군 이
▁선 임
▁3 2
▁3 8
▁만 족
▁연 주
▁생 기
▁점 점
회의 에서
▁카 메
한겨레 >
▁펼 쳐
( L
식 품
자 유
▁자 동
▁검 색
▁10 여
▁애 초
▁풀 어
되 기
률 은
어 로
▁한 글
하는 데
▁되 기
▁김 대
▁무 서
▁계 산
▁초 대
▁선생님 이
시고 요.

▁계약 을
' 은
▁ 좁
▁ 펴
시 스템
식 으로
프 라
▁사 십
▁“ 우
▁‘ 대
▁안 에서
▁강 의
▁것이 

▁홈 페
▁만약 에
무 역
법 이
서 에
십 니까?

이 며
축 은행
▁전 투
▁보 낸
▁일 은
▁해 요.

▁영 역
▁그것 을
▁흐 름
▁긍 정
방 을
서 도
▁아 아
▁마 케팅
▁혼 란
▁콘 텐츠
목 을
▁이 스
▁수 수
▁“ 내
▁조 언
▁올 린
▁폭 력
▁프로젝 트
▁ 샌
공 원
구 역
기 름
절 한
행 이
▁이 르는
▁수 능
▁“ 사
▁“ 한국
하는 

▁관 람
▁4 대강
부터 는
▁양 파
▁호 소
▁아직 도
▁극 복
▁장애 인
▁ 넥
길 을
보 호
세 요?

줘 야
▁있 다"며
▁가 구
▁정 규
▁없 다”며
▁결 승
▁그렇 죠.
▁점 검
▁결과 가
▁ 갤
▁ 꺾
▁ 쏘
장 

타 임
▁전 형
▁예 측
▁3 5
▁모 른
▁처음 이다.

) 으로
▁ -
자 들을
하 시는
▁어 울
▁중 학교
▁예 예
▁의 심
▁입 고
▁서울 중앙
▁살 고
▁투 수
▁체 육
▁체 제
▁항 의
▁최고 위원
▁대해서 

▁천 안
▁이용 해
2 5
· 사진
▁ 낫
▁ 섭
주 기
▁전 화를
▁기 여
▁오 르
▁동 료
▁합 격
▁의미 가
’ 와
▁ T
마 저
마 는

봐 야
스 와
자 도
재 가
항 을
▁그 니까

▁등 도
▁부 탁
▁연 계
▁동 반
▁동 영
▁현 금
위원회 는
▁30 %
▁탈 북
' 고
1 6
다 ’는
비 는
전 형
지 와
해 ,
▁이 내
▁수 사를
▁거 라고
▁않 도록
▁모 여
▁현 행
▁대표 적인
▁정치 권
▁여기 다
▁접 촉
~ 

릭 터
무 를
쪽 에
▁보 시
▁일 자
▁오 랜
▁3 3
▁동 원
▁4 5
▁한국 이
▁단 독
▁높 다.

▁검찰 이
▁폭 발
▁위해서 는
▁아니냐 는
▁ 났
공 단
사 인
▁대 결
▁뭐 가
▁김 성
▁경우 에는
▁ 묘
기 ,
화 점
▁이 릏게
▁있 지만,
▁전 부터
▁않 으
▁고 속
▁작 성
▁중국 은
▁ 멋
▁ 묶
바 로
부 (
었 을
이 기도
플 레이
▁일 어
▁인 구
▁초 기
▁경우 도
▁나타 나
▁사진 을
▁효과 를
2 )
· 일
’ 라고
▁ 0
▁ 객
▁ 멸
▁ 밴
▁ 습
다 시
지 에서
평 화
▁시 키
▁제 거
▁되 는데
▁사람 도
▁같은 데

▁초 청
▁후보 의
▁만들 고
▁절 차
▁예상 된다.

▁도움 을
▁ 美
려 야
류 가
비 에스
시 킬
용 을
타 를
▁그 만큼
▁하 자
▁‘ 공
▁않 게
▁조 작
▁비 서
▁진 영
▁4 개
▁북한 에
▁힘 이
▁은 퇴
▁쪽 에
▁아무 래도
▁키 워
▁뮤 지컬
' 

▁ 헬
바 일
사 ,
어 서

예 요.

▁아 하
▁세 상
▁바 닥
▁했 다고
▁6 개월
▁파 견
▁임 대
▁편 의
▁경찰 이
▁육 십
▁캐 릭터
골 프
문 제
실 이
▁아 닐
▁중 에서
▁공 화
▁상 관
▁무 시
▁성 남
▁담 배
▁사건 이
▁곳 곳
▁베이 징
▁이스 라엘
T A
법 인
사 들이
줬 다.

하 이
▁이 슈
▁거 에
▁“ 아
▁나 쁜
▁제 1
▁때 는

▁서 민
▁김 종
▁입 주
▁사회 의
▁질문 에
> 는
’ 과
리 면
조 원
하 려고
▁한 다”며
▁“ 현
▁다 

▁일 제
▁말 한다.

▁소 식
▁사이 트
▁떠 올
▁전망 이다.

w w
▁ 쌍
든 가
액 이
이 다
찌 개
투 표
했 다가
▁분 리
▁부분 에
인데 ,
이에 요.

▁옆 에
▁지하 철
▁ 곡
▁ 깜
▁가 치를
▁정 체
▁기 회가
▁말 한
▁의 식
▁선 배
▁3 00
▁김 정은
▁결 의
▁건 데

▁박 사
▁만들 었
▁관계 를
▁삶 을
( ·
· 이
▁ 띄
관 의
입 니다.
▁해 소
▁부 여
▁고 향
▁국민 연금
▁치 열
회의 를
▁대학 생
▁면 접
▁상대 적으로
▁흔 히
▁둘러 싼
' 으로
냐 

생 산
종 합
증 이
치 지
화 학
▁이 들의
▁“ 박
▁없 습니다.

▁생 긴
▁근 본
▁진 입
▁200 0년
▁부분 은
▁국회 에서
▁자리 에서
가 로
받 을
이 닝
지 자
청 이
▁시 리아
▁주 석
▁공 장
▁연 말
▁장 학
▁후 배
▁스 님
▁대통령 을
▁금 메달
▁갖 추
▁야 구
▁맛 을
▁“이 번
▁발생 한
▁프로그램 을
▁런 던
3 )
▁ 라는
▁ 센터
과 

뿐 만
재 는
제 품
호 는
▁보 이고
▁모 집
▁소 환
▁도 쿄
▁반 복
▁채 권
▁산 하
▁name 1
▁특별 한
▁똑같 은
▁최초 로
▁에스 케이
▁ 멈
▁ 쭉
음 이
▁말 도
▁통 제
▁현 장에서
▁점 이
▁맡 고
C C
’ 도
▁보 다
▁기 회
▁고 소
▁3 만
▁그래 

000 원
▁이상 이
▁아이 들이
▁크 다.

▁지역 에
▁워 싱턴
▁줘 야
a n
렸 던
주 에
▁이 슬람
▁것 들을
▁보 면은

▁‘ 사
▁인 한
▁여 섯
▁없 애
▁있는 지
▁같 다.

▁김 기
▁계 기로
▁했 다는
▁입 을
▁포 인트
▁돼 요

▁철 학
▁맞아 요.

▁방법 을
' 라는
가 구
됐 던
셔 서
▁사 드
▁인 하
▁주 최
▁말 까지
▁조 치
▁회 장의
▁의원 의
▁변 화를
▁않을 까
▁추가 로
▁의혹 을
고 는
소 에서
▁지 분
▁상 반기
▁미 군
▁무 상
▁분 들
▁동 네
▁구 단
▁실 천
▁한국 인
▁추 구
▁들어 가는
▁단 속
▁미국 은
▁살 펴
▁리 그
▁몰 랐
▁퍼 센트
▁대법 원
사 건
시 각
층 의
▁“ 한
▁부 과
▁연 봉
▁원 으로
▁신 설
▁후 원
▁미국 과
▁하나 는
▁돼 야
▁애 니
▁예산 을
▁느낌 이
▁강력 한
▁홈페 이지
다 며
임 금
입 니다

조 사를
한 다면
▁아 쉬
▁하 면서

▁자 세
▁무 너
▁실 무
▁한국 을
▁평 창
▁잡 고
▁내용 의
▁말씀 하신
▁놓 은
▁운영 하는
▁깊 은
▁ 탑
▁ 획
다 니
률 을
받 아
부 산
▁하 신
▁보 상
▁“ 당
▁고 양
▁의 사를
▁들어 갔
이라 면
▁채 널
▁축 소
▁디 지털
▁기자회견 을
시켰 다.

▁ W
▁ 끄
▁ 척
든 지

론 이
리 오
진 의
트 로
▁하 면은
▁하 시는
▁자 전거
▁다 들
▁예 전
▁유 사
▁개 방
▁그러 면

▁출 판
▁평 생
▁200 2년
▁국민 들이
▁갖 고

▁거야 ?

▁아무 리
▁제품 을
▁징 역
▁심각 한
- 2
과 정
라 .

시 험
워 서
집 을
▁아 르
▁전 년
▁분 류
▁20 2
▁생각 합니다.

▁직 장
▁있어 .

▁관련 한
▁증 언
▁지역 의
▁수준 으로
▁ 끈
▁ 묵
▁ 훌
씨 와
으 시
▁대 폭
▁아 유
▁“ 공
▁나 한테
▁일 종의
▁인 력
▁3 6
▁되 면

▁저 지
▁생 겼
▁불 리
▁감 염
▁못 할
▁변 경
▁취 재
▁체 계
▁올라 가
도 와
유 의
트 워크
▁하 던
▁다 루
▁등 과
▁안 내
▁3 4
▁연 예
▁아니 었
▁매 달
▁19 5
▁사회 가
▁기업 이
▁부분 을
▁맡 은
▁분석 했다.

▁열린 다.

▁최대 한
더라고 요.

▁유명 한
. 4
” 며
검 찰
데 ?

동 에
므 로
예 산
원 과
화 의
▁하 고,
▁“ 최
▁‘ 아
▁통 보
▁동 물
▁5 개
잖아 요?

▁대표 의
▁합 병
▁상황 에
▁빠 른
▁용 산
▁모르 는
▁존 중
하려 면
▁싫 어
D )
” (
▁ 

관 에
나 가
들 로
용 차
정 상
▁이 때
▁“ 북한
▁공 사
▁없 다"고
▁미 디어
▁세 금
▁세 상을
▁재 개
▁영 양
▁총 리가
▁법 정
▁데 뷔
▁K T
▁왜냐 하면
▁이루 어
1 4
P G
▁ 中
▁ 밟
▁ 촛불
간 의
급 을
봤 다.

의 료
하 면

해 보
해 요.

호 가
화 로
▁지 낸
▁수 시
▁어 머
▁유 출
▁실 종
▁했 었
▁잘 라
▁간 부
▁표 시
▁< 한겨레>
▁선수 들이
▁드러 났다.

▁긴 장
▁이른 다.

▁흘 러
▁ 눌
공 업
해 가
▁있 다면
▁일 찍
▁구 제
▁당 내
▁당 초
▁차 이
▁떠 오
▁보여 주는
( G
감 한
듯 이
만 은
메 이션
사 무
시 코
책 을
▁나 를
▁생 존
▁생 태
▁앞 둔
▁200 3년
▁정도 의
▁돌 파
▁애 들
▁애 들이
▁질 문을
억원 의
▁그쵸 .

▁이탈 리아
. 2
▁ 쫓
▁ 컬
돼 야
만 명
화 는
▁시 원
▁일 상
▁요 새
적으로 

▁생각 하고
▁걸 어
▁봉 사
r e
· 보
▁ 놔
▁ 맹
많 은
쪽 으로
▁이 웃
▁고 맙
▁선 출
▁비 정규직
▁실 현
▁노 출
▁외 환
▁배 제
▁이상 을
▁활 약
▁충 격
▁카 페
하면서 도
▁대상 이
▁답 했다.

▁원내대표 는
▁쇼 핑
▁불구 하고
1 3
▁ 닫
움 이
▁소 녀
▁차 단
▁집 권
▁총 장
▁타 임
▁돼 .

▁교수 가
▁메 르
▁알려 진
▁100 %
▁어려 워
▁페 이스
▁그리 고

▁뜨 거운
▁ 앨
다 라고
산 물
지 어
▁거 지
▁유 족
▁" (
▁강 경
▁올 랐
▁달 려
▁달 성
▁응 응

▁정부 에
... .

▁막 기
▁경찰 에
▁장관 이
▁상태 다.

▁상태 에서
▁이러 한
1 7
▁ 덮
건 축
니 스
다 라는
량 은
오 픈
▁다 소
▁조 심
▁소 방
▁입 장에서
▁출 입
▁식 품
▁철 거
정부 가
▁의견 이
▁방법 이
▁“지 난
▁ 깎
노 총
대 출
란 히
멕 시코
삼 성
이 고,
▁있 잖아요.

▁대 처
▁가 을
▁시 달
▁나 이가
▁주 지
▁공 무
▁우 주
▁여 의
▁만 났
▁세 워
▁아니 겠
▁들 었다.

▁물 리
▁직 전
▁미국 이
▁걸 려
▁있어 요

▁있어 서

거든 .

▁그랬 더니
▁터 뜨
▁부담 을
▁엘 지
▁이천 십
▁아프 리카
E O
· 고
리 스트
만 은

인 도
인 다.

▁대 화를
▁어 른
▁내 내
▁요 게
▁구 글
▁반 박
▁알 겠
▁좋 지
▁할 인
▁달 에
이나 

▁누 군
▁이게 

더라 구요.

▁향 해
▁공공 기관
▁위안 부
가 ?

소 송
연 대
하 여
▁그 분
▁정 비
▁정 해
▁2 개
▁시 장은
▁나 설
▁우 수
▁정부 와
▁매 입
위원 장은
▁일본 이
(1 8
▁요구 하는
▁급 증
▁물론 이고
▁으 응

▁징 계
3 %
년 에
동 이
미 사일
법 에
▁그 까
▁그 쳤다.

▁거 고

▁주 거
▁부 실
▁여 당
▁3 차
▁김 태
▁그러 다
▁올 렸다.

▁물 에
▁종 로
▁자신 을
▁창 조
▁꿈 을
1 )
▁ 뼈
부 ,
소 는
이 사
인 들의
으로 서
▁수 백
▁시 기
▁시 켜
▁유 력
▁한국 에서
▁검 증
▁초 등
▁종 교
▁얘기 다.

▁형 성
다. "

▁줄어 든
▁31 일
· 경
▁ 셋
▁ 쟁
간 에
령 을
치 게
하 라고
▁나 름
▁자 치
▁내 야
▁부 장
▁의 결
▁의 해
▁연 방
▁유 도
▁같 다”고
▁김 현
▁강 하게
▁점 도
▁친 환경
거나 

▁몸 을
▁워 낙
▁목소 리가
▁카메 라
▁ 샤
나 마
선 은
협 정
힌 다.

▁하 늘
▁한 -
▁정 기
▁보 관
▁인 용
▁해 보
▁없 어요.

▁위 로
▁되 니까

▁그래 야
▁당 사
▁현 상
▁20 여
▁집 을
▁문제 로
▁북 핵
▁태 양
▁감독 의
▁브 리
▁민주당 은
▁가격 이
으나 ,
▁맛있 는
( E
( 전
▁ 숲
고 속
나 .

판 을
행 정
▁이 처럼
▁보 안
▁기 울
▁네 네

▁고 발
▁일본 은
▁갖 춘
▁싶 었
▁감독 이
구나 .

▁목소 리
가 요?

마 자
선 의
연 을
주 )
테 이
통 일
화 하는
▁보 조
▁기 아
▁나 가는
▁않 고

▁김 씨는
() 을
시각 )
” ...
▁ 댓
▁ 펀드
소 비
했 으며,
▁가 로
▁해 양
▁공 부를
는데 도
▁재 무
▁사람 들의
▁학 술
▁맞 서
▁참 기름
▁법 적
▁파 괴
▁프로 야구
▁여러 가지
위원회 가
▁곳 은
▁탄 생
▁침 해
▁이것 도
▁발언 을
▁제외 한
▁봅 니다.

. 7
▁ 앱
놓 은
되 자
부 로
분 간
자 회담
▁하 며
▁보 면서
▁해 명
▁비 리
▁김 무성
▁아니 야
▁했 어요.

▁금 방
▁막 

▁간 호
▁필 수
▁복 잡
▁백 악
▁받아 야
▁떨어 져
▁잘못 된
▁브라 질
t i
▁ 겹
▁ 떼
갖 고
공 동
력 과
사 도
스 에
행 한
▁이 념
▁거 주
▁국 세
▁공 모
▁않 습니까?

▁개 성
▁원 의
▁분 노
▁알 겠습니다.

에게 는
▁집 회
▁간 의
▁먹 어
▁임 원
▁늘 고
▁시작 된
▁몰 려
▁알려 져
▁팔 십
▁낮 아
▁풀 이
▁주변 에
▁재판 부는
▁며 칠
▁ 낭
▁ 춘
었 다고
이 어서
▁대 리
▁가 득
▁“ 전
▁주 장을
▁조 처
▁유 권
▁최 다
▁열 었다.

요. ”

▁농 업
▁차지 했다.

▁불가 피
▁통화 에서
▁국회의 원
텔레 콤
( 9
N S
▁ 훼손
기 금
기 준
선 에
엑 스
자 .

재 정
층 이
혔 다.

▁이 정
▁그 녀
▁하 여
▁어 .
▁“ 우리
▁국 물
▁고 령
▁3 9
▁과 도
▁명 확
▁합 류
거든 

▁있으 니까

▁기능 을
2 2
▁ 엠
내 기
용 이
중 한
▁시 장이
▁내 리
▁조 기
▁세 대
▁근 처
▁변 화가
▁지역 에서
▁용 인
▁맡 아
민주 연합
▁드러 나
▁작품 을
▁챙 겨
’ 이라고
▁ 들이
고 가
로 서
유 를
▁그 

▁가 수
▁일 각
▁그래 가지고
▁개 별
▁4 8
▁반 도
▁박 정희
▁역 사를
▁얘 기도
▁치 러
▁시간 에
▁최근 에
▁요구 했다.

▁그다음 에
▁김대 중
건 이
나 다
진 흥
피 아
▁거 죠

▁말 은
▁모 바일
▁건 너
▁집 어
▁금 리
▁법 조
▁빠 진
▁측 근
▁귀 국
▁썰 어
▁늦 게
▁거짓 말
· 3
기 자
드 리
래 식
량 의
영 업
유 럽
이 고

자 료
코 리아
피 스
해 지
▁하 반기
▁다 행
▁주 시면
▁중 동
▁제 가

▁오 

▁3 7
▁새 우
▁단 지
▁세계 적인
▁됐 습니다.

▁선수 가
▁30 분
▁외교 부
▁아~ 

▁성과 를
· 김
▁ 엉
박 물관
산 이
세 는
전 의
책 임
▁이 행
▁사 교육
▁하 다.

▁것 입니다.

▁인 해
00 억
▁부 르
▁부 채
▁예 고
▁발 의
▁과 제
▁배 려
▁교육 감
▁목 적
▁창 의
▁조금 씩
▁퇴 직
▁겨 냥
▁경험 이
▁내놓 은
과학 기술
▁페이스 북
▁ 빅
▁ 융
러 운
받 았다.

설 을
에 .

장 (
토 리
했 어요.

화 와
▁시 범
▁자 랑
▁오 빠
▁우 울
▁영 입
() 의
▁후보 자는
▁논 쟁
▁채 소
▁이후 에
▁식 물
▁눈 을
▁폐 쇄
▁같애 

▁밀 어
▁의혹 이
▁동아 일보
▁댓 글
. 0%
a r
생 을
시 의
오 프
운 영
자 이
집 트
▁1 시간
▁어 깨
▁것 "이라며
▁일 하는
▁없 고

▁고 급
▁분 쟁
▁것이 란
▁200 0
▁행 위
▁담 긴
▁모습 이
▁업무 를
▁이끌 어
▁솔직 히
▁ 쥐
겠 다.

석 을
소 속
소 에
식 에
야 말로
진 보
▁있 느냐
▁지 자
▁2 억
▁“ 중
▁일 방
▁내 지
▁고 등
▁의 뢰
▁소 년
▁소 형
▁" 지
▁건 립
▁알 게
▁에 어
▁운 동을
▁사업 에
▁학교 에
▁100 만
▁잠 시
) .

냐 ?

스 티
연 패
웨 어
타 민
현 대
▁이 대
▁거 죠?

▁인 기를
▁3 개월
▁생 겨
▁스 피
▁달 라고
▁적 발
▁물 이
▁외 에
▁7 0%
▁파 트
위원회 를
▁빠 르게
▁확인 됐다.

▁가능성 도
▁반응 을
▁곤 충
대 문
됐 다는
들 어
만 간
올 해
해 졌
▁하 니까
▁1 ,
▁시 장을
▁자 극
▁자 리에
▁‘ 고
▁인 재
▁내 에
▁상 상
▁의 존
▁요 기
▁불 을
▁계 시
▁20 대
▁맞 추
▁응 원
▁참 고
▁행 사를
위원 은
▁독 자
▁둘 이
▁분야 에서
▁참석 한
▁목표 로
▁스타 일
▁택 시
▁끌어 올
▁애니 메이션
▁ 팽
▁ 멕시코
계 에
랫 동안
만 한
모 델
비 에
혁 명
▁하 면은

▁시 사
▁‘ 비
▁부 부
▁서 초
▁바 란
▁5 %
▁작 용
▁검찰 에
▁받아 들이
▁지방 선거
▁우승 을
▁꺼 내
▁원자 력
' (
' 이라는
▁ O
나 물
됐 다고
리 핀
연 이
제 의
▁수 학
▁일 도
▁주 차
▁진 정
▁따 뜻
▁데 는
▁드 시
▁다음 달
▁식 당
▁참여 하는
▁시민 단체
▁의미 를
▁삶 의
▁더불어 민주당
▁ 엇
복 을
브 리
산 을
세 에
외 교
전 은
조 직
처 분
▁있 거든요.

▁한 일
▁시 장의
▁인 턴
▁제 3
▁선 박
▁방 어
▁한국 과
▁확 장
▁국가 가
▁국가 대표
▁갈 아
▁K IA
구나 

경기 에서
▁국방 부
▁대책 을
자치 단체
▁ 떡
▁ 칭
늦 게
수 에
어 머니
▁대 목
▁“ 김
▁개 봉
▁무 리
▁불 리는
▁맞 춤
▁들어 갈
▁총 괄
▁10 시
▁투 자를
▁복 원
▁끝 까지
▁말씀 이
시키 고
▁능 력을
▁지속 적으로
▁털 어
가 에
수 원
▁대 답
▁대 사
▁사 립
▁“ ‘
▁공 통
▁고 문
▁실 업
▁성 폭
▁감 정
▁6 5
▁줄 었다.

▁화 려
▁크 리스
▁승 진
▁경찰 청
▁중요 하
▁극 단
▁생활 을
▁부족 한
▁목소 리를
▁구체 적으로
▁굳 이
▁휴대전 화
~ 4
경 쟁
대 ,
서 트
선 언
스 ,
시 티
의 가
이 버
인 터
하 실
▁가 서

▁거 지

▁자 식
▁개 의
▁같은 데
잖아 요
▁심 판
▁국민 이
000 억원
▁사회 에
▁벌 이고
▁지적 도
▁방향 으로
▁소송 을
▁으음 

( T
2 3
2 4
C )
▁ 탁
공 개
금 리
들 이다.

리 며
박 근혜
생 이
신 의
자 고
주 민
처 리
치 로
포 를
▁그 르
▁시 는
▁‘ 제
▁오 랫동안
▁의 지를
▁20 년
▁앞 세
▁드 릴
▁만들 었다.

▁줄 이
▁이번 에는
▁학교 에서
(2 5
▁패 션
▁옷 을
▁곧 바로
▁바른 정당
' ,
· 기
건 강
내 가
었 고,
유 가
키 스탄
▁사 안
▁보 이지
▁내 다
▁고 구
▁요 런
▁진 실
▁좋 았
▁입 시
▁경제 적
▁충 북
▁처음 에
▁이뤄 진
▁경험 을
▁술 을
▁기억 이
▁시스템 을
▁블 랙
▁최소 한
· 여
▁ 빵
구 에
스 포츠
인 에
인 들은
판 에
한 다"고
▁“ 오
▁인 사를
▁공 을
▁조 각
▁연 금
▁연 합
▁김 상
▁구 분
▁남 한
▁스 페인
▁차 관
▁서울 시는
▁심 지어
▁관계 가
000 억
▁종 류
▁버 락
▁민주 화
▁악 화
▁석 유
▁본격 적으로
▁메이저 리그
( W
a l
골 을
니 어
매 매
면 에
와 는
퍼 스
호 텔
▁있 다

▁하 실
▁가 동
▁주 력
▁유 행
▁무 대
▁4 6
▁받 게
▁결 합
▁합 리
▁갖 다
▁넣 는
▁찾 은
▁쓰 읍
▁국내 외
▁결과 ,
▁준비 해
▁기록 을
▁어려 울
▁비판 이
▁상당 한
▁얻 어
▁부담 이
▁뽑 아
▁탓 에
▁천안 함
. ”

2 7
▁ 붕
놨 다.

리 어
모 를
봉 사
성 ,
약 품
해 .

형 이
▁네 네
▁마 친
▁무 관
▁동 남
▁4 0%
부터 

▁입 은
▁특 허
▁집 안
▁미국 에
▁데 이
▁넘 겨
▁보고 서
▁갈 수록
▁내용 은
▁평가 했다.

▁F TA
▁볶 아
▁깔 끔
▁혜택 을
4 )
8 0
▁ 앤
국 에
특 별
파 크
평 균
협 의회
에서 의
▁어 떠
▁가 계
▁보 냈
▁“ 정
▁내 정
▁부 품
▁상 호
▁무 산
▁현 장에
▁좋 다.

▁역 전
▁인제 ~
▁번 도
▁정도 는
▁준 다.

▁손 해
▁화 가
▁하나 도
▁버 섯
▁학생 이
▁부모 님
선수 권
▁김정 일
8 )
▁ 르
검 사
과 를
디 아
로 스
생 명
쇼 핑
습 니까

월 드컵
졌 던
통 상
팀 은
▁이 들을
▁2 배
▁제 도를
▁해 고
▁내 린
▁부 서
▁상 위
▁상 장
▁원 이
▁발 휘
▁진 상
▁그렇 다고
▁활 발
▁이유 를
▁경기 에서
▁팀 이
▁경쟁 력을
▁듣 는
▁다니 는
▁새정치 민주연합
( P
- 0
간 담
공 간
교 수
기 만
무 기
법 은
소 로
제 한
태 를
트 가
활 동을
▁가 끔
▁기 계
▁오 픈
.. .

▁동 북
▁당 일
▁차 를
▁회 의를
▁달 아
▁그렇 지.

▁양 국
▁피 아
▁경우 ,
▁씨 를
▁둘 째
▁봤 을
▁비교 적
▁즉 각
▁뇌 물
▁깜 짝
E C
까 지만
드 가
체 의
황 을
▁그 려
▁보 완
▁‘ 한
▁경 비
▁여 권
▁조 절
▁연 령
▁불 거
▁타 격
▁하나 가
▁협 조
▁학교 를
▁곳 이
▁뭐~ 

▁요즘 은
▁나라 가
▁방침 을
▁케이 티
▁바람 직
▁형태 로
c o
네 시아
달 아
마 는
죠 ?
차 피
▁사 찰
▁수 천
▁일 관
▁부 당
▁부 진
▁비 대
▁비 율
▁저 한테
▁최 우
▁개 통
▁신 속
▁무 게
▁그런 

▁도 심
▁6 개
▁6 ·2
▁서울 의
▁200 1년
▁법 원
▁먹 어야
▁이번 이
▁취 약
▁하나 로
▁대학 에
▁유일 한
▁확실 히
9 )
▁ 北
관 계를
나 이
당 에
렸 을
상 품
진 핑
▁그 날
▁시 내
▁경 향
▁말 하자
▁조 치를
▁통 상
▁동 참
▁학 원
▁입 법
▁집 계
▁의원 님
▁후보 자
▁승 객
▁태 도를
▁준비 가
하며 ,
▁분석 이
▁효 율
▁짧 은
" 라며
대 통령
도 에서
뒀 다.

라 크
만 달러
▁이 집트
▁한 은
▁보 였
▁시 ·
▁‘ 201
▁여 성이
▁소 화
▁많 지
▁진 단
▁중국 에
▁합 동
▁9 0
▁운 용
▁절 차를
▁질 병
▁기록 한
▁미래 를
수도 권
▁횡 령
7 0
8 %
냐 고
대 교
러 리
었 다는
트 는
파 이
▁이 씨는
▁전 세
▁없 지
▁위 기를
▁조 항
▁비 율이
▁무 장
▁진 료
▁받 으
▁노 사
▁남 겨
▁맞 은
▁들어 와
▁음 .
▁배 출
▁그렇 지

▁막 을
▁편 안
▁월 급
▁100 여
▁아무 것도
▁숨 진
▁듯 한
▁품 목
▁뿌 리
▁화장 품
T )
▁ ,
실 로
앞 으로
자 산
자 들에게
차 는
해 왔
▁시 장에
▁일 대
▁제 약
▁오 리
▁조 만간
▁뭐 라고
▁요 걸
▁세 운
▁무 죄
▁계 좌
▁했 다”고
▁출 근
▁적 어도
▁살 해
▁갖 춰
▁목 숨
▁승 부
▁학생 들은
▁국내 에서
(2 00
▁신청 을
▁견 줘
▁무엇 보다
s t
▁ R
▁ 꼼
▁ 벨
달 라고
리 게
비 전
었 지만
함 이
▁정 규직
▁시 장에서
▁주 세요.

▁공 산
▁우 즈
▁관 여
▁김 연
▁신 분
▁무 려
▁강 요
▁감 시
▁감 축
▁명 절
▁드 는
▁필 리핀
▁9 시
▁커 지고
▁맞아 

▁참여 한
▁왔 다
▁거예 요

▁패 배
▁가격 을
▁붙 잡
▁놀 라
▁사례 가
▁비용 을
▁정확 한
▁계열 사
▁슈 퍼
▁리더 십
( 한국
3 5
스 토
원 순
제 에
하 자는
협 의
화 문
▁전 직
▁보 존
▁시 인
▁주 제로
▁말 할
▁내 가

▁문 자
▁원 에
▁방 위
▁그러 한
▁사람 들을
▁그렇 지만
▁있어 

▁임 기
▁늘 려
▁사회 를
▁아이 들
▁승 리를
▁완 벽
▁곳 에
▁반대 하는
▁변호 사는
▁구성 된
▁얼굴 을
▁아닙 니다.

▁아름 다운
· 4
구 백
신 은
중 인
▁이 기
▁대 안
▁지 지를
▁한 때
▁한 마
▁보 지
▁“ 미
▁일 곱
▁소 리를
▁한국 어
▁데 이터
▁대표 와
▁걸 린
거든 ?

▁누 구나
▁상황 이다.

하면서 

▁15 0
▁진짜 

▁육 성
더라 도

▁어려 움을
▁보여 주
▁활용 해
▁녹 색
▁득 점
▁프리 미
▁왼 쪽
9 %
· 전
▁ H
각 을
협 상
▁있 으며,
▁대 거
▁대 기
▁경 계
▁부 사
▁미 안
▁원 인
▁신 랑
▁현 상이
▁4 4
▁박 영
▁포 항
▁투 쟁
▁정도 가
▁얘기 하는
(2 6
▁사용 하는
▁진짜 ?

▁그것 은
▁잠 재
▁탈 당
▁탈 출
▁죽 음
▁어디 서
▁있는데 요.

▁클 린
▁엄청 난
▁벤 처
▁ t
경 이
국 인
대 사
대 체
력 에
립 니다.

비 용
자 본
장 에게
▁이 모
▁지 출
▁수 립
▁‘ 스
▁주 관
▁말 로
▁부 대
▁물 가
▁그렇 다면
▁의원 을
▁너무 나
▁민주 통합
▁검찰 의
▁천 구백
▁몸 에
▁밀 려
▁얻 은
▁차지 하는
▁괜찮 아
▁요거 를
▁깊 이
▁반도 체
P )
▁ 빙
건 의
네 요
럭 시
베 이
사 회의
언 론
었 어요.

지 대
한 다”며
▁있 지만

▁대 개
▁대 립
▁한 ·미
▁어 쩌
▁것 인가
▁기 조
▁해 체
▁오 징
▁않 습니다.

▁비 싼
▁유 승
▁" 아
▁들 려
▁대통령 에게
▁앞 장
▁중국 을
() 를
▁손 으로
▁증 권
▁환 영
▁절 감
▁결과 에
▁난 민
▁마음 에
▁찾아 가
▁규모 가
▁이름 이
▁논란 을
▁전망 된다.

▁기획 재
▁빌 려
▁강원 도
. 0
단 지
라 리
방 이
색 을
서 로
수 와
습 니까
연 히
하 다가
해 주는
▁수 많은
▁가 시
▁보 고

▁나 의
▁없 기
▁의 한
▁비 박
▁비 율은
▁비 타민
▁모 범
▁교 류
▁구 상
▁구 십
▁우리 도
▁그러 는
▁현 역
▁실 적
▁스 키
▁입 증
▁출 간
▁새 롭게
▁평 양
▁파 이
▁협 상을
▁사이 버
▁30 여
▁개인 정보
▁대부분 의
▁걔 네
▁최초 의
▁비행 기
( U
” 는
계 는
라 톤
비 서관
사 람
▁수 단
▁거 지.

▁해 군
▁소 스
▁소 프트
▁연 세대
▁생 명
▁김 동
▁무 소속
▁아니 에
▁명 을
▁초 과
▁국민 들의
▁충 청
▁학생 들의
▁백 화점
▁묻 는
▁본격 적인
▁덕 분에
▁아침 에
▁스트 레스
▁보유 한
▁1인 당
2 9
6 %
▁ 찌
권 에
됐 고,
드 라
망 을
소 리
식 은
씨 에게
어 버
언 더
치 료
투 어
팀 이
했 는데

▁이 럴
▁수 집
▁자 문
▁최 악
▁동 맹
▁받 는다.

▁성 적을
▁추 산
▁엄 격
▁지원 하는
▁농 민
▁그랬 더니

▁아무 도
▁공격 을
▁괜찮 은
▁겪 고
▁케이 블
▁갈등 을
▁납 품
▁썼 다.

▁멀 리
▁브리 핑
개 가
대 상
위 에서
하 우
▁아 들이
▁지 내
▁가 해
▁시 리즈
▁“ 여
▁말 해
▁내 에서
▁공 기업
▁부 작
▁안 돼
▁조 지
▁3 분의
▁서 양
▁마 치고
▁신 한
▁동 일
▁아니 라고
▁스 위
▁응 응
하기 는
▁피 의
▁손 에
▁돼 지고
▁11 시
▁잡 은
▁눈 이
▁수준 의
▁키 우
▁고려 해
대학 원
▁목표 를
▁가능성 은
▁시각 )
▁국무 총리
▁바이 오
e n
▁ 쇠
가 격
겠 다"고
고 요

교 과
구 청
도 미사일
우 드
학 자
해 졌다.

호 선
▁있 습니다
▁전 교
▁정 식
▁기 각
▁‘ 정
▁주 가
▁등 급
▁중 도
▁제 정
▁위 기에
▁뭐 야
▁학 문
▁출 산
▁문제 의
▁법 을
▁북한 을
▁돼 

▁넘 어서
▁이어 질
▁호 남
(1 0
▁사이 에서
▁로 스
▁기준 을
▁비판 을
그룹 은
▁분위 기를
▁분위 기가
▁이것 이
▁요거 는
▁인도 네시아
니깐 

( O
) ’
▁ 혀
들 었다.

부 에서
정 수석
터 리
포 르
▁그 나마
▁있 잖아.

▁1 위를
▁어 ?

▁기 분
▁“ 어
▁말 라
▁상 무
▁3 0년
▁들 면
▁발 행
▁남 녀
▁입 장이
▁투 명
▁후보 로
▁호 주
▁쪽 이
센터 에서
▁여성 의
▁뛰 어난
2 8
▁ 널
고 에
라 스
러 워
보 가
보 니
었 는데
으 신
입 니다
평 양
▁가 깝
▁시 가
▁주 한
▁부 추
▁의 회
▁서 류
▁무 대에
▁동 양
▁지난 주
▁5 만
▁장 악
▁알 리
▁추 락
▁추 적
▁맞 지
▁에 

▁요구 를
▁확인 할
▁어렵 다.

▁읽 어
▁방문 해
▁제공 하는
▁써 야
▁안타 까
7 )
~ 5
▁ 힐
결 정
니 스트
물 로
사 랑
수 산
실 은
월 드
저 축은행
점 ,
친 다.

▁있 으며
▁있 음을
▁전 인
▁시 급
▁네 네.

▁경 기가
▁부 활
▁강 행
▁5 5
▁남 쪽
▁두 려
▁미국 에서
▁양 성
▁행 정부
▁가능 하다.

▁화 학
▁돼 서
▁크 림
▁찾 을
▁편 집
▁연구 를
하겠 다"고
▁조사 한
▁봐 

인데 요.

▁구조 조정
▁끓 여
▁잇따 라
기 ’
농 구
박 한
준 비
지 수
크 로
해 질
화 할
▁한 참
▁수 치
▁1 심
▁가 난
▁가 이드
▁정 무
▁보 좌
▁‘ 마
▁‘ 신
▁없 어

▁저 소득
▁세 상에
▁방 식을
▁못 했
▁양 반
▁본 회의
▁승 인
▁폭 탄
▁아무 런
▁십 오
▁표현 을
▁벌어 진
▁제주 도
▁메시 지를
' 에서
▁ 랭
▁ 싼
▁ 춤
구 로
력 으로
분 석
액 의
음 악
일 에
청 문
▁이 벤
▁하 려고
▁한 꺼
▁다 진
▁일 이다.

▁중 순
▁상 영
▁소 장
▁최 선을
▁설 문
▁명 품
▁된 다”고
▁먹 으면
▁201 6년
▁보고 서를
▁끝 났
▁창 작
▁접 수
▁기자 간담
▁199 8년
▁보내 는
▁젊은 이
▁뿌 려
▁영업 이익
▁새정치 연합
▁청문 회
▁서울중앙 지검
▁기획재 정부
( B
S )
▁ 덩
뉴 스
례 를
르 지
미 가
미 를
션 을
시 마
어 져
여 자
역 사
운 동을
이 야
이 며,
중 공업
지 요.

하 다"고
▁이 로
▁이 전에
▁대 외
▁수 험
▁공 포
▁예 약
▁3 대
▁만 드
▁유 전
▁마 시
▁방 한
▁박 지원
▁추 모
▁10 만
▁얘 가
▁8 0
▁치 료를
▁갖 게
▁왜 곡
(2 9
느냐 .

▁공개 한
은행 은
▁새누리당 은
▁능 력이
▁방향 을
▁헌법 재판
▁단일 화
▁지상 파
. k
5 )
경 은
다 ’고
담 당
담 을
래 

받 았
발 을
부 문
청 에
트 리
▁이 종
▁지 가
▁하 더라도
▁기 사
▁“ 가
▁“ 기
▁중 구
▁해 .

▁" 한국
▁통 해서

▁4 9
▁4 00
▁두 드
▁했 고,
하기 가
▁총 수
▁살 려
▁합 의를
▁환 자가
▁허 위
▁항 소
▁곳 에서
▁이미 지를
▁있으 니까
▁기간 에
▁한편 ,
▁꼽 힌다.

▁훈련 을
▁수요 가
(현지 시각)
▁첨 단
> 은
겠 지만
국 대
민 석
원 들이
참 여
크 를
해 지는
화 하고
▁한 강
▁한 두
▁어 차피
▁가 리
▁것 보다
▁시 에
▁나 면
▁내 렸다.

▁없 지만
▁만 남
▁유 니
▁동 부
▁불 참
▁적 응
▁얘 길
▁중국 과
▁세계 에서
▁종 료
▁얘기 는
▁팀 의
▁터 키
▁윤 리
▁맛있 게
▁넣어 주
▁검토 하고
▁기본 적으로
▁비중 이
▁한꺼 번에
I I
· 정
▁ 멘
▁ 웨
▁ 잉
냐 면
등 록
버 그
트 의
합 니다

해 져
▁사 령
▁“ 고
▁‘ 전
▁인 프라
▁중 반
▁만 났다.

▁" 북한
▁뭐 라
▁김 모
▁세 우
▁결 론
▁도 요
▁회 사는
▁투 어
▁아이 를
▁완 공
▁눈 길을
▁공개 했다.

▁팀 을
▁침 몰
▁분야 의
▁익 숙
▁녹 음
▁착 수
▁칠 십
▁일자 리를
- 3
2 1
8 8
▁ 앙
▁ 핀
냐 .

드 로
망 이
비 로
실 한
심 의
에 너지
주 주
측 은
함 으로써
해 지고
행 위
▁이 랬
▁하 다가
▁수 업을
▁시 진핑
▁다 이
▁일 정을
▁상 처
▁의 도
▁모 으
▁4 7
▁도 덕
▁영 화를
▁총 장은
▁그렇 습니다

▁검 은
▁줄 여
▁취 득
▁넣 을
▁벌 인
▁벌 였다.

(2 3
▁국제 사회
▁주장 하는
▁K B
▁지지 율
▁얻 을
▁드러 난
▁적극 적인
▁캐 나다
▁류 현
▁부드 럽
▁공화 당
▁엇 갈
~ 6
가 락
나 게
널 드
니 터
동 조합
면 이
미 디어
세 의
시 오
심 사
자 료를
카 오
했 는데,
▁가 스
▁가 치가
▁전 후
▁기 대를
▁저 렇게
▁세 부
▁불 이
▁성 인
▁6 0%
▁참 모
▁들어 온
▁10 개
▁살 인
▁된 장
▁갖 는
▁왜 ?

▁시작 해
▁복 합
▁국가 의
▁모두 가
▁당시 에
▁토 마
▁코 리아
▁철 회
▁않았 던
▁피해 가
▁떠 난
▁출신 인
▁끌 고
▁클 래식
▁들여 다
체육 관광
대 화
려 

메 일
석 이
정 도
클 럽
하 라는
▁그 릇
▁아 웃
▁사 장이
▁것 만
▁“ 수
▁‘ 부
▁모 자
▁연 휴
▁교 환
▁방 지
까지 도
▁4 3
▁반 찬
▁재 능
▁계 신
▁들어 갔다.

▁매 체
잖아 요.
▁8 시
▁19 4
▁점 유
▁시작 으로
▁광 역
▁있을 지
▁설명 을
▁향 이
▁팔 아
▁탈 락
▁회사 의
▁몸 이
▁노동 자
▁어린이 집
▁강남 구
▁스트 레
▁선진 국
▁넥 센
2 6
가 스
기 사
느 라
데 ,
든 가

랑 

민 족
아 가
어 는
종 을
췄 다.

학 회
▁사 흘
▁“ 일
▁주 재
▁주 주
▁주 장이
▁해 

▁말 고

▁관 중
▁마 침
▁마 포
▁현 직
▁계 기가
▁회 사가
▁지금 의
▁달 래
▁배 운
▁일본 에
▁관계 자
▁타 자
▁넣 고

▁정치 를
▁쓰 지
▁권 리
▁처음 에는
(2 8
▁사이 의
▁국회 에
▁개인 적으로
▁압 도
▁압 수수
▁뜻 이다.

▁친구 들이
▁싸 움
시고 요

▁힘들 어
▁찍 어
▁I T
▁총리 의
▁쉬 운
▁수술 을
▁기자회견 에서
▁말씀드 린
▁유승 민
언더 파
로 의
만 5000
셔 널
시 청
였 습니다.

으 론
▁이 외
▁하 도
▁어 떡
▁전 당
▁2 시
▁2 시간
▁보 도록
▁시 집
▁“ 유
▁‘ 인
▁해 상
00 원
▁오 염
▁소 재
▁생 강
▁바 꾼
▁아니 라는
▁게 다가
▁생각 은
▁간 에
▁합 쳐
▁논 리
▁정치 인
▁편 성
▁사건 의
▁이야 기가
▁내년 부터
▁위원 장
▁폐 기
▁밀 가루
▁전망 이
▁가격 은
▁기존 의
▁고민 을
▁바람 에
▁양념 을
▁늘어 날
▁균 형
▁섭 취
▁한마 디
▁클린 턴
" 는
▁ 훈
값 이
교 사
금 으로
기 념
기 

나 와
이 죠.

작 을
제 와
▁정 작
▁선 호
▁3 년간
▁모 은
▁유 연
▁마 주
▁김 용
▁원 유
▁세 금을
▁반 성
▁재 단
▁재 직
▁게 시
해서 는
▁음 식을
▁청 주
▁파 는
▁의원 들이
에도 

▁표 준
▁학생 들
▁결과 는
▁그게 

▁30 대
▁이용 할
▁떨어 지는
▁K BS
사업 을
▁대형 마트
▁필요하 다고
▁정확 히
▁옛날 에
▁풀이 된다.

. 1
▁ 린
▁ 펜
간 다.

덜 란드
상 으로
통 을
합 니다.
화 한
▁이 주
▁한 달
▁수 주
▁보 일
▁기 상
▁나 서

▁주 고

▁중 에는
다” 면서
▁저 렴
▁원 장은
▁건 의
▁생각 도
▁6 년
▁뒤 늦게
▁살 았
() 이
▁약 을
▁하지만 

▁늘 리
▁아이 디어
▁표 결
▁기업 들이
▁처음 부터
▁나오 지
▁사건 은
▁앞으로 도
▁지지 율이
▁없었 던
▁있는데 ,
▁구속 영
▁보건 복지
( R
6 )
9 0
▁ 몽
▁ 짝
국 회
대 학교
셔 서

이 상
청 와대
치 의
▁이 민
▁하 도록
▁전 에

▁나 섰
▁다 리
▁해 킹
▁공 략
▁오 면
▁조 용
▁발 달
▁강 정
▁차 로
▁추 세
▁앞 선
▁명 시
▁데 려
▁본 부
▁이상 으로
▁애 가
▁사업 은
▁끝 내
▁사건 에
▁과정 에
▁별 도로
▁낮 추
▁청와대 는
▁수준 이다.

▁전망 했다.

▁파트 너
▁ J
▁ 뚝
국 장
독 교
력 도
력 의
머 리
산 에
살 을
스 키
창 조
채 를
층 에
치 며
통 은
▁이 르면
▁이 같이
▁하 거나
▁시 골
▁시 대를
▁자 존
▁‘ 미
▁‘ 오
▁비 례
▁미 만
▁저 는

▁마 감
▁김 재
▁' 아
▁신 인
▁동 기
▁당 국은
▁올 리는
▁성 명을
▁10 대
▁파 리
▁운 행
▁임 신
▁임 직원
▁찾 기
▁[ 수도권
▁날 씨
(1 5
▁태 어난
▁이~ 

▁( 주)
더라고 .

▁출신 의
·1 8
프로 그램
▁받아들 여
m m
~ 201
~ 19
감 사
계 열
곳 을
군 에
마 를
목 으로
저 우
철 도
통 화
프 리
▁지 진
▁하 긴
▁정 밀
▁자 .
▁자 가
▁‘ 나
▁주 의
▁해 마다
▁공 익
▁부 적
▁부 총
▁여 수
▁의 문
▁만 날
▁4 2
▁결 론을
▁후 에
▁알 바
▁데 서
▁번 씩
▁의원 과
▁이상 한
하면 ,
▁있었 는데

▁선수 들의
▁금융 위기
▁분석 한
▁개인 의
▁외교 관
▁나라 의
▁199 7년
▁직원 들이
▁겁 니까?

▁언니 가
▁이해 가
▁대회 에서
▁그리 스
▁개정 안
▁똑같 이
▁삭 제
▁수수 료
▁여의 도
3 1
’ 이다.

▁ 日
▁ 쇄
곳 에
당 과
법 의
비 의
시 장에서
위 안
지 인
▁이 병
▁이 혼
▁1 %
▁1 개
▁가 자
▁것 인
▁거 친
▁나 서는
▁‘ 무
▁일 어난
▁오 피스
▁않 다는
▁되 면은

▁방 사
▁결 코
▁스 물
▁적 도
▁뒤 를
▁포 스코
▁먹 으
▁높 이는
▁식 초
▁최근 에는
▁경찰 의
▁태 도
▁사용 할
더라 

▁기술 이
▁지방 자치단체
’이 란
▁이사 장은
▁회의 에서
▁좌 우
▁오른 쪽
▁죄 송
▁철저 히
장애 인
▁나름 대로
▁지자 체
▁붕 괴
▁ 으로
결 과
국 에서
물 에
방 에
번 홀
시 리즈
이 의
차 별
환 을
효 과
▁한 정
▁가 려
▁전 원
▁정 착
▁보 육
▁거 .

▁내 비
▁않 기
▁고 정
▁3 명
▁최 경
▁신 중
▁계 란
▁박 수
▁박 지
▁박 원순
▁배 추
▁뒤 ,
▁매 장
▁민 정수석
▁경우 에
▁증 인
▁그렇게 

▁시작 됐다.

▁찾 았다.

▁리 포
▁군 대
▁권 고
위원회 에
▁기준 이
▁급 여
▁경쟁 을
▁그때 는
▁자체 를
▁있고 요.

▁테 이
▁붙 어
▁지나 치게
▁꼽 았다.

▁끝나 고
▁법무 부
▁백악 관
( 사진
군 사
다 ,
다 '는
대 결
로 그
로 도
웠 던
이 도
작 업
타 수
하 느냐
향 을
황 이
▁1 명
▁자 민
▁‘ 가
▁인 민
▁미 친
▁저 장
▁저 항
▁문 건
▁그래 .

▁신 호
▁당 부
▁4 만
▁회 계
▁할 아버
▁명 령
▁북 쪽
▁7 시
▁금 강
▁번 에
▁점 은
▁담 겨
▁손 님
▁벌 금
▁사업 이
▁로 켓
▁금융 위
▁이용 한
▁친구 가
▁K 리그
▁따르면 ,
▁하루 에
▁중심 의
▁않아 도
▁끊 임
▁수익 을
▁아닙 니까?

▁비서 실
" 며
0 )
i t
’ ...
▁ 벼
개 인
됐 을
로 가
상 태
와 

일 )
졌 을
지 고

크 스
확 인
▁지 목
▁수 영
▁전 주
▁정 년
▁시 점
▁“ 1
하고 는
▁선 포
▁들 은
▁5 4
▁5 년간
▁노 후
▁적 절
▁명 문
▁먹 고

▁만들 기
▁이번 엔
▁교육 부
▁형 식
(2 7
▁토 지
▁평가 가
▁라 디오
▁나타 난
▁봤 다.

▁서울시 장
▁인간 의
▁즐 길
▁밑 에
▁약속 을
▁바꾸 는
▁객 관
▁눌 러
> 의
~ 8
관 ,
동 성
리 랑
면 으로
배 우
부 대
선 에서
셔 츠
화 ,
▁이 사회
▁지 어
▁정 몽
▁정 수
▁보 냈다.

▁‘ 그
▁일 에
▁중 시
▁부 른
▁소 셜
▁유 학
▁문 화를
▁개 월
▁알 리는
에게 도
▁6 자회담
▁특 혜
▁매 주
▁청 소
▁청 약
▁대표 를
▁걸 릴
▁간 담
▁19 3
▁각 오
▁식 의
▁버 디
▁리 스트
▁메 뉴
▁좋아 하
▁운영 하고
▁과정 이
▁헌 재
▁건강 보험
▁고려 대
▁사무 실
▁밥 을
▁풍 부
보다는 

▁갈등 이
▁치열 한
▁칭 찬
Y T
공 연
등 포
라 서
바 람
지 않
친 구
켰 다.

평 도
하 니
▁대 장
▁사 기
▁가 라
▁시 위를
▁“ 인
▁자 영업
▁네 덜란드
▁부 자
▁부 패
▁때 보다
▁관 찰
▁관 리를
▁" 사
▁" 우
▁김 일
▁동 해
▁현 안
▁맞 게
▁정부 에서
▁삼 아
▁데 리고
▁피 부
▁정도 

▁취 지
▁아이 폰
▁이어 진
▁이어 졌다.

▁연구 원은
▁메 모
▁토 대로
▁측 이
▁가족 이
▁머 리를
▁회사 에
▁답 답
▁주민 들이
▁일단 은
학년 도
▁콘 서트
▁땅 을
▁제시 했다.

▁밖 으로
▁ 넷
급 식
대 요.

두 에
바 른
비 서
용 으로
일 은
장 기
화 

▁대 량
▁가 기
▁가 만
▁“ 국민
▁나 갔
▁일 고
▁예 외
▁모 았다.

▁모 니터
▁원 장
▁바 쁘
▁대한 

▁배 상
▁그렇 고

▁7 개
▁된 다

▁막 아
▁걸 리
▁높 았다.

▁일본 에서
▁지난해 보다
▁치 즈
▁사회 복지
▁아이 디
▁책 이
▁환 율
▁학생 을
요. "

▁삼성 은
▁발표 를
▁만들어 진
▁면 에서
▁포함 돼
▁포함 된
▁봐 도
▁규모 는
▁기대 하고
▁그리 구
▁듯 

▁공연 을
▁아버 지가
▁주시 구요.

▁그림 을
▁느끼 는
▁희망 을
▁플레이 오프
B M
관 과
마 켓
사 정
수 ,
여 대
으 려
제 이
체 계
층 을
편 이
피 해
▁이 젠
▁이 중
▁대 가
▁사 항
▁보 급
▁시 어머니
▁‘ 최
▁안 민석
▁예 능
▁오 고
▁고 생
▁선 제
▁만 만
▁소 수
▁되 니까
▁같 고

▁마 디
▁원 ,
▁실 내
▁회 사를
▁직 장인
▁매 력
▁정도 다.

▁9 0%
▁치 매
▁산 림
▁이어 지는
▁학생 부
▁저희 는
▁저희 들이
▁좋아 요.

▁추진 하는
그룹 의
▁참석 했다.

▁우리나라 의
▁노래 를
▁것처럼 

▁단순 히
▁갤 럭시
▁목숨 을
.k r
( D
. co
I S
~ 1
· 수
▁ 꼴
글 랜드
랫 폼
병 을
사 태
산 의
용 은
유 로
추 진
한 데
할 지
했 다"며
▁이 례
▁한 양
▁수 습
▁것 일
▁거 절
▁다 룬
▁다 큐
▁‘ 자
▁‘ 한국
▁주 기
▁등 판
▁부 각
▁안 되
▁여 부
▁고 기를
▁선 전
▁비 결
▁소 리가
▁유 기
▁미 치는
▁저 런
▁많 고
.. ..
▁신 입
▁신 조
▁동 시
▁성 사
▁입 사
▁맞 고
▁배 워
▁그렇 기
▁그렇 습니다.
▁포 털
▁프 레
▁국민 을
거든 요
▁아이 가
▁나오 면
▁것을 

▁만들어 야
▁요구 한
▁축 하
▁조금 만
▁추진 하고
▁개발 을
▁개발 한
▁잠 수
▁언론 에
▁마지막 으로
▁사고 가
▁C J
▁작년 에
▁해당 하는
▁정권 의
▁사랑 을
▁싱 가
주년 을
▁텐 데

▁촉구 했다.

▁앨 범
▁에어 컨
9 9
▁ x
공 화
권 은
네 요

뉴 욕
단 독
문 과
받 침
세 이
여 성
정 지
청 소년
치 에
파 일
▁이 렇
▁이 론
▁이 마트
▁수 리
▁2 조
▁시 기에
▁“ 자
▁‘ 김
▁주 제
▁해 운
▁예 쁘
▁없 고,
▁유 로
▁되 돌
▁되 죠.

▁생 길
▁그래 요?

▁' 이
▁당 분간
▁4 차
▁불 교
▁실 행
▁건 데
▁건 조
▁확 충
▁음 반
▁단 기
▁금 호
▁대표 적
▁심 의
▁교육 의
▁책 은
▁버 리
▁부분 도
▁않는 다는
▁검찰 총
▁정말 

▁내년 에
▁상태 가
▁199 9년
습니다. ”

▁빈 곤
·1 5
▁공정 거래
▁품 질
▁냉 장
▁뭐냐 면
▁국토 해양
▁중간 에
▁색깔 이
in g
▁무서 워
▁동영 상
▁6·2 5
▁도요 타
' 도
( 0.
4 8
7 5
F C
h e
▁ 컵
▁ 텔레
가 능
든 

라 가
르 기
먼 트
부 채
사 항
슬 림
아 웃
학 기
▁이 비에스
▁그 에
▁있 다가
▁아 픈
▁지 표
▁한 류
▁한 창
▁한 데

▁수 색
▁전 세계
▁보 증
▁나 간
▁‘ 안
▁내 어
▁고 쳐
▁상 금
▁유 가족
▁저 를
▁많 습니다.

▁요 건
▁신 세계
▁그러 지
▁진 정한
▁노 벨
▁입 맛
▁참 사
▁직 원이
▁설 정
▁드 라이
▁201 7년
들을 

처럼 

▁경제 가
(2 1
▁그럼 에도
▁와 이
▁개발 에
▁결정 할
▁위원 장이
▁퇴 진
▁읽 고
▁대비 해
▁푸 틴
▁ 곱
능 력
다 ’
대 구
됐 지만
료 가
보 기
사 들은
성 도
양 을
역 에서
자 마자
트 럼프
했 으며
▁그 저
▁대 만
▁보 시면
▁시 상
▁거 세
▁나 란히
▁자 국
▁‘ 1
▁인 증
▁해 임
▁내 걸
▁내 면
▁조 카
▁연 관
▁개 설
▁남 긴
▁추 억
▁외 면
▁배 가
▁작 전
▁금 감
▁8 개
▁드 렸
▁점 수를
▁높 게
▁치 른
습니다 만

▁지역 을
▁잡 는
한테 

▁토 요일
▁친구 들
▁이름 으로
▁휴 대
▁으 ~
정책 을
▁끓 이
▁다르 다.

경찰 청
▁판결 을
▁제안 했다.

▁P D
▁어우 러
▁세종 시
ww w
i c
겠 죠.

고 의
공 장
구 요
다 면

두 를
리 즘
살 이
여 행
제 작
집 에
하 우스
현 은
▁사 정
▁지 명
▁지 은
▁지 향
▁한 쪽
▁것 ”
▁“ 신
▁자 금을
▁내 놨다.

▁없 게
▁" 어
▁구 청
▁그러 면은

▁당 한
▁현 장을
▁4 강
▁남 았
▁차 가
▁차 라리
▁과 목
▁들어 선
▁들어 왔
▁미국 을
▁살 이
▁행 동을
하지 는
() 가
▁담 고
▁아이 들을
▁세계 적으로
▁독 특
▁대학 원
▁첫 날
▁접 속
▁않았 을
▁범 행
▁분석 을
케이 션
▁있으 면

▁살아 남
▁알아 서
▁신뢰 를
▁아시 안
▁관측 이
(20 1
▁압수수 색
▁ 곽
군 을
기 능
리 케
면 적
뮤 니
산 화
선 으로
설 팅
소 한
아 는
영 은
오 고
으 셨
즈 니스
키 는
평 을
학 규
에서 는

▁지 침
▁하 드
▁전 까지
▁2 명
▁나 빠
▁나 는

▁인 류
▁고 개를
▁모 색
▁소 식을
▁유 학생
▁김 경
▁이제 ~
▁무 력
▁통 산
▁바 꿀
▁근 육
▁도 서관
▁성 장을
▁영 등포
▁입 원
▁적 어
▁문제 도
▁파 업
▁8 0%
▁논 의를
▁교육 과
▁화 성
▁벌 여
▁기업 에
▁완 료
▁이유 다.

▁( 0
▁참여 를
느냐 

▁장관 의
▁방송 을
▁xx xx
▁기간 이
▁붙 여
▁전략 을
▁I S
▁민간 인
▁제출 한
▁섞 어
▁훌 한
게 는
기 기
니 

다 리
된 다”고
들 로부터
번 호
벌 이
병 우
보 건
조 의
주 지
준 표
집 니다.

타 르
평 등
▁그 들의
▁있 다.
▁가 질
▁2 층
▁거 거든요.

▁자 제
▁해 가지고
▁내 각
▁공 안
하고 도
▁고 수
▁3 시
▁" 한
▁" 우리
▁서 서
▁서 해
▁원 정
▁분 들은
▁구 워
▁바 둑
▁강 연
▁성 폭력
▁학 년
▁대한 항공
▁6 시
▁응 시
▁민 생
▁그렇 고
▁포 스트
▁번 

▁아이 돌
▁다음 날
▁표 정
▁교수 (
▁호 흡
▁연구 개발
(1 7
▁놓 고

위원회 에서
▁트 렌
▁향 한
▁수준 에
▁요즘 에
▁규모 로
▁답 을
▁침 체
▁어렵 게
▁성공 한
▁대부분 이
▁현실 을
▁꿈 꾸
▁반면 ,
▁무엇 을
▁사태 가
▁억 울
▁당국 자는
▁202 0년
▁“최 근
▁종로 구
▁하여 튼
인터 넷
) ·
6 5
▁ 딜
고 도
곳 의
공 정
내 지
냐 면

네 트워크
디 자인
봐 

위 ,
체 제
치 면
학 습
화 해
▁있 나
▁사 우
▁것 들
▁시 나
▁시 대에
▁기 타
▁거 리가
▁“ 다
▁‘ 우
▁‘ 유
▁‘ 지
▁인 기가
▁주 면
▁주 셨
▁말 이다.

▁내 보
▁미 칠
▁서 른
▁교 도
▁아니 야?

▁들 을
▁강 릉
▁박 태
▁대통령 에
▁서울 에서
▁배 를
▁양 쪽
▁포 착
▁대표 하는
▁중국 인
▁점 심
▁증 명
▁규 정을
▁쓰 레
▁기업 을
▁대학 의
▁선수 들은
▁조사 됐다.

▁여기 다가
▁천 연
▁설명 이다.

▁축 제
▁경쟁 력
▁있고 .

▁찍 은
▁자연 스럽게
▁느낌 을
▁진출 을
▁음악 을
▁나아 가
▁반박 했다.

국 정
두 환
르 크
리 면서
바 닥
석 에
원 자
트 에
하 긴
▁이 백
▁그 해
▁전 개
▁2 ~3
▁시 중
▁주 류
▁주 가가
▁경 기에
▁말 에
00 억원
▁부 르는
▁오 이
▁여 객
▁여 행을
▁없 으면
▁고 전
▁유 발
▁김 진
▁신 흥
▁진 학
▁4 대
▁올 리고
▁실 태
▁건 

▁단 어
▁뒤 로
▁점 이다.

▁높 여
▁필요 하다.

▁국가 안보
▁편 입
▁돈 은
(2 2
(2 4
▁항 목
▁수사 에
▁상태 로
▁빼 고
▁비용 이
관계 가
▁잃 은
▁뒷 받침
▁이익 을
▁따뜻 한
▁민주통합 당
▁오피스 텔
( 주
3 3
l e
▁ .

감 도
겨 울
고 교
고 용
공 사는
술 을
실 점
이 로
치 기
프 리카
▁이 영
▁어 떨
▁보 겠습니다.

▁거 잖아요.

▁거 를

▁“ 새
▁해 왔
▁없 어서
▁또 다시
▁신 임
▁분 은
▁강 의를
▁장 비
▁박 물관
▁차 원의
▁열 릴
▁따 져
▁출 국
▁파 키스탄
▁의원 들은
▁정도 를
▁위해 선
▁담 에
▁협 박
▁돈 으로
▁볼 까요?

▁육 수
▁아닌 데
▁일부 러
▁급 격
은행 의
▁존 경
▁퇴 근
▁정권 이
▁실시 한
▁정확 하게
▁금메달 을
▁태양 광
▁융 합
▁고구 마
▁수험 생
▁토마 토
' 과
' 라고
5 5
6 7
i s
고 한
구 속
국 으로
당 에서
법 상
사 이
선 진
었 고
임 대
작 가
청 년
하 다”며
▁이 성
▁지 사는
▁1 회
▁전 임
▁2 주
▁기 증
▁거 뒀다.

▁나 중
▁자 리가
▁‘ 보
▁안 방
▁위 에서
▁상 업
▁불 투
▁불 만을
▁받 으면
▁재 건축
▁장 착
▁좀 더
▁차 기
▁게 이트
▁적 절한
▁새 해
▁평 범
▁작 동
▁포 르
▁사실 은

▁타 율
▁세계 를
▁세계 적
▁국내 에
▁아주 

▁보여 준
▁대선 후보
▁어렵 다는
▁분야 에
▁읽 는
▁요렇게 

▁나가 서
▁나와 서
▁넘어 가
▁뿐 만
▁즐 거
30 분
▁아빠 가
교육청 은
▁돕 는
▁랭 킹
( 파
’ 인
감 은
겁 게
국 과
국 장은
기 까지
대 와
된 다고
디 언
려 서
실 장은
요 한
유 산
인 사
졌 다는
청 을
축 제
투 쟁
패 를
회 장
▁이 겨
▁대 략
▁아 파
▁자 기는
▁다 수
▁‘ 동
▁해 주시
▁해 가지고

▁내 렸
▁공 약을
▁소 외
▁연 다.

▁저 거
▁저 축은행
▁요 금
▁신 경을
▁무 효
▁분 들도
▁그런 거
▁당 근
▁두 부
▁못 하게
▁열 렸다.

▁문제 와
▁것이 었다.

▁너 는
() 에
▁의원 도
▁손 질
▁돼 있
▁학생 들을
▁태 어나
▁트 로
▁병 역
더라 .

▁문화 재
▁돌아 온
▁급 속
▁만나 는
▁노동 당
▁인사 청문
민주 주의
▁빨 간
▁합의 가
▁판단 을
▁증가 했다.

▁걱 정이
▁방안 도
▁원칙 을
▁누리 꾼
▁삼성전 자는
▁대단 히
·사진 )
PG A
▁춘 천
2 000
고 와
길 이
까 요
동 에서
들 ,
리 다
명 )
배 를
비 시
스 에서
아 의
었 다”고
역 에
위 와
이 한
장 한
포 럼
행 사
환 자
▁그 죠?

▁아 쉽
▁어 서
▁것 인지
▁보 게
▁기 재
▁‘ 노
▁‘ 세
▁경 상
▁제 안을
▁오 세
▁상 한
▁되 도록
▁" 내
▁최 신
▁같 습니다

▁동 계
▁우리 가

▁바 다.

▁발 전을
▁성 명
▁장 례
▁스 티
▁배 당
▁직 무
▁줄 일
▁관련 이
▁담 보
▁시간 은
억원 으로
▁됐 을
▁쪽 에서
▁태 풍
▁사용 한
이었 습니다.

▁정책 에
▁향 상
▁격 려
▁티 켓
▁웃 었다.

▁제시 한
▁상품 을
▁필요하 다는
▁니 가
스러 워
▁뛰어 넘
▁혈 압
자이 너
4 7
돈 을
래 는
러 시아
르 트
마 크
세 요.
소 연
실 ,
실 의
요 금
인 ,
타 로
플 러스
하 더라도
허 가
▁그 중
▁1 호
▁가 공
▁것 도

▁정 지
▁보 다는
▁다 를
▁다 운
▁경 주
▁국 외
▁예 전에
▁의 장
▁유 형
▁유 전자
▁분 열
▁아니 다”라고
▁외 에도
▁손 학규
▁하나 씩
▁교수 의
▁지역 구
▁준비 하고
▁몰 래
▁폭 행
▁년 에
▁추진 할
▁문화 체육관광
▁민주당 이
▁경쟁 이
▁약간 

▁패 러
▁자유 한국
▁성공 했다.

▁논의 가
▁이뤄 지지
▁C EO
▁이것 은
▁위험 이
▁흥 미
▁재미 있
▁무료 로
▁대우 조선
▁관람 객
▁정규 리그
▁초등 학생
' 와
B )
N N
▁ 듭
▁ 텍
곳 이
국 어
단 과
동 강
들 고
리 ,
세 와
심 한
운 용
웨 덴
지 능
터 를
토 론
하 러
하 죠.

▁사 전에
▁어 게
▁전 담
▁전 에는
▁기 도
▁일 간
▁조 례
▁비 가
▁3 %
▁3 위
▁생 기는
▁그래 도

▁같 다"고
▁마 리
▁교 섭
▁원 )
▁세 무
▁무 용
▁당 의
▁불 출
▁결 제
▁도 대체
▁도 널드
▁반 대로
▁5 시
▁평 택
▁역 량을
▁간 장
위원 장이
▁점 포
▁9 개
▁준 공
▁돼 지
▁규 칙
▁12 0
▁잡 았다.

다면 ,
▁농 구
▁곳 이다.

▁국회 가
▁보인 다”고
▁별 도의
(3 0
▁마련 해
▁침 묵
▁같아 .

▁통일 부
▁개정 안을
▁잇 달아
▁협력 업체
▁필요하 다”고
▁G S
▁유일 하게
▁밝히 지
▁안팎 의
▁예예 .

▁멸 치
▁성폭 행
▁앞세 워
▁비례 대표
▁ 띠
▁ 슨
▁ 니다.

가 며
구 .

나 라는
디 션
라 의
만 9
만 여
문 재인
백 을
법 과
변 호
보 증
부 처
상 담
소 의
스 턴
식 에서
으 니까.

잡 고
하 니까
홈 런
▁이 라크
▁대 대
▁어 릴
▁등 이다.

▁중 산
▁해 설
▁안 산
▁위 주로
다” 라며
▁관 할
▁비 핵
는데 요

▁그런 데

▁동 성
▁발 탁
▁발 효
▁도 망
▁성 적이
▁사람 이

▁남 부
▁감 동
▁생각 할
▁맞 습니다.

▁7 5
▁금 액
▁대표 님
보다 

▁심 한
▁줄 이는
▁채 워
▁광 복
▁광 화문
▁대학 을
▁최고 경영
▁육 군
▁현대 자동차
▁결정 이
느냐 ”고
▁보여 준다.

▁전체 를
▁전체 의
▁새누리당 이
▁않아 요.

▁퇴 출
▁환경 을
▁활용 할
▁50 여
▁선언 했다.

▁부회 장
▁괴 롭
스티 벌
▁최악 의
www .
3 8
▁ 멍
▁ 찰
기 본
문 에
물 은
본 부는
심 은
졌 다고
합 의
행 복
▁그 간
▁2 %
▁거 죠
▁“ 원
▁자 위
▁자 택
▁주 식을
▁없 어.

▁유 해
▁" 당
▁또 다른
▁방 과
▁신 동
▁신 체
▁4 1
▁사람 한테
▁더 

▁했 고

▁좋 게
▁행 보
▁후보 자가
▁교육 이
▁현재 의
▁눈 물을
▁정책 이
▁용 의
▁모르 고
(3 3
▁강조 하는
▁테 마
▁199 0년대
▁방법 은
▁해결 할
▁견 제
▁비교 해
▁옆 에서
▁사태 를
▁쇼 트
▁“지 금
▁조건 을
▁맥 주
▁“지난 해
▁내다 봤다.

▁전교 조
o u
▁ 둥
▁ 탕
개 선
관 으로
민 은
배 상
서 치
업 무
욕 을
으 면은
크 라
키 로
풀 이
회 로
▁이 쪽
▁있 습니까?

▁있 잖아

▁아 랍
▁사 내
▁지 점
▁지 분을
▁가 전
▁다 문화
▁‘ 일
▁인 상을
▁내 수
▁예 금
▁관 행
▁연 어
▁바 르
▁당 신
▁도 박
▁재 개발
▁장 난
▁감 정을
▁과 일
▁물 었다.

▁검 사를
▁처 방
▁처 분
▁점 차
이라 던
▁사회 에서
▁아이 들은
▁찾 지
▁종 사
▁식 사
▁사업 의
▁날 아
▁날 짜
▁카 레
▁잡 았
▁됐 어요.

▁만들어 서
교육 을
▁일부 를
▁그랬 는데

▁떨어 뜨
▁떨어 졌다.

▁아직 은
▁죽 을
▁마련 한
▁휴 가
▁드러 냈다.

▁혐의 (
▁지도 부
▁뿐 이다.

▁딸 이
▁I C
▁벗 어
▁믿 고
▁주목 된다.

▁M B
▁나선 다.

▁규정 하고
▁늘어 났다.

▁대체 로
▁피아 노
▁ 탱
권 과
글 로벌
나 ,
나 리
내 야
모 임
물 의
받 지
부 담
비 ,
상 공
순 위
익 을
진 영
타 운
피 를
함 에
▁이 석
▁아 저
에서 만
▁하 는데,
▁수 급
▁수 를
▁가 락
▁정 성
▁“ 조
▁네 트워크
▁‘ 중
▁인 건
▁인 문
▁주 부
▁오 를
▁우 린
▁우 병우
▁고 가루
▁상 생
▁모 비스
▁유 세
▁원 조
▁요 소
▁근 대
▁올 렸
▁성 범죄
▁사람 들에게
▁특 유의
▁물 질
▁음 성
▁삼 성이
▁7 년
▁법 안을
▁초 래
▁19 2
▁후보 와
▁판 사
▁국민 에게
▁채 무
▁편 하게
▁갈 라
▁허 가
▁대학 교
▁창 단
▁농 촌
▁병 원에
▁이용 하는
▁돌아 오
▁확인 한
▁터 져
▁선거 에서
▁국정 조사
▁죽 은
▁주민 들의
민주 화
▁방법 으로
▁참석 해
▁마지막 에
▁플 랫폼
▁이뤄 질
▁방문 한
▁공무원 연금
▁걔 가
▁여야 가
생활 을
▁형태 의
했으나 ,
▁자원 봉사
▁냄새 가
▁멈 추
▁타임 스
▁과도 한
▁프리미 엄
▁끊임 없이
> (
· 신
▁ 족
나 갈
랑 이
로 드
를 린
모 든
법 으로
아 트
었 다
인 인
트 랙
하 진
호 의
▁이 화
▁기 사를
▁“ 앞으로
▁다 닐
▁네 가
▁‘ 소
▁일 시
▁여 기는
▁없 는데

▁조 달
▁" 전
▁방 안이
▁신 기
▁바 라는
▁아니 에요.

▁도 중
▁재 활
▁실 망
▁영 토
▁사람 들도
▁남 의
▁참 전
▁단 축
▁문제 다.

▁것이 죠.

▁그렇 습니다
▁막 판
▁양 보
▁걸 고
▁간 이
▁피 곤
위원 회의
▁어떤 

▁아이 티
▁각 자
▁상황 은
▁호 박
▁날 이
(1 2
(1 3
▁폭 로
레이 드
▁로 드
▁면 담
▁면 제
▁참여 할
▁포함 됐다.

▁마음 으로
은행 이
▁우려 를
▁으 흠
▁뛰 어나
▁어디 에
▁활동 에
▁집중 적으로
습니다. "

▁기본 적인
▁인터뷰 를
▁주시 고

▁사례 를
▁마찬가지 로
▁최저 임금
▁삭 감
▁권한 을
▁흡 수
▁서울중앙 지법
▁말하자 면
▁싱가 포르
- 미
4 4
· 대
· 박
· 사
· 연
금 지
대 회를
만 6
말 을
명 도
문 에서
밀 한
캠 프
타 워
테 러
플 루
하 면은
하 지만,
▁이 룬
▁대 검
▁사 외
▁지 연
▁가 처분
▁2 ,
▁기 독교
▁“ 남
▁“ 비
▁“ 세
▁“ 저
▁자 사고
▁‘ 시
▁인 식이
▁중 독
▁제 이
▁공 사를
▁오 지
▁우 수한
▁위 축
▁" 김
▁교 회
▁무 렵
▁재 발
▁5 6
▁영 원
▁노 릇
▁출 제
▁명 칭
▁처 리를
▁데 가
▁피 고
▁본 다.

▁일본 과
▁하고 .

▁있었 다고
▁있었 습니다.

▁허 브
▁항 공사
▁삼성 물
▁가운데 ,
▁주장 하고
▁떨어 질
▁나타 났
▁뜻 이
▁강조 한
업체 인
▁퇴 임
▁변호 사가
▁영국 의
▁반응 이
프로 골프
▁남편 이
▁기다 리고
▁둘러 싸
▁바꿔 야
▁처벌 을
▁비중 은
▁물어 보
▁측면 에서
고속 도로
▁집어 넣
브리 드
~ 7
· 유
▁ 윈
▁ 칸
▁ 톱
과 도
그 래
료 는
명 ),
분 야
세 한
소 와
십 시오
양 은
원 도
음 에도
전 

전 으로
져 

지 노
지 요

취 를
퍼 드
하 니까

▁그 야말로
▁가 산
▁정 서
▁나 쁘
▁우 유
▁의 지가
▁만 화
▁세 웠다.

▁방 해
▁성 능
▁남 는
▁못 지않
▁할 지
▁서울 에
▁단 백
▁외 무
▁집 이
▁앞 당
▁총 장이
▁10 년간
▁법 원이
보다 도
▁약 한
▁높 였다.

▁줄 을
▁치 고
▁씨 와
▁교육 과학기술
▁넣 은
▁증 여
▁속 도
▁지역 은
▁있었 지만
▁국가 정보
▁업 종
▁형 제
거나 ,
(1 6
▁순 환
▁15 년
▁오늘 도
▁금융 감독
▁십 이
▁민주당 의
▁역사 적
▁내놓 고
▁요청 했다.

▁걔 는
▁헤 어
▁M BC
▁대출 을
▁담당 하는
▁"이 번
▁가르 쳐
▁근거 로
▁음~ 

▁고속 도로
▁“현 재
▁구제 역
' 이란
7 7
D P
F A
견 을
고 추
그 러
네 요.
던 

들 인
로 서는
록 을
순 환
얀 마
인 천
층 은
페 라
회 복
▁아 사
▁한 

▁기 분이
▁거 기는
▁‘ 원
▁제 도가
▁내 릴
▁않 지만
▁없 는데
다” 면서도
▁생 생
▁문 과
▁마 크
▁신 형
▁진 지
▁학 업
▁과 장
▁작 가는
▁매 매
▁민 감한
▁10 명
▁걸 

▁프 랑
▁8 5
▁있어 도
▁일본 을
▁교육 부는
▁화 재
▁필요 할
▁찾 고
▁호 응
▁계획 이
▁진행 된
▁결정 했다.

센터 를
▁맡 았다.

▁아무 튼
▁기자 들과
▁25 %
▁상당 수
▁싸 우
▁강화 하는
▁내놓 았다.

▁됩 니다

▁이것 을
▁주목 을
▁작가 의
00만원 을
▁제조 업
부( 부장
▁해명 했다.

a t
곳 에서
공 헌
과 거
버 리
복 합
사 령
스 리그
아 서
에 프
일 로
절 을
정 과
져 서
주 세요.

테 크
파 가
판 매
포 스트
▁그 쪽
▁사 각
▁한 계가
▁2 루
▁2 회
▁거 에요.

▁“ 특
▁‘ 3
▁‘ 내
▁일 선
▁경 호
▁중 대
▁조 문
▁되 면은
▁개 가
▁마 시고
▁많 을
▁요 리를
▁방 치
▁방 통
▁무 슬림
▁아니 지만
▁발 급
▁못 하면
▁적 합
▁단 호
▁청 탁
▁먹 은
▁논 문을
▁취 급
▁늘 리는
▁체 제를
▁찾 았
▁협 력을
▁협 의를
▁싶 다”고
▁학생 들에게
▁아니라 ,
(1 1
▁메 달
▁15 00
▁요구 하고
▁전체 가
기관 의
▁제품 의
▁유럽 연합
▁에~ 

▁워 크
▁시행 령
▁40 여
▁F A
▁입장 이다.

▁행복 한
▁짓 는
▁보유 하고
▁그쵸 .
▁개성 공단
) 이다.

끄 는
됐 고
말 이
브 라
소 프트
심 리
월 에
주 영
표 가
환 은
▁이 듬
▁하 라
▁하 버
▁수 감
▁정 유
▁시 대의
▁“ 201
▁자 진
▁‘ 남
▁‘ 반
▁해 제
▁말 했다고
▁때 의
▁오 .

▁여 학생
▁없 다"며
▁고 스
▁상 정
▁조 리
▁조 율
▁비 닐
▁연 수
▁유 죄
▁서 부
▁마 쳤다.

▁불 어
▁장 성
라는 

▁노 력이
▁스 코
▁막 는
▁합 작
▁초 점을
▁드 리고
▁본 인의
▁201 8년
이라 든지
▁필요 성을
▁군 데
▁권 력을
억원 ,
▁눈 치
▁병 행
▁월 드
▁어려 움
▁청와대 가
▁거예 요
▁나라 를
▁출신 으로
▁name 3
▁자유 무역
▁얻 는
▁들어가 서
▁발생 할
▁사고 를
▁내려 가
▁클 럽
▁이사 장
▁겪 는
▁납 치
▁얼굴 이
▁과학 기술
경찰 서
하라 ”고
▁뉴욕 타임
▁내세 운
▁유리 한
▁비상 대책
▁메르 스
’ 다.

까 요?
다 ?

리 티
문 의
밴 드
아 파트
였 다고
오 십
장 치
주 류
차 로
편 을
학 원
했 는지
▁이 자
▁지 닌
▁한 동안
▁1 분
▁1 ·2
▁시 기를
▁거 둔
▁오 셨
▁오 스트
▁의 지
▁의 사가
▁3 억
▁김 지
▁무 섭
▁구 현
▁아니 야.

▁당 국이
▁실 수
▁성 추
▁노 하우
에게 서
▁생각 하지
▁6 7
▁물 류
▁잘 하는
▁것이 고

▁에 너
▁행 위를
▁먹 기
▁본 질
▁점 수
▁관계 자들은
▁야 당이
▁독 도
▁기업 은
▁권 리를
▁학생 은
▁보고 서는
▁준비 한
▁않았 지만
▁갔 을
▁수준 을
시키 기
▁말이 죠.

▁해결 을
▁건강 한
▁활용 한
▁업체 가
▁지도 자
연합 회
▁움직 이는
▁설치 된
▁오래 된
▁썰 어서
▁이하 의
▁흥 행
▁맥 락
▁기소 된
▁분위기 다.

▁성격 이
▁김기 춘
모델 링
▁오징 어
4 5
C TV
c h
∼ 3
두 는
려 고

료 로
문 은
법 원
선 생
소 설
스 플레이
십 니다.

였 지만
자 책
저 히
전 과
점 과
주 와
줄 이
집 이
측 이
탄 을
판 이
▁이 끄는
▁그 릏게
▁대 치
▁사 유
▁지 났
▁하 시면
▁한 데
▁한 중
▁전 두환
▁정 한
▁거 다.

▁“ 안
▁나 은
▁다 짐
▁네 이버
▁경 매
▁제 의
▁국 군
▁공 론
▁여 는
▁고 대
▁상 하이
▁비 준
▁만 이다.

▁되 나
▁분 당
▁강 도
▁영 광
▁6 3
▁집 필
▁양 산
▁포 괄
▁일본 인
▁치 킨
▁크 고
▁벌 이는
▁독 재
▁경제 의
▁있었 어요.

▁편 이
▁커 질
▁급 등
▁16 강
▁얻 고
▁언니 

▁이해 를
▁찬 반
▁매출 이
▁뽑 는
▁소득 이
▁N C
▁시험 을
▁염 두에
▁부정 적인
▁불구 속
▁하이 브리드
▁성향 의
▁며 느
▁장면 이
▁흐름 을
▁맞춤 형
▁화려 한
▁꼼 꼼
▁시나 리오
( H
~ 9
거 야.

군 요

급 여
득 점
시 장을
울 러
자 금을
적 의
주 인
즈 는
포 로
하 늘
학 이
합 니다
▁대 다
▁아 끼
▁하 겠다는
▁수 렴
▁1 ~2
▁정 원
▁시 의
▁거 품
▁거 죠.
▁“ 상
▁다 름
▁일 일이
▁인 양
▁인 식을
▁주 에
▁주 체
▁제 보
▁해 주는
▁공 조
▁공 짜
▁안 심
▁예 선
▁조 명
▁선 도
▁소 집
▁연 루
▁저 자는
▁" 대
▁뭐 지
▁김 광
▁아니 야

▁불 만이
▁후 추
▁노 선
▁스 크
▁달 하는
▁작 곡
▁치 는
▁씨 (4
▁화 물
▁하나 를
▁규 제를
▁종 종
▁싶 다.

▁창 립
▁창 원
▁않는 다”고
▁말씀 하셨
▁현재 는
▁눈 물
▁발표 할
▁조사 에서
▁병 원을
▁접 어
▁곳 을
▁진행 하고
▁디 자이너
▁정보 가
들과 의
▁시민 들이
▁윤 석
▁책임 이
▁name 4
▁겨 우
▁레 스토
▁50 대
▁과거 에
▁밤 에
▁겪 은
▁정신 을
대회 에서
시설 을
▁기능 이
▁컨 설팅
▁즉 시
▁교통 사고
▁SK 텔레콤
▁출마 를
▁비중 을
▁E U
▁진술 을
▁긍정 적인
▁소식 통은
▁수시 로
▁다행 히
▁소프트 웨어
▁이듬 해
· 영
거 죠.

공 무원
극 장
라 든지
리 와
버 트
자 들도
조 치
주 석
테 인
통 제
학 의
혈 압
▁이 창
▁대 륙
▁지 혜
▁하 더라고

▁가 중
▁전 파
▁정 교
▁기 원
▁기 지
▁“ 시
▁‘ 어
▁인 구가
▁때 ,
▁때 만
▁비 극
▁3 배
▁모 래
▁되 었
▁" 정
▁개 를
▁' 대
▁' 사
▁무 인
▁그런 게
▁동 작
▁받 기
▁5 7
▁영 유
▁사람 에게
▁좋 고
▁생각 한
▁할 려고
▁살 리기
▁막 대한
▁사실 

▁아이 스
▁체 류
▁야 외
▁협 약
▁싶 습니다.

▁이어 지고
▁쓰 러
▁있었 을
▁학생 의
▁잡 을
하겠 습니다.

▁전문 대학
▁홍 준표
▁길 어
▁예정 된
▁금융 당
▁않았 다”고
▁이미 지
▁보여 주고
▁수준 이
▁묻 자
▁벌어 졌다.

▁캠 페인
▁공간 을
▁등록 금
▁동아 시아
▁이재 용
▁홀 로
▁코스 닥
▁지식 경제
▁스위 스
▁리포 니아
- 5
· 재
▁ 힌
고 로
공 사가
권 도
께 서

만 7
명 이다.

물 질
바 이트
식 의
이 든
이 오
졌 지만
직 한
체 험
추 어
프 랑스
▁이 분
▁대 회를
▁아 삭
▁사 면
▁어 지
▁어 찌
▁전 과
▁시 정
▁“ 무
▁“ 주
▁나 옵
▁다 이어
▁일 로
▁일 하고
▁주 신
▁중 립
▁부 근
▁의 해서
▁관 점에서
▁3 D
▁3 학년
▁유 아
▁미 니
▁" 오
▁서 명
▁생 애
▁최 하
▁마 라톤
▁김 포
▁바 랍
▁발 레
▁도 서
▁재 혼
▁실 시간
▁후 속
▁두 루
▁감 상
▁했 기
▁추 신
▁맞 았다.

▁들어 보
▁집 회를
▁삼 천
▁양 자
▁판 정을
▁줄 이기
▁타 이어
▁돌 고
▁넣 어서
▁시작 을
▁시간 )
▁[ 단독
▁속 도가
▁충 실
▁충 족
▁끝 나는
▁첫 째
억원 에
▁됐 다”고
▁선수 는
▁코 너
▁글 이
▁대선 에서
▁공동 으로
▁주민 들은
▁“이 런
▁서울시 가
▁의혹 에
▁미래 에
인가 ?

▁실제로 는
▁욕 설
▁높아 진
▁여야 는
▁지켜 보
▁언급 한
▁재산 을
~2 00
▁소설 가
▁늘어나 고
▁늘어나 는
▁안타 깝
▁안녕하 세요.

▁정상회담 을
▁밴 드
다시 피
▁아하 

' 이라고
M F
m ,
▁ 닥
▁ 켜
경 북
구 와
나 가는
네 ?

들 끼리
로 로
로 워
린 이
무 는
민 의
산 은
세 점
시 장이
식 과
어 준
인 에게
작 은
팀 의
협 약
▁하 하
▁한 계
▁한 진
▁가 고

▁기 운
▁거 니까

▁“ 부
▁“ 일본
▁위 성
▁의 외
▁비 율을
▁3 조
▁3 000
▁" 여
▁김 장
▁원 인을
▁구 멍
▁우리 나라는
▁아니 면은
▁발 간
▁당 원
▁결 심
▁반 갑
▁계 파
▁박 사는
▁스 웨덴
▁감 세
▁감 수
▁했 고
▁생각 에
▁물 건
▁정부 를
▁외 모
▁평 등
▁설 비
▁경우 는

▁관련 해서
▁이후 에도
▁식 구
▁속 으로
▁리 모델링
▁얘기 했
▁계획 ”이라고
▁농 축
▁커 뮤니
▁진행 되는
▁그랬 는데
케이 팅
▁엄마 는
▁영향 력을
그룹 이
▁특별 히
▁빨 라
▁논의 할
▁배우 는
▁번째 로
▁엘 리
▁믿 는
▁개혁 을
▁충분 한
▁뜨 거
▁블 로그
▁달러 (약
▁“대 통령
▁홈런 을
▁조합 원
·기 아
▁앞장 서
▁잉 글랜드
▁김일 성
▁[단독 ]
( 서울
4 대강
▁ V
▁ 꿀
▁ 리고
가 니
거 리는
나 의
낸 다.

냐 고

되 고,
된 다는
됩 니다.

림 을
미 는
보 장
비 와
세 포
소 시
속 에
에 겐
인 

주 면
지 며
통 이
플 러
형 으로
▁있 긴
▁있 잖아요

▁사 후
▁하 죠.

▁전 제
▁보 낼
▁기 후
▁거 리를
▁거 기가
▁“ 정부
▁‘ 강
▁‘ 기
▁일 요일
▁경 력
▁국 경
▁공 장을
하고 자
▁않 다”고
▁상 처를
▁미 얀마
▁문 의
▁같 이

▁방 영
▁신 선
▁동 의를
▁그러 다가
▁그러 더라고

▁당 했다.

▁5 3
▁영 남
▁더 해
▁장 소
▁건 물을
▁박 씨는
▁알 지
▁게 임을
▁생각 하면
▁열 려
▁6 8
▁특 성화
▁삼 백
▁그렇 군요.

▁간 다
▁있어 ?

▁언 젠
위원 장을
▁심 화
▁변 신
▁식 민
▁독 서
▁누 적
▁버 렸
▁얼 음
기업 의
▁쪽 의
▁놓 으
스트 리트
▁조사 에
▁예정 인
▁기록 하며
▁별 다른
▁범 위
▁골 라
▁골 을
▁아직 까지
▁규모 를
▁키 우는
▁199 5년
▁199 4년
▁199 6년
▁어디 로
▁합의 한
▁사람들이 

▁증가 한
▁꾸 려
▁조직 을
▁제기 한
▁좌 파
▁어머니 가
▁곤 란
▁뭐냐 면

축구 연맹
▁신용 카드
▁일주일 에
▁코스 피
▁고통 을
▁뒤집 어
▁인공 지능
▁“우 리는
▁일어 날
▁편의 점
▁국세 청
▁쇄 신
▁가만 히
▁레스토 랑
( 가
> 에
” 라는
▁ 흠
▁ 었다.

가 와
게 요

겠 다

공 학
과 장은
데 이
동 생
동 원
들 하고
림 이
명 에게
민 이
백 화점
본 을
사 들의
색 이
세 력
스 카
시 지
시 면

씨 도
역 으로
운 전
입 을
전 시
집 단
집 에서
트 롤
▁이 

▁이 들에게
▁그 니깐
▁한 다"며
▁1 시
▁1 층
▁가 방
▁정 진
▁2 학년
▁2 분기
▁시 대가
▁“ 중국
▁주 간
▁해 도

▁말 하면
▁공 기
▁오 케
▁오 르는
▁유 독
▁미 역
▁저 질
▁" '
▁생 일
▁뭐 .

▁마 스터
▁김 민
▁김 병
▁동 결
▁바 닷
▁아니 

▁그러 기
▁진 실을
▁5 1
▁장 르
▁회 동
▁적 게
▁맞 았
▁물 려
▁외 신
▁집 으로
▁명 분
▁검 정
▁가지 가
▁초 ·중
▁점 에
▁임 용
▁하나 만
▁목 적으로
▁표 명
▁버 티
▁기업 인
▁충 격을
▁민주 노총
(1 4
▁삼성 의
▁곳 으로
▁참여 했다.

센터 는
▁여성 은
▁자기 네
▁골 목
▁최대 의
▁나타 나는
인데 도
▁그걸 로
▁황 금
▁자유 롭게
▁방식 이
▁깨 달
▁구체 적
▁공부 하는
▁숙 박
▁판결 이
▁억 제
▁바라 보는
▁단순 한
▁챔피언 십
▁헬 스
▁손해 배상
▁동북 아
▁최우 수
▁두드 러
▁평범 한
▁고스 란히
e t
· 소
▁ 렌
▁ 톡
▁ 퓨
계 에서
광 주
기 인
던 데

되 며
바 겐
상 과
상 승
습 을
었 어.

절 이
제 재
주 교
집 행
차 량
채 널
풍 을
행 동
호 남
▁이 은
▁지 음
▁지 주
▁지 냈다.

▁수 신
▁전 격
▁보 도를
▁시 를
▁‘ 영
▁주 검
▁중 견
▁해 경
▁부 끄
▁안 양
▁않 나
▁않 습니까.

▁위 헌
▁상 봉
▁조 처를
▁만 찬
▁되 살
▁되 찾
▁그래 요.

▁개 척
▁김 승
▁원 장이
▁동 창
▁불 만
▁후 진
▁박 인
▁스 카
▁차 원
▁회 고
▁했 어
▁때문 이
▁특 성
▁총 리를
▁가지 를
▁얘 네
▁막 내
▁데 도
▁데 쳐
▁합 니다

▁드 실
▁독 점
▁경제 를
▁잡 지
▁학교 가
▁선수 를
▁글 로
▁여기 까지
▁대해서 는

▁철 도
▁분석 도
▁공개 적으로
▁낮 춰
▁선거 에
▁시민 사회
▁있으 니
▁영향 이
▁논란 에
▁어렵 지
▁합의 했다.

▁역할 이
▁달라 진
▁요청 을
▁매출 을
▁공식 적으로
▁꼽 히는
주시 고

▁졸업 한
▁불과 하다.

▁푸 른
▁이동 통신
▁G 20
▁실패 한
(S K
▁안정 적인
▁맺 은
▁신문 은
만으로 도
▁호소 했다.

▁탑 재
▁아이디 어를
▁독특 한
- 4
5 일
6 6
7 2
I )
· 시
▁ 았
계 와
교 체
내 며
냐 는
는 지

다 란
만 8
맛 이
미 터
보 도
비 드
상 한
상 에서
수 준
신 당
악 한
연 설
연 승
연 한
지 주
▁이 호
▁그 에게
▁하 기도
▁하 셔도
▁한 해
▁1 년간
▁거 대한
▁다 저
▁일 치
▁인 지
▁내 달
▁부 양
▁부 지
▁안 경
▁안 으로
▁없 도록
▁고 소득
▁모 금
▁" 최
▁서 구
▁마 약
▁원 장님
▁아니 었다.

▁그러 자
▁발 을
▁당 직
▁5 9
▁성 실
▁성 매매
▁사람 과
▁장 을
▁남 을
▁회 장과
▁못 했던
▁입 찰
▁6 4
▁서울 고
▁매 운
▁10 억
▁파 주
▁언 어를
▁본 지
▁정도 로

▁높 이기
▁이번 에도
▁씨 (3
▁체 크
▁시작 하는
▁애 를
▁힘 입
▁쓰 면
▁지원 이
▁권 위
▁질 을
▁중요 하다고
▁선생님 께서
▁측 정
▁베 를린
▁잠 실
▁장관 을
▁가족 들이
▁거예 요?

▁A I
▁일반 적인
▁작품 이
▁국방 부는
▁징 계를
▁위험 한
▁자료 가
▁성과 가
경찰 서는
▁밝혀 졌다.

▁여러분 들
▁빚 을
▁소통 을
▁정리 해
▁기반 을
▁마이 너
▁흡 연
▁꺾 고
▁탈북 자
▁고맙 습니다.

▁저소득 층
▁하버 드
▁자유무역 협정
k W
· 아
▁ 쾌
건 에
겠 지
되 게
로 에
버 린
베 르
심 판
입 니까?

종 이
천 안
체 로
팀 장은
▁이 따
▁대 충
▁하 마
▁어 렸을
▁가 속
▁보 자
▁“ 해
▁인 적
▁인 력을
▁국 물이
▁말 아야
▁내 리는
▁부 천
▁안 고
▁없 이

▁고 마
▁조 짐
▁3 00여
▁소 련
▁유 대
▁되 는

▁마 르
▁교 원
▁세 월
▁분 도
▁아니 다
▁불 확
▁차 량을
▁두 번째
▁회 장을
적인 

▁했 으면
▁추 경
▁따 르
▁입 건
▁입 력
▁6 6
▁과 시
▁응 급
▁7 회
▁200 여
하지 도
▁8 강
▁정도 만
▁줄 곧
▁타 결
▁손 실을
▁싶 지
▁속 도를
▁있었 다는
▁보고 를
▁창 당
▁됐 던
▁순 위
▁선생 이
▁트 리
▁길 러
▁대상 에서
▁예정 ”이라고
▁결정 하는
▁갔 는데

▁청와대 에서
▁선거 를
▁뜻 으로
▁시민 들의
▁황 교
▁앞으로 는
▁테 스트
▁의견 도
▁통합 진보
니다. ”

▁행사 에
▁대응 을
▁발견 된
▁다르 게
대한 민
▁빌 딩
▁아프 간
▁군사 적
▁챙 기
시켜 야
▁말씀드 렸
투자 증권
▁선보 였다.

▁간단 한
▁텐 데
▁모른 다.

▁저지 른
▁스피 드
▁동남 아
▁어떠 한
EC D
▁만만 치
원자 력
L L
O )
e s
· 공
▁ :
▁ 쯤
갖 고

건 으로
겠 습니다

결 혼
는 가
도 서관
동 아
되 고

만 4
방 위
범 위
성 한
실 과
울 산
음 

인 들
정 신
졌 다”고
출 을
팀 을
파 로
패 로
한 을
▁이 윤
▁아 바
▁한 층
▁수 사가
▁어 리
▁가 도
▁가 맹
▁전 ·
▁시 기가
▁기 숙
▁“ 나
▁자 .

▁‘ 진
▁해 봤
▁해 산
▁부 시
▁부 풀
하고 .

▁김 수
▁불 이익
▁영 구
▁한국 방송
▁한국 시리즈
▁학 기
▁노 트
▁감 당
▁감 옥
▁했 지만,
다" 

▁입 국
▁입 에
▁과 잉
▁들어 오는
▁명 백
▁청 춘
▁된 다"고
▁많이 

▁양 극
▁법 사
▁행 태
▁정도 면
▁활 성
습니다 만은

▁사회 적인
▁될 지
▁협 동조합
▁종 일
▁올해 도
▁리 비아
▁지원 할
▁절 대로
▁질 환
▁중요 하다.

▁병 원에서
▁십 일
▁상태 를
▁올라 오
▁이름 은
▁전국 의
▁러 드
▁S NS
▁발생 하는
▁확보 한
니다. "

▁전략 적
▁아버 지는
▁결혼 을
▁야당 의
▁남아 공
▁던 져
▁양념 이
▁입장 에서는
▁이끌 고
▁느끼 고
▁당연 한
▁빚 어
▁깔 려
▁시설 을
▁시청 률
000만원 을
▁간단 하게
▁걷 어
▁제목 의
▁감안 하면
▁상관 없이
▁추구 하는
▁자세 히
▁널 리
▁금강 산
▁패러 다
> ,
▁ 롤
단 에서
됐 다”고
됐 습니다.

두 산
메 이
미 널
서 .

었 기
에 다가

일 으
째 를
취 업
토 록
플 랜
히 고
▁이 인
▁대 상을
▁사 정이
▁1 분기
▁보 복
▁거 두
▁자 부
▁‘ 2
▁일 할
▁해 방
▁해 온
▁공 원
▁고 성
▁조 종
▁선 을
▁미 드
▁" 현
▁개 관
▁마 땅
▁김 은
▁' 미
▁신 년
▁통 진
▁바 삭
▁진 화
▁4 명이
▁올 릴
▁실 적을
▁후 쿠
▁건 지
▁출 동
▁것으로 ,
▁포 럼
▁파 산
▁관련 ,
▁넣 으면
▁넘 기
▁시간 도
▁표 를
▁이어 져
▁편 지를
▁얘기 할
▁카 카오
▁카 타르
▁현재 까지
▁태 어
▁빠 지
▁년 간
▁철 수
▁맞아 요.
▁와 인
연구 원은
▁송 도
기관 이
▁199 3년
문화 재
▁같아 요

▁이해 할
▁198 0년대
▁엔 진
▁작업 이
▁부회 장은
▁철저 한
▁곳곳 에서
▁다루 는
▁경향 이
▁집계 됐다.

▁돼지고 기
▁당부 했다.

▁으흠 

V P
r o
u n
· 외
∼ 201
▁ 록
▁ 엑스
거 리가
단 으로
돌 이
됐 기
르 신
별 로는
사 한
어 .
적 은
집 회
책 이
치 면서
카 데
표 준
▁있 죠

▁1 사
▁정 권을
▁보 며
▁보 셨
▁기 자의
▁“ 법
▁“ 연
▁‘ 실
▁인 쇄
▁주 무
▁중 에

▁공 영
▁부 검
▁부 를
▁안 정을
▁조 사가
▁생 물
▁신 촌
▁우리 에게
▁그러 니깐
▁당 당
▁5 2
▁실 력
▁실 효
▁영 웅
▁영 상을
▁스 페
▁했 다
▁추 격
▁달 이
▁민 심
▁너 네
▁너 도
▁검 거
▁피 디
▁201 3
▁심 사를
▁타 는
▁북한 과
▁교육 부가
▁증 상이
▁버 린
가지 고.

▁승 용차
▁편 리
▁편 지
▁자신 감을
억원 이
▁됐 는데

주의 를
▁오늘 날
▁감독 을
▁그럼 

▁베 스트
▁진행 되고
▁현대 ·기아
▁참여 해
느냐 는
▁영화 는
▁모습 은
▁위해서 다.

▁정상 회의
▁얻 었다.

▁환경 이
▁C NN
▁조선 시대
▁부모 가
▁착 공
▁잇 는
▁야당 은
▁감소 했다.

▁까 닭
▁부정 적
▁모양 새
▁측면 이
▁신용 등급
▁아름 다
▁심사 위원
▁실질 적으로
▁컬 렉
ti on
▁힘입 어
> 가
G )
▁ 몬
▁ 층
감 에
검 토
구 단
까 진
대 장
대 ?

드 릴
마 다

만 3
모 가
반 을
병 이
보 수
산 가족
슈 퍼
시 장에
실 점으로
아 를
였 고,
우 가
우 지
졌 기
졌 고,
주 도
질 환
하 되
희 정
▁이 끈
▁그 들이
▁있 죠?

▁아 들을
에서 부터
▁지 경
▁지 고
▁보 강
▁시 속
▁“ 재
▁나 고
▁자 라
▁자 발
▁자 격을
▁‘ 성
▁‘ 수
▁‘ 재
▁‘ 국민
▁인 사는
▁주 시는
▁중 기
▁중 진
▁제 재를
▁말 레이
▁오 백
▁오 프
▁여 지가
▁소 홀
▁유 혹
▁최 강
▁김 해
▁원 고
▁분 산
▁구 경
▁4 시
▁4 억
▁5 8
▁5 위
▁성 균
▁좋 다고
▁특 목
▁파 워
▁때문에 .

▁행 진
▁행 사가
▁본 선
▁후보 자의
▁교육 에
▁늘 릴
▁애 기
▁싶 어서
▁따라 서

▁복 용
▁지원 에
▁기업 들의
▁승 부를
기업 이
▁순 수
▁사용 을
▁정말 로
▁년 이
레이 션
▁로 비
▁않았 다고
▁와 서

▁탄 탄
▁라 인
인데 .

▁극 장
▁인정 한
▁의미 에서
▁예산 이
▁나가 야
▁나와 야
▁감사 원
▁보내 고
▁목표 는
▁매출 은
▁높아 지고
▁소개 해
▁불과 했다.

▁짜 증
▁N H
▁칼 럼
▁솔 로
▁불러 일으
▁탓 이다.

▁바이 러스
▁지키 는
▁일으 키
▁상담 을
미술 관
▁감안 해
▁움직임 이
▁김성 태
▁갖추 고
▁획 득
▁밀어 붙
▁일방 적으로
▁로스 쿨
▁유니 폼
( 한
M W
▁ 웅
경 기에
국 내
군 과
김 치
되 기도
라 던
레 일
보 안
시 장의
유 예
이 니
작 전
장 관은
저 기
중 이다.

처 음
초 를
해 운
회 ,
▁이 수
▁이 완
▁그 릏
▁아 울러
▁한 자
▁한 다면
▁수 차례
▁어 어.

▁다 닌
▁‘ 경
▁‘ 다
▁‘ 불
▁‘ 연
▁인 종
▁국 산
▁국 장은
▁공 존
▁않 고,
▁없 던
라고 .

▁상 반
▁비 자금
▁모 인
▁소 장은
▁소 금을
▁되 거든요.

▁개 선을
▁교 황
▁원 인이
▁세 탁
▁방 북
▁무 대를
▁구 호
▁실 용
▁성 숙
▁성 형
▁장 면을
▁이런 

▁감 각
▁했 더니

▁20 분
▁확 대를
▁역 사가
▁법 원에
▁걸 렸
▁중국 에서
▁간 접
▁치 과
▁타 격을
▁담 화
▁가능 할
▁크 지
▁세계 의
▁각 국
▁학교 는
▁내용 도
이었 다고
▁국제 사회의
시간 을
시간 이
▁몇 몇
▁전체 적으로
▁대선 을
▁구조 를
▁되고 요.

▁끌 려
▁통합 을
▁틀 어
▁가져 가
▁거래 를
▁블 루
▁반발 하고
▁대법 관
▁강력 히
▁사라 진
▁국토 교통
▁지시 를
▁근로 자
▁레이 더
▁무서 운
입니다. ”

▁그녀 는
▁겨냥 한
▁"지 난
▁팽 팽
▁오리 온
▁구속영 장을
▁모니터 링
▁듭 니다.

▁황교 안
) 에게
I T
· 오
’ 란
▁ 혁명
겠 어요?

경 필
고 사
달 라는
둘 러
락 을
령 이
명 에서
바 다
상 ,
야 드
역 이
연 수
음 료
이 게
인 재
일 까.

종 일
중 독
태 희
특 위
판 사
해 요
▁있 잖아
▁대 지
▁대 행
▁아 트
으로 도
▁사 서
▁하 다가

▁수 강
▁1 학년
▁가 졌다.

▁것 

▁보 러
▁“ 강
▁“ 올해
▁다 고
▁인 명
▁인 문학
▁중 학생
▁공 정한
▁안 을
▁여 성을
▁않 겠다는
▁고 혈압
▁의 장은
▁만 의
▁소 요
▁연 쇄
▁미 뤄
▁그래 갖고
▁요 것
▁신 생
▁진 압
▁4 개월
▁불 필
▁더 블
▁남 짓
▁감 면
▁열 흘
▁대통령 도
▁과 세
▁맞 붙
▁배 정
▁뒤 에는
▁뒤 에도
▁프 린
▁있어 요
▁먹 지
▁201 4
▁씨 에게
▁손 흥
▁야 채
▁속 도로
▁프로 파일
만원 ,
만원 씩
▁경찰 관
▁맛 도
▁있을 까
▁태 극
▁홍 익
▁좋은 데

▁빠 질
기로 

▁측 에
▁아닌 데

▁탄 도미사일
▁확인 해
▁13 0
▁가족 의
▁봐 요.

▁머 리가
▁죽 는
▁마련 했다.

▁예산 안
▁말이 에요.

▁뛰 는
달러 (약
▁L H
▁작품 은
▁있도록 

▁아마 도
▁안전 한
▁괜 히
▁알아 보
▁질문 이
▁아시아 나
▁남북 관계
▁고민 이
▁40 대
▁던 진
▁1000 만
▁강력 하게
▁든 든
▁기름 을
▁총선 에서
▁짧 게
▁핵실험 을
▁동원 해
▁“당 시
▁셋 째
-0 으로
▁이로 써
( 김
6 8
P S
가 ,
감 과
대 행
동 맹
리 조
방 의
변 화
씨 에
외 과
용 품
우 주
이 십
장 학
저 널
점 의
청 의
태 평양
투 를
풍 이
하 듯
▁이 길
▁이 적
▁아 냐
▁하 위
▁수 면
▁어 ?
▁것 ”

▁“ 3
▁나 흘
▁자 고
▁‘ 여
▁등 산
▁해 가
▁국 악
▁내 신
▁안 전을
▁의 류
▁관 료
▁관 절
▁3 ,
▁모 터
▁유 신
▁미 세
▁" 박
▁같 기도
▁마 운드
▁세 력이
▁구 자
▁4 위
▁결 핵
▁실 력을
▁박 상
▁박 정
▁박 찬
▁알 파
▁감 정이
▁20 만
▁적 당
▁적 혀
▁적 힌
▁단 단
▁집 값
▁명 단을
▁같은 

▁파 기
() 은
▁있어 요.
▁줄 이고
▁하나 인
▁사회 공헌
▁아이 고
▁아이 들의
▁시작 했
▁규 명
▁독 려
▁경제 협력
▁리 스크
▁지원 해
▁지원 하고
▁대학 에서
▁됐 다는
▁진짜 .

▁폭 넓
▁요구 에
▁기록 이
▁범 위를
▁바로 잡
▁개인 적인
▁뜻 하는
▁소비 자가
▁만나 서
▁공동 체
▁딱 딱
▁플 루
▁이러 는
▁유지 하고
▁현실 적으로
▁선택 을
▁아파트 를
▁여론 이
▁벌어 지는
▁인간 이
▁즐 겨
▁즐 기는
▁캠 페
▁토론 을
▁분명 한
▁지켜 야
▁범죄 를
중국 해
(S NS
▁슬 로
▁나머 지는
▁쌓 아
▁카드 를
▁마찬가지 다.

▁회담 을
▁안녕하 십
▁실질 적인
▁콘텐츠 를
▁동반 성장
▁멋 진
▁곳곳 에
▁아르 바이트
▁깎 아
▁항소 심
▁핀 란드
▁전당 대회
▁다큐 멘
▁불투 명
9 8
a c
· 강
· 일본
▁ .
▁ 옵
간 을
거 를
근 로
답 게
두 

리 나
리 

서 와
예 방
월 )
유 지
자 들과
자 (C
처 벌
총 생산
하 구
▁이 태
▁이 메일
▁아 나
▁아 휴
▁하 려
▁하 시고
▁전 성
▁정 세
▁기 성
▁기 호
▁‘ 해
▁공 시
▁오 일
▁여 유
▁없 죠.

▁고 

▁상 설
▁상 환
▁의 대
▁비 즈니스
▁소 극
▁연 애
▁또 래
▁교 사가
▁많 다는
▁김 밥
▁김 한
▁' 한국
▁무 사
▁무 침
▁분 의
▁아니 지
▁강 화를
▁현 황
▁5 ·18
▁실 장은
▁계 층
▁더 민주
▁장 병
▁한국 전
▁건 가요?

▁남 성이
▁감 자
▁감 찰
이라고 

▁때문 이었다.

▁맞 이
▁들어 올
▁배 웠
▁역 량
▁200 0년대
▁막 고
▁막 상
▁법 관
▁파 란
▁합 법
▁8 년
▁드 린
▁드 물
▁씨 (5
▁채 취
▁화 해
▁체 력
▁시작 할
▁있었 다”고
▁프로 농구
▁권 유
▁날 씨가
▁카 톡
▁자신 들의
▁형 식으로
▁눈 앞
▁준비 하는
▁온 갖
위원회 (
▁월 요일
▁대상 에
▁정보 통신
▁잠 을
▁공개 된
▁청와대 에
▁청와대 의
▁상태 에
▁논란 

▁제품 은
▁건강 을
▁달라 ”고
▁발언 은
▁참가 한
▁반응 은
▁안보 리
▁바뀌 었다.

▁P C
▁덕 분
▁스마트폰 을
▁기다 리
▁대표팀 은
▁이래 서
▁증거 를
▁쳐 다
▁불가능 한
▁삼성전 자가
▁특징 이다.

▁일어 났
▁쌍 용차
▁탑 승
▁인용 해
▁이벤 트
▁휴대 폰
▁쓰레 기
▁방과 후
▁오케 스트
& D
a d
· 부
▁ e
는 지를
담 에
라 기
라 든가
막 을
봐 .

비 도
상 황
생 의
스 ’
시 와
양 이
연 승을
위 험
재 산
지 던
직 으로
질 랜드
차 의
커 녕
텐 데

트 라
티 나
편 의
프 를
하 다

현 직
▁이 진
▁하 라고
▁한 가
▁가 면서
▁전 설
▁전 수
▁정 면
▁보 행
▁보 선거
▁기 온
▁“ 노
▁내 게
▁공 인
▁오 오
▁우 상
▁없 으니까

▁선 관
▁모 의
▁모 호
▁연 평도
▁되 면서
▁" 중
▁김 어준
▁' 스
▁세 제
▁신 발
▁4 ·1
▁후 임
적으로 도
▁남 해
▁스 토
▁특 조
▁적 립
▁맞 대결
▁단 위
▁직 권
▁명 목으로
▁청 산
▁10 분
▁금 속
▁에 프
▁포 장
▁대표 도
▁간 을
▁간 판
▁합 니다
▁후보 에
▁높 일
▁관계 없이
▁담 임
▁손 쉽
▁손 해를
▁손 가락
▁하나 에
▁정치 에
▁정치 적인
▁식 으로

▁누 워
▁핵 무
▁길 게
▁농 림
▁년 대
▁육 수를
▁그러니까 .

▁기록 해
▁그런데 도
▁문화 가
▁돌아 다니
▁분석 해
▁갔 다가
▁나타 냈다.

▁소비 자들이
▁노동 조합
▁인정 하는
기관 인
▁강화 하고
▁귀 찮
▁들어가 면
▁직원 들의
▁예상 되는
▁사진 이
▁이러 고
▁구성 해
▁대회 에
▁과거 의
▁받았 던
▁묻 혀
▁차지 한
▁통과 한
▁믿 을
▁좌 절
▁어머니 는
▁넓 은
전문 가
▁확실 한
▁트위터 에
▁동영 상을
▁근본 적인
크스 바겐
플루 엔
▁둘러싸 고
▁말레이 시아
3 7
▁ 덴
개 입
거 리를
겠 지만

곳 ,
놓 고

다 '고
도 어
독 립
러 나
례 가
루 에서
벤 처
보 좌
선 과
세 종
스 팅
심 으로
일 랜드
졌 고
주 고

차 에
파 운드
학 적
▁그 쳤
▁그 들은
▁대 박
▁지 사
▁하 야
▁하 얀
▁한 림
▁한 명
▁거 고
▁“ 문
▁“ 소
▁“ 제
▁나 랑
▁자 회사
▁‘ 상
▁‘ 우리
▁인 테
▁주 장은
▁중 에서도
▁국 물을
▁여 겨
▁조 속
니까 ?
▁소 재로
▁연 일
▁유 입
▁미 쳤
▁미 치지
▁마 산
▁요 것도
▁신 종
▁도 달
▁반 환
▁장 거리
▁남 겼다.

▁때문 ”이라고
▁추 징
▁과 제를
▁들어 서

▁음 주
▁것이 냐
▁같은 데.

▁그렇 습니까?

▁검 출
▁금 리가
▁양 상
▁에 .

▁걸 림
▁파 고
▁약 화
▁본 사
▁정도 에
▁경우 에는

▁국민 들
▁하지만 ,
▁돌 입
▁산 악
▁속 속
▁완 성이
▁광 고를
▁대학 이
▁돈 도
▁있을 까.

▁발표 된
▁오늘 의
▁빠 졌다.

▁커 졌다.

▁이야 기는
▁철 강
▁정책 의
▁개발 해
▁문화 예술
▁모르 게
▁팀 장은
(3 2
▁가족 과
▁회사 에서
▁지지 하는
▁휴 게
▁199 0년
▁자유 를
자로 서
▁페 미
▁기존 에
▁구조 가
▁제공 한다.

▁도입 을
▁지나 면
▁C CTV
▁익 혀
▁배우 고
▁남북 한
▁요청 한
▁벌어 지고
▁티 셔츠
▁가입 자
▁주시 면

▁무엇 인가
▁소개 했다.

▁원내대표 가
▁LG 화학
▁냉 동
▁컨 트롤
▁경남 도
▁줬 다.

▁닭 고기
재판 장
▁가슴 을
▁개헌 을
에이 치
▁위치 한
▁조언 했다.

▁담배 를
▁연예 인
▁떠오 른
▁쇼핑 몰
▁데이 비드
▁테이 블
8 6
S C
▁ 쳤
▁ 험
격 이
경 원
그 라
년 을
다 던
다 면서
들 여
등 을
론 가
방 한
수 지
실 장
억 여
이 ,
조 가
조 는
폭 탄
▁지 냈
▁하 천
▁하 기로
▁보 편
▁“ 두
▁인 재를
▁말 부터
▁내 기
▁오 해
▁상 의
▁선 대
▁3 분기
▁저 가
▁저 의
▁같 았
▁같 지
▁교 훈
▁' 무
▁' 한
▁원 천
▁신 라
▁신 화
▁분 담
▁동 대문
▁바 쁜
▁현 상을
▁5 000
▁실 장
▁영 장
▁후 퇴
▁차 관은
▁했 다"고
▁했 어

▁20 3
▁할 까
▁음 료
▁작 가가
▁북 미
▁양 해
대로 

▁심 어
▁국민 들에게
▁넘 긴
▁애 매
▁애 들은
▁종 전
▁싶 다는
▁싶 어요.

▁버 려
▁올해 부터
▁있었 고

▁국가 를
▁절 실
▁< 뉴욕
▁동안 에
▁지적 을
▁주장 한
▁여성 들이
▁장관 과
▁갔 는데
▁팀 은
▁청와대 와
▁가족 을
▁외국 어
▁송 파
▁“이 제
▁기간 을
▁없어 요

▁겁 니다

▁빼 돌
▁유지 할
▁인천 공항
▁끓 는
▁움직 임을
▁사랑 하는
▁비용 은
▁무엇 이
▁토론 회
▁대한민 국의
▁이끌 었다.

▁1000 여
▁주도 한
▁영어 로
▁보험 료
▁볶 음
▁생각해 요.

▁내세 워
▁밖 에서
계획 을
▁기반 으로
▁득 표
▁뚜 을
▁홈페이지 에
▁한- 미
▁바란 다”고
▁KB O
▁[수도권 ]
크라 이나
카데 미
' 이다.

) 인
F )
S A
v e
· 서울
∼ 4
감 치
꾸 로
년 이
대 응
레 인
먹 는
문 으로
베 이트
보 유
상 정
서 ,
우 의
일 의
작 업을
지 션
찌 감치
천 히
카 쿠
프 가
협 회는
형 제
▁있 구요.

▁아 스
▁하 느냐
▁한 계를
▁1 주일
▁가 짜
▁전 락
▁보 리
▁거 ?

▁“ 단
▁“ 마
▁나 지
▁나 다.

▁‘ 새
▁일 괄
▁중 고
▁해 요

▁때 와
▁오 신
▁우 연히
▁없 는

▁상 식
▁관 악
▁비 주류
▁만 인
▁서 면
▁서 술
▁' 제
▁원 로
▁무 거운
▁분 기
▁통 행
▁당 면
▁도 는
▁재 난
▁재 현
▁5 00만
▁건 져
▁노 리는
▁남 양
▁남 경필
▁감 추
▁했 어.

▁생각 했
▁대통령 ,
▁적 었다.

▁뒤 인
▁대표 적이다.

▁걸 리는
▁초 중
▁높 다는
▁심 장
▁담 았다.

▁왜 

▁목 격
▁협 조를
▁환 자의
▁버 무
▁리 버
▁있었 는데
▁편 이다.

▁카 이
▁많은 데

▁끝 으로
▁됐 다"고
▁선수 로
▁백 인
이었 지만
▁그럼 요.

▁문화 방송
▁정보 기술
▁별 도
▁바로 

(3 4
▁봐 .

▁마련 할
업체 가
▁우려 도
▁인정 하고
▁인정 하지
▁언론 은
▁서울시 교육청
▁발생 했다.

▁L PGA
정보 를
▁넣어 서

하자 고
▁왜냐 면은
▁낙 동강
▁딸 을
▁옮 긴
▁다니 고
▁정신 적
▁똑 똑
▁납 부
▁좋겠 다.

▁사망 한
▁N YT
▁공간 이
▁국토 부는
▁모델 을
▁가르 치는
▁베이 비
▁이곳 에서
▁D M
▁연락 을
▁답변 을
▁삼성전 자의
▁타이 틀
▁이내 에
▁일제 히
▁어머 님
▁쟁 점
▁간호 사
▁박수 홍
.co m
▁통합진보 당
▁미드 필
> 를
i l
▁ 룰
▁ 즈
곡 을
과 ,
교 회
길 에
동 물
되 던
라 ,
미 르
반 대
받 는다.

방 어
블 릿
사 법
셨 어요.

시 장은
였 고
올 린
와 이
이 카
자 ’
작 년
장 비
진 과
타 는
타 이
합 병
헌 법
희 망
▁이 었다.

▁대 를
▁사 로
▁사 장의
▁지 리
▁가 요
▁정 동
▁시 신
▁시 월
▁“ 외
▁나 이에
▁‘ 선
▁인 원
▁인 정을
▁주 어
▁제 철
▁말 아
▁오 천
▁오 페라
▁여 부에
▁의 도가
▁3 ~4
▁소 스를
▁연 상
▁연 세
▁유 효
▁개 정을
▁' 공
▁원 에서
▁방 학
▁신 부
▁우리 를
▁올 바른
▁도 약
▁재 ·보
▁실 적이
▁장 남
▁학 과
▁감 청
▁게 재
▁좋 고

▁응 용
▁응 ?

▁참 배
▁물 건을
▁새 겨
▁음 식이
▁외 곽
▁배 고
▁민 사
▁금 리를
▁8 4
▁8 8
▁드 폰
▁의원 ,
▁변 동
▁변 수
▁갖 다가
▁화 를
▁목 적이
▁사업 자
▁그거 

▁어떻게 

▁처음 엔
▁결과 로
▁선수 들을
▁코 치
▁요구 가
▁선생님 과
▁진행 하는
▁떨어 지
▁떨어 지고
▁정상 화
▁전문가 들이
▁방식 의
▁나가 고
▁놀 러
▁제공 하고
▁끌 었다.

▁써 서
▁선택 한
▁번째 는
방송 >
▁시스템 이
▁바람 이
▁선언 한
▁대기업 의
▁대변 인
▁G M
▁“그 동안
▁몰라 

▁지시 했다.

▁할머니 가
▁화장 실
▁긍 까
어요. ”

▁받아들 일
▁챔피언 스리그
▁주문 했다.

▁샌 드
▁나타나 고
▁에스케이 텔레콤
▁터뜨 렸다.

▁알겠 습니다.
▁일각 에서는
▁가난 한
▁멘 토
▁가라 앉
▁불확 실
! 

- 중
1 일
· 가
▁ 래
▁ 링
경 의
계 좌
관 련
국 회의
권 력
금 의
금 리를
네 요?

들 .

듯 이

레 스타
법 안
별 한
슬 러
았 고,
인 한
임 이
점 검
접 촉
케 어
쿠 버
탱 크
함 과
했 으면
회 계
훈 은
▁이 순
▁이 다.

▁그 른
▁대 가로
▁사 연
▁어 두
▁어 허
▁가 릭
▁전 술
▁전 제로
▁정 통
▁2 단계
▁보 름
▁보 태
▁보 도가
▁거 라
▁“ 만
▁“ 진
▁자 는
▁다 는
▁인 물이
▁부 부가
▁" 고
▁서 대문
▁생 겼다.

▁김 세
▁김 아무개
▁원 형
▁세 입
▁그런 가
▁바 가
▁당 이
▁4 %
▁재 배
▁5 명
▁계 절
▁건 가
▁건 보
▁건 전
▁노 숙
▁스 케
▁회 수
▁달 했다.

▁맞 어
▁맞 을
▁배 달
▁명 에
▁총 무
▁양 이
▁간 섭
▁의원 들의
▁투 자가
▁201 2
▁취 지로
▁화 면
▁돼 서

▁규 탄
▁책 의
▁정치 가
▁이어 갔다.

▁복 수
▁많은 데
▁끝 날
▁않는 다”며
▁계속 

▁놓 인
▁이거 

▁트 레이
▁여기 저기
▁국제 적
▁금융 회사
▁현대 건설
▁참여 하고
▁피해 자가
▁결정 적
▁자기 의
▁브 로
(3 1
(3 8
▁투자 자
▁영화 의
▁소비 자들의
▁올라 온
사업 에
▁출신 이
▁199 2년
▁예산 은
▁해외 에서
▁판매 가
▁플 라스
▁이뤄 졌다.

▁프로그램 이
▁24 시간
▁격 차가
▁인터넷 을
▁조선 일보
▁낙 관
▁비교 하면
▁욕 을
▁0. 3
▁반발 했다.

▁본격 화
▁누구 도
▁들었 습니다.

▁말씀드 리
▁물어 봤
▁고추 장
▁김치 찌개
▁추정 된다.

▁걷 는
▁재밌 는
▁지배 구조
▁연락 이
▁누리 집
부( 재판장
PG A)
▁목소리 도
▁우울 증
▁성균 관
( 北
A E
~ 30
∼ 6
▁ ?
▁ v
▁ 튼
▁ 났다.

듯 

마 리
마 에
매 를
방 에서
사 

스 테
실 업
운 하
자 연
중 이
증 후
침 해
프 레
하 시면
▁이 산가족
▁하 자는
▁어 르신
▁가 결
▁“ 미국
▁나 눈
▁나 라는
▁일 찌감치
▁주 시고
하는 데

▁중 계
▁해 준
▁해 줄
▁공 적
▁부 러
▁오 렌
▁여 태
▁여 자가
▁여 부는
▁여 당이
▁않 습니까

▁없 으
▁의 정부
▁비 공
▁3 회
▁소 중한
▁연 근
▁연 기를
▁유 물
▁저 작
▁마 른
▁마 시고

▁교 장
▁김 선
▁김 형
▁방 에
▁무 더
▁그러 는데

▁4 조
▁결 선
▁박 용
▁차 분
▁차 세대
▁추 출
▁출 자
▁참 조
▁단 행
▁직 면
▁역 설
▁얘 는
▁처 분을
▁법 제
() 는
▁19 대
▁201 5
▁심 하게
▁함 유
▁치 안
▁취 업을
▁정치 학
▁버 리고
▁경제 에
▁날 은
▁대학 은
▁않는 다고
▁선수 들에게
▁백 지
▁사용 해
▁천 천히
▁선생님 ?

▁결정 한
▁떠 났다.

▁갔 다.

▁탈 퇴
▁얼마 든지
▁나타 날
▁전국 에서
▁새누리당 의
▁영향 으로
▁인정 해
▁어렵 다”고
▁성공 적으로
▁예상 했다.

▁확대 할
▁플 로
▁유럽 의
▁공격 수
▁이러 면서
▁언니 는
▁도입 한
km 를
▁대신 에
▁재판 을
▁알아 야
▁낙 지
▁가까 워
▁많아 요.

▁지속 적인
▁종합 하면,
▁촉 진
▁근무 하는
▁단계 적으로
▁겨울 올림픽
▁지키 고
▁지키 지
▁넓 혀
▁이곳 에
▁일어나 는
▁나누 는
▁묶 어
▁무상 급식
▁O ECD
▁스트레 스를
▁6·25 전쟁
( 미국
- 6
P C
o l
· 노
▁ X
▁ 찌개
간 접
개 ,
경 남
계 에서는
공 제
국 방
근 무
나 고
뉴 얼
다 오
닷 컴
당 시
되 도록
들 만
라 우드
론 은
루 를
리 안
목 이
미 의
방 향
보 조
비 율
사 용
석 에서
성 ·
수 입
여 름
연 료
영 이
와 서
왔 던
우 면
으 려고
이 즈
이 니까

일 수록
재 료
적 한
전 철
조 약
처 가
티 를
▁이 한
▁아 산
▁하 러
▁전 경
▁기 가
▁‘ 도
▁‘ 모
▁‘ 친
▁일 부는
▁주 전
▁중 대한
▁내 외
▁부 결
▁예 민
▁예 쁜
▁오 승
▁위 법
▁고 립
▁고 심
▁고 조
▁상 가
▁조 세
▁관 건
니까 요.

▁3 번
▁소 주
▁되 는데요.

▁" 수
▁뭐 랄
▁김 인
▁김 씨가
▁신 고를
▁구 리
▁구 실을
▁당 을
▁불 려
▁재 보
▁5 대
▁성 분이
▁영 혼
▁후 유
▁노 르
▁박 병
▁박 성
▁두 는
▁했 다”며
▁생각 한다”고
▁확 립
▁정부 도
▁문제 점을
▁민 원
▁것이 라
▁그렇 다
▁가지 는
▁금 품
▁양 은
▁걸 었다.

▁걸 렸다.

▁간 다고
▁피 할
▁9 9
▁9 회
▁줄 기
▁씨 제이
거든 요.
▁아이 템
▁세계 에
▁야 

▁교수 ,
▁절 차가
▁승 점
▁얘기 해
▁광 주시
▁은 폐
▁됐 다고
▁눈 으로
▁15 %
▁사건 과
▁평가 하는
▁저희 가

▁년 을
▁용 역
▁돌아 가는
▁급 하게
▁18 0
▁영화 가
▁위원 회
▁거예 요.
▁패 널
▁정상 적인
▁방송 에
업체 에
기관 에
▁기대 가
▁만큼 ,
▁우리나라 가
▁석 사
▁살아 야
▁익 히
▁녹 취
▁이사 장이
▁티 베
▁착 각
▁끊 이지
▁잇 단
▁198 8년
▁졸업 생
▁국무 부
▁약속 했다.

▁사람들은 

▁까 다
▁출전 해
▁전자 랜드
▁부회 장이
▁해석 이
▁빠져 나
▁부문 에서
▁명예 훼손
▁인생 을
▁회원 국
▁들어간 다.

-1 로
▁“내 년
▁아닐 까
▁크리스 마
▁진상 조사
나이 티
▁피의 자
▁꿈꾸 는
▁쇼트 트랙
▁삼성물 산
▁손쉽 게
" 라는
- 7
8 3
▁ 끔
▁ 릴
감 하게
걸 음
구 요.
규 제
기 부
단 ,
담 보
라 야
렉 스
렬 한
물 가
배 구
사 이트
에 요

였 을
이 면서
작 품
직 에
질 의
청 사
캠 퍼스
파 리
했 었다.

회 관
▁이 가
▁이 견
▁이 시
▁대 조
▁지 는
▁지 을
▁하 니
▁어 때
▁가 벼
▁정 황
▁2 명이
▁2 년간
▁기 구
▁기 를
▁기 자가
▁“ 동
▁“ 양
▁일 종
▁인 삼
▁등 

▁제 압
▁제 치고
▁예 컨
▁우 라
▁우 크라이나
▁않 다고
▁고 가
▁만 기
▁소 고기
▁유 가
▁유 인
▁미 흡
▁되 자
▁되 풀이
▁" 가
▁" 일
▁생 선
▁마 트
▁신 축
▁동 행
▁당 황
▁불 렀
▁재 임
▁실 세
▁성 분
▁장 편
▁후 회
▁박 종
▁스 토리
▁차 려
▁지금 .

▁생각 보다
▁못 한다.

▁열 두
▁열 람
▁하는 지
▁서울 은
▁배 포
▁밝 은
▁매 진
▁7 7
▁데 

▁사실 이다.

▁판 교
▁이상 인
▁활 약을
▁돌 연
▁화 두
▁이후 로
▁식 약
▁식 사를
▁싶 다"고
▁리 엄
▁충 전
▁카 지노
▁연구 가
▁연구 소
▁학교 폭력
▁내용 이다.

▁조사 할
▁거기 다가
▁커 다란
▁요구 할
▁대상 은
교육 감
▁조금 

▁결정 에
▁100 m
▁확인 했다.

▁어려 움이
▁경쟁 력이
▁올라 갈
▁다양 하게
▁나라 에
▁언론 들은
▁평균 자책
▁않아 ?

▁드러 났
▁역사 상
달러 를
▁변호 인
▁사고 로
▁방식 이다.

▁같아 

▁놀 랐
km 2
▁익 은
▁찍 고
들에 겐
훈련 을
▁듯 하다.

▁공정 위는
▁공급 하는
▁수입 을
▁등장 하는
▁건축 가
▁넣으 시
▁근거 가
▁두산 은
▁혈 액
▁자격 이
▁그만 두
▁프로젝 트를
▁실험 을
▁앉아 서
▁폴 크스바겐
▁도발 을
▁name2 이
▁정의 당
▁잊 지
▁사무총 장은
▁작성 한
사무 소
▁시· 도
▁벤처 기업
▁기자간담 회에서
▁프로파일 러
( 비
( 지
> 을
O C
~ 10
▁ Y
▁ 셀
광 장
글 라
금 과
께 서는
낸 셜
됐 다”며
되 어야
로 지
르 시
마 가
만 .

바 운드
빨 리
설 수
열 을
였 다”고
인 력
제 도를
중 심
지 마는

초 등학교
추 천
출 산
티 스트
프 는
해 준
▁이 삼
▁그 와
▁그 랜드
▁대 접
▁지 도를
▁지 위를
▁한 발
▁가 졌
▁가 지만
▁보 람
▁다 뤄
▁일 기
▁해 병
▁해 ?

▁내 시
▁내 주
▁공 소
▁공 중
▁부 어
▁때 도

▁오 찬
▁없 다.
▁고 집
▁비 로
▁3 명이
▁소 식이
▁유 감
▁유 나이티
▁미 루
▁교 사는
▁많 기
▁' 가
▁' 나
▁요 인
▁방 역
▁무 의
▁통 치
▁당 국의
▁도 우
▁5 억
▁5 개월
▁실 어
▁장 교
▁회 전
▁감 지
▁좋 습니다.

▁추 기
▁생각 한다.

▁입 단
▁6 00
▁과 반
▁달 라는
▁맞 물
▁물 고
▁새 누리
▁직 원은
하기 에
▁매 니
▁북 부
▁7 8
▁에 이스
▁법 이
▁법 원의
▁합 계
() '
▁19 1
▁경우 에도
▁심 해
▁늘 리고
▁화 백
▁목 을
▁크 기의
▁책 정
▁어떻 습니까?

▁종 이
▁속 이
▁사업 으로
▁교수 를
▁쓰 기
▁기업 과
▁기업 들은
▁군 은
▁위한 

▁순 식
▁계속 해서
▁사건 으로
▁빠 르
▁로 열
▁육 박
▁축 구를
▁탄 압
▁맡 겨
▁범 행을
▁분석 이다.

▁보여 줬
▁찾아 볼
(3 7
▁선거 운동
▁왔 는데

▁있으 신
▁A P
▁않을 까

▁싸 게
▁침 략
▁어렵 다고
▁어디 까지
▁활동 이
▁힘들 게
▁페 루
▁이뤄 지는
▁있는데 .

▁숨 졌다.

개발 기구
▁지나 가
▁관리 하는
죠. ”

▁나서 고
▁분위 기는
▁제기 됐다.

▁엄청 나게
▁저~ 

▁내부 의
▁끊 어
▁선정 된
▁쉬 는
▁고용 노동
스크 포
노동 조합
▁망 가
▁그룹 의
▁가정 의
▁하셨 는데

▁슬 라이
▁방안 에
▁국토 부
▁늘어 났
▁자녀 를
▁파악 하고
▁넣으 셔도
▁김영 삼
▁마이 클
▁하이 닉
▁철저 하게
▁궁금 한
▁U S
▁자동 으로
하는데 ,
▁“아 직
▁“북한 이
▁실종 자
▁쫓 겨
▁공무 원이
▁누군 가
▁서초 구
▁무리 한
▁최소한 의
교과 서
▁잠수 함
▁급격 히
▁문화체육관광 부
▁톡 톡
( www.
L S
T X
· 하
” 이라는
▁ 쳤다.

강 도
군 요
는 지는
다 섯
동 ,
되 거나
디 는
라 를
메 리카
미 나
밀 히
범 이
변 을
보 단
분 양
사 카
석 의
소 기업
연 의
위 성
제 ’
조 에
처 는
총 장
코 패
타 오
터 테인
퇴 근
학 술
▁있 습니다.
▁대 입
▁대 주주
▁아 기
▁하 거든요.

▁한 ·일
▁가 령
▁가 혹
▁정 해진
▁기 밀
▁“ 2
▁“ 구
▁자 기를
▁자 랑스
▁일 인
▁중 복
▁공 채
▁안 희정
▁우 회
▁고 기가
▁상 조
▁3 점
▁유 예
▁" 자
▁서 식
▁동 상
▁동 향
▁진 로
▁받 으며
▁도 저히
▁재 료를
▁사람 에
▁건 물이
▁남 기고
▁했 으나
▁달 렸다.

▁배 울
▁7 %
▁7 4
▁프 라
▁초 고
▁정도 였다.

▁201 0
▁논 술
▁타 협
▁북한 에서
▁교육 청
▁하나 하나
▁산 은
▁독 감
▁그거 에
▁경제 성장
▁얘기 하
하면서 ,
▁경찰 과
▁삼성 그룹
▁핵 무기
▁측 의
▁국회 를
▁아닌 가

▁주장 에
▁운영 을
▁와 .

센터 가
▁직접 적인
(3 5
▁16 개
▁투자 하는
▁비판 하는
▁왔 을
▁외교 안보
▁뉴 질랜드
▁나라 에서
▁희 토
▁판매 하는
▁읽 은
▁판단 이
▁듣 기
하자 ,
▁우리나라 에서
▁석 탄
▁업체 들이
▁시절 에
▁펼 치고
▁기억 을
▁매출 액
▁정신 이
▁1월 부터
▁198 7년
▁옷 이
▁헤 이
▁이건 희
▁약속 한
▁압박 을
▁60 대
▁잃 어버
▁노조 는
▁원칙 에
▁분양 가
(19 9
▁개념 을
영화 제
▁일으 킨
▁“국 내
▁“국 정
▁왼 손
▁좁 아
▁긍정 적
▁갤 러리
▁어울 리는
▁최고위원 은
▁쫓 아
▁대목 이다.

▁브리핑 에서
번홀 (파
▁할아버 지
▁정몽 준
▁자유한국 당
▁플라스 틱
" ;
. "

1 억
7 9
N A
] ‘
i g
· 한
▁ 킹
▁ 폰
계 약을
공 격
관 왕
너 무
년 대
레 반
련 의
론 에
롭 고
면 접
무 가
바 지
방 해
버 렸
소 개
수 단
수 리
시 도
신 청
언 을
업 계의
의 )
일 ,
재 의
지 엄
키 아
페 이스
합 리
화 될
▁있 거든요

▁대 사는
▁대 안을
▁수 제
▁수 퍼
▁1 번
▁1 .5
▁정 답
▁시 공
▁기 득
▁거 냐
▁거 였
▁“ 모
▁“ 불
▁“ 실
▁중 수
▁해 안
▁국 장
▁공 군
▁상 속
▁상 을
▁상 향
▁조 항을
▁관 세
▁소 치
▁연 평균
▁유 망
▁미 소
▁되 나요?

▁생 리
▁개 원
▁요 양
▁신 사
▁신 작
▁무 지
▁동 서
▁구 로
▁구 직
▁우리 

▁강 동
▁강 호
▁사람 으로
▁알 레
▁두 바이
▁하는 게
▁6 2
▁6 9
▁출 장
▁달 을
▁단 원
▁배 임
▁뒤 진
▁민 노총
▁7 2
▁얘 긴
▁포 도
▁대표 로
▁합 참
▁있어 ,
▁먹 어도
▁경우 엔
▁심 포
▁운 항
▁임 상
▁너무 

▁취 지의
▁넘 은
▁세계 가
▁종 업
▁지역 이
▁리 우
▁있었 기
▁지원 한다.

▁업 그
▁국내 총생산
▁연구 위원은
주의 가
▁접 목
이었 어요.

▁지적 이다.

▁육 아
▁주장 한다.

▁용 어
▁추진 

▁보여 줄
▁찾아 야
▁기술 은
▁수준 인
▁터 진
▁외교 통상
▁둘 은
▁위원 장의
사회 적
업체 의
▁해결 해야
▁페 이
▁혐의 가
▁아까 도
▁주변 의
▁주변 에서
▁레 몬
▁있다 며
▁미래 가
(6 0
▁차지 하고
▁설치 해
▁벗 겨
▁교과 서를
▁즐 기
▁되겠 다
▁제외 하고
▁하겠 다고
▁하겠 다”고
▁쉬 워
▁제출 했다.

▁설립 된
▁설립 한
19 9
▁예술 의
▁아빠 는
▁궁 극
▁챙 긴
▁고위 급
▁제안 한
▁전쟁 을
▁에스 엔
▁조건 으로
본부 장은
▁바이 러
▁끝나 면
▁저녁 에
건설 은
▁한화 는
▁디자인 을
▁입학 사정
▁명의 로
▁센 카쿠
▁펴 낸
▁획 기
▁복잡 한
▁벨 기에
▁사령 탑
▁미드필 더
L G
· 스
· 조
’ 며
▁ 혁
겠 습니다.
계 층
구 ,
기 소
롭 지
름 이
막 이
발 표
번 역
벨 트
성 으로
셨 습니다.

소 리를
열 이
였 다는
오 지
우 기
워 했다.

의 약품
진 에
청 원
팔 십
현 장
▁이 대로
▁있 다”는
▁어 학
▁전 적으로
▁보 류
▁보 신
▁보 디아
▁시 점에
▁“ 하
▁“ 정치
▁“ 나는
▁자 사
▁자 의
▁‘ 국가
▁일 정한
▁주 제를
▁내 셔널
▁공 립
▁공 청
▁공 사가
▁여 건
▁않 으면서
▁상 대를
▁비 서관
지만 은

▁소 중
▁유 용
▁유 재
▁유 포
▁최 장
▁마 인
▁' 인
는데 ?

▁세 상이
▁무 대에서
▁분 을
▁바 짝
▁당 신이
▁4 명
▁반 려
▁재 원
▁5 조
▁5 0년
▁성 취
▁사람 

▁차 이를
▁게 이
▁입 는
▁입 수
▁과 제로
▁맞 춘
▁단 위로
▁집 착
▁앞 뒤
▁명 은
▁너 희
▁7 6
▁법 원은
▁파 격
() 으로
▁초 부터
▁의원 에게
▁본 보
▁점 령
▁줄 줄이
▁임 진
▁이상 은
▁치 르
▁손 잡고
▁아이 들에게
▁야 간
▁야 생
▁싶 을
▁올해 의
▁리 얼
▁12 개
회의 는
▁광 저우
▁허 리
▁< 아
▁학교 의
▁순 천
▁태 블릿
▁거기 다
▁지적 에
▁않았 다는
▁진행 한다.

▁현대 중공업
대표 팀
▁라 운드
▁공개 하지
▁찾아 온
▁13 개
(3 9
▁외교 적
▁압 축
▁언론 의
▁기대 한다”고
▁분야 를
▁시즌 을
▁페 스티벌
▁생산 하는
▁경영 권
▁고려 하면
▁살아 가는
▁만든 다.

▁인터넷 에
▁적용 해
인가 요?

▁엘 리트
▁내부 에서
▁착 용
▁틀 린
▁총리 와
▁소득 세
▁반영 해
▁설립 을
▁혼자 서
▁변화 에
▁느끼 게
▁의무 를
▁흥 분
▁보기 에는
▁맺 었다.

▁덜 어
▁그치 .

▁최저 임
▁불편 한
▁희생 자
▁균 형을
▁공직 자
▁도착 한
(이 상
▁물러 나
▁“내 가
▁예예 

▁보시 면

▁임대 주택
▁떠올 랐다.

▁멈 춰
▁유력 한
(E U
▁가로 막
▁떼 어
▁질병 관리
▁공산 당
▁놀라 운
▁동일 한
▁본부 장은
▁텔레 비전
▁대우조선 해양
▁아저 씨
십시오 .

▁아시아나 항공
▁사로 잡
" (
" 이라는
( 中
) 까지
5 6
5 억
D A
s s
· 동
· 의
▁ ...
곡 동
곳 으로
공 천
금 자리
네 스코
년 도
니 즘
람 회
로 .

메 시
미 리트
브 이
비 리
새 누리당
서 부터
수 급
수 첩
스 레
습 니
시 위
영 수
워 드
원 전
육 십
으 루
일 치
임 스
장 관이
접 한
조 사가
지 부
탄 소
티 아
편 에
합 을
홀 에서
▁이 력
▁지 능
▁하 더라도

▁한 ·중
▁1 일부터
▁보 면서

▁보 십니까?

▁거 고.

▁“ 6
▁“ 예
▁‘ 더
▁‘ 박
▁‘ 화
▁인 사가
▁해 적
▁해 줬
▁국 사
▁말 했
▁공 감을
▁부 임
▁여 전
▁없 으니까
▁고 런
▁상 위권
▁조 현
▁의 학
▁3 인
▁유 적
▁서 거
▁최 재
▁최 태
▁' 1
▁' 고
▁' 박
▁신 념
▁동 화
▁구 석
▁들 지
▁불 렀다.

▁불 공정
▁반 납
▁실 정
▁후 계
▁노 선을
▁박 탈
▁스 님이
▁두 께
▁때문 이라는
▁출 생
▁과 자
▁과 태
▁과 장은
▁적 시
▁매 뉴얼
▁미국 ,
▁총 재는
▁금 요일
▁200 만
▁막 걸
▁양 적
▁대표 ,
▁중국 ,
▁간 사
() 에서
▁8 6
▁8 회
▁의원 (
▁본 다”고
▁일본 군
이라 든지

▁지난해 부터
▁치 유
▁돌 며
▁늘 면서
▁하나 다.

▁목 록
▁산 책
▁산 학
▁증 인으로
▁크 루
▁크 다는
▁세계 선수권
▁체 제로
▁환 승
▁이어 진다.

▁있었 고,
▁얘기 한
▁얘기 하고
만원 의
▁몰 고
▁동안 

▁감독 과
▁선생님 들
▁선생님 의
▁지적 한다.

▁베 네
센터 에
▁마음 대로
▁그랬 을
▁급 락
▁갔 었
▁내년 도
▁강조 하고
사회 가
▁패 턴
▁있으 나
▁25 0
▁정상 에
시키 지
▁싸 이
▁특별 법
▁귀 가
▁드러 낸
▁들어가 야
▁판단 한
▁삶 에
▁있다 가

▁내놓 을
▁뭔 지
▁제기 되고
▁독일 의
▁펼 쳤다.

▁러시아 의
▁결혼 식
▁선정 됐다.

▁지금까지 는
통신 은
▁수석 은
▁LG 전자
▁히 로
▁전환 을
▁최소 화
▁이하 로
▁바꾸 고
▁60 여
▁소통 이
▁항공 기
▁무기 력
▁섬 유
▁부드 러운
▁대단 한
바이 오
▁연설 에서
▁펼쳐 진다.

▁시키 는
▁정체 성을
▁고양 시
▁끄 는
▁유사 한
·경 북
▁자치 단체
▁아니에 요?

▁설문 조사
▁부적 절
▁한양 대
▁보다는 

▁불출 마
▁자유무역협정 (F
자(C EO
" ...
3 9
4 6
e l
▁ 뒀
▁ 웨이
갑 니다.

객 이
겠 지

겠 지.

경 기를
고 루
는 가.

르 르
밀 하게
석 은
싸 움
아 동
았 을
에 미리트
여 

연 은
영 어
으 면서

인 들을
주 에서
차 관
차 림
크 가
타 점
터 널
평 )
포 먼
학 력
해 요

▁이 쁘
▁아 님
▁수 녀
▁1 단계
▁가 면

▁가 리지
▁것 들은
▁전 도
▁전 지
▁2 개월
▁시 켰
▁기 피
▁거 꾸로
▁“ 민
▁“ 북
▁“ 서울
▁“ 다른
▁주 저
▁중 부
▁중 장기
▁말 라고
▁공 백
▁부 유
▁예 ~
▁오 만
▁위 장
▁고 백
▁조 윤
▁선 사
▁비 춰
▁비 공개
▁3 분
▁3 00만
▁3 .3
▁만 두
▁소 지
▁소 문이
▁유 산
▁유 흥
▁미 치
▁" 나
▁" 중국
▁최 후
▁개 그
▁많 다고
▁' 신
▁원 가
▁요 번
▁분 량의
▁그러 니
▁강 제로
▁4 0년
▁4 년간
▁재 해
▁재 확인
▁실 린
▁계 셨
▁장 점
▁한국 사
▁학 력
▁건 네
▁스 무
▁두 꺼
▁입 지
▁정부 ,
▁단 식
▁직 원의
▁밝 힐
▁삼 는
▁명 단에
▁명 령을
▁200 9
▁파 라
▁합 성
▁19 0
▁높 이고
▁관계 에
▁치 를
▁취 직
▁넣 지
▁목 사
▁사회 는
▁친 한
▁넘 지
▁필요 로
▁벌 일
▁속 에서

▁표 절
▁버 터
▁국가 주석
▁12 시
▁편 향
▁11 개
▁날 카
▁날 

▁허 가를
▁내용 에
▁순 방
▁태 국
▁태 평양
주의 의
▁조사 했다.

▁거기 에서
▁농 산물
▁커 플
이었 을
▁면 이
▁마음 은
▁팔 레스타
대표 는
느냐 에
▁머 릿
▁올라 가는
▁만나 고
▁키 로
▁패 키
▁상당 의
▁보도 자료를
▁언론 이
▁자유 로운
(4 4
▁전문가 들의
▁합의 에
▁제품 이
▁확대 해
▁붙 인
▁변호 사를
▁내려 놓
▁제공 할
▁달라 질
▁레 알
▁깨 고
▁깨 닫
▁꾸 미
▁낙 태
▁견 해
▁반면 에
▁제기 했다.

▁국방 장관
▁발견 됐다.

▁사례 는
▁원래 는
▁위험 을
▁가능성 에
▁높아 졌다.

▁가져 야
m2 (약
▁대책 이
▁캠 퍼스
▁납 득
▁언어 학
▁확정 된
▁투표 를
▁브랜드 를
▁쏟아 졌다.

▁선보 인다.

▁사퇴 를
▁뮤 직
▁이재 명
▁배경 으로
▁돕 기
▁꼬 집
▁사무총 장
▁“우 리가
▁긍정 적으로
▁끈 다.

▁<한겨레> 와
▁배제 할
▁르 노
▁신속 하게
습니까 ?
▁부작 용
▁주한 미
▁자민 당
공화 국
▁아시안 컵
▁(0 2)
▁서서 히
▁트렌 드
▁동계 올림픽
▁중산 층
▁동성 애
▁최고경영 자(CEO
선생 님
소시 엄
설수 설
▁순식 간에
( 스
> 에서
· 자
· 경제
▁ 템
▁ 에서
갑 을
값 을
갔 다
거 

겠 다”며
교 섭
그 만
드 라마
래 .

래 도

럽 게
려 면

로 만
모 직
모 비스
미 디
버 랜드
보 니까
불 을
상 수
서 에서
선 택
셀 로
신 도시
았 다고
워 야
월 세
자 다.

재 생
정 으로
참 모
창 업
처 장은
총 회
콘 텐츠
투 갈
트 ,
틀 랜드
퍼 런
프 란
해 줄
현 의
화 ’
회 사가
▁이 광
▁이 아무개
▁사 장을
▁한 결
▁한 식
▁한 다”는
▁수 분이
▁어 휘
▁가 면은

▁전 화가
▁“ 도
▁“ 200
▁자 를
▁‘ 5
▁‘ 바
▁‘ 서울
▁경 희
▁국 적
▁부 부는
▁때 에는
▁오 브
▁우 대
▁없 다”는
▁고 사
▁상 주
▁선 정한
▁3 시간
▁유 료
▁되 어야
▁" 미국
▁마 셨
▁많 고

▁세 트
▁세 우고
▁무 한
▁분 들은

▁불 신
▁성 북
▁장 벽
▁장 식
▁장 치
▁장 점이
▁후 손
▁건 지

▁노 원
▁했 다가
▁했 어요

▁달 린
▁달 한다.

▁달 랐다.

▁적 정
▁단 말
▁배 후
▁걸 맞
▁행 사는
▁간 편
▁번 역을
▁초 상
▁9 7
면은 요

▁화 이트
▁산 에
▁넘 을
▁넘 겼다.

▁증 세
▁체 계를
▁정치 자금
▁정치 권의
▁협 정
▁지역 으로
▁경제 정책
▁리 베이트
▁충 당
▁자신 에게
▁잡 기
▁말씀 해
주의 적
▁홍 대
▁길 로
▁평가 다.

▁난 다.

▁로 마
▁용 납
▁진행 된다.

▁이미 지가
▁확인 하는
▁라 면
▁골 퍼
▁골 고루
▁찾아 내
▁낮 게
▁봐 서
▁선거 구
▁왔 는데
▁약간 의
▁친구 들과
▁죽 어
▁인사 들이
▁name 6
▁봤 는데

▁199 1년
▁일반 적으로
▁얻 기
▁헌 신
▁성공 을
▁퍼 포먼
▁환경 에
▁도입 된
▁활용 하는
▁유지 하는
▁롯데 마트
▁녹 아
▁현실 이
▁꿈 이
▁끓 어
▁기억 에
▁상승 세를
▁틀 리
▁웃 음
▁가져 올
▁대화 록
▁줄어 드는
▁한나라 당이
▁남아 있
▁국무 총
▁대법 원은
▁작업 에
▁등장 한
▁멀 티
▁쏟아 져
▁증거 가
기록 을
서비스 (SNS
티브 이
▁튀 겨
▁이재 오
▁아내 가
▁늘어난 다.

▁이르 렀다.

▁빛 을
▁연습 을
▁좁 은
▁장학 금
▁스님 은
-2 로
▁사립 학교
호텔 에서
▁부사 장은
▁모범 생
▁마포 구
▁하도 급
▁금감 원
▁공론 화
▁바랍 니다.

천안 함
( 오
( 친
4 3
4 9
5 9
> 이
I C
o f
o t
· 서
· 최
▁ 촌
가 에서
간 이
거 는
고 에서
골 로
공 직
교 류
구 십
다 '
동 네
라 인을
라 비아
렸 다고
루 션
바 논
박 이
부 족
브 랜드
설 이
소 재
승 점
시 에서
신 저
씨 ,
았 지만
양 의
언 니
위 치
쟁 이
전 ,
정 ,
정 일
주 차
중 계
지 니어
칼 텍
쿠 르
판 에서
했 고

형 사
형 에
회 와
회 관에서
▁이 규
▁이 룰
▁이 겼다.

▁사 막
▁지 식을
▁하 지

▁한 겨레
▁수 록
▁수 중
▁수 혜
▁수 위를
▁가 다
▁전 무
▁보 라
▁시 국
▁시 카
▁거 리로
▁“ 추
▁나 토
▁자 립
▁‘ 민
▁일 일
▁일 환
▁인 연이
▁주 된
▁주 축
▁주 셔야
▁해 볼
▁말 해서
▁공 주
▁부 당한
▁오 토
▁고 리
▁고 유
▁상 용
▁선 물을
▁소 매
▁미 용
▁" 미
▁서 재
▁문 자를
▁김 준
▁' 오
▁원 인은
▁아니 죠.

▁그러 시
▁발 령
▁불 허
▁불 황
▁불 고기
▁반 대를
▁재 가
▁재 학
▁재 학생
▁계 시는
▁건 국대
▁노 란
▁좀 처럼
▁남 미
▁스 쿨
▁회 장,
▁했 더니
▁추 첨
▁6 1
▁과 다
▁맞 습니다

▁집 은
▁문제 

▁청 양
▁청 취
▁것이 고,
▁금 품을
▁걸 음
▁행 보를
▁피 가
▁의원 들
▁있어 요?

▁하고 요.

▁관계 는
▁이상 하게
▁타 당
▁화 상
▁화 제가
▁목 포
▁친 이
▁친 일
▁아이 는
▁넘 는다.

▁다음 에는
▁필요 하다
▁시작 한다.

▁정치 의
▁협 상이
▁협 상에
▁교수 님이
▁힘 으로
▁경제 는
▁군 산
▁민주 노동
▁학생 과
만원 으로
▁연구 원
▁나오 기
▁됐 으면
▁사이 다
주의 에
▁월 스트리트
▁천 주교
▁선생님 은
▁받아 서
▁맞아 요

▁정책 은
▁면 역
▁마음 의
▁잠 정
▁확인 된
느냐 "고
느냐 ”며
(3 6
▁압 력을
▁소비 자의
▁시민 의
▁몸 무
▁키 가
(4 0
(4 8
▁삶 이
▁구조 조
▁업체 에
▁업체 들은
▁꾸 며
▁넘어 섰다.

▁나서 야
▁확보 를
▁내놓 지
▁비슷 하게
▁펼 친
▁펼 치는
▁선발 한다.

▁복지 부
▁이십 일
▁땅 에
▁198 0년
▁하겠 습니다

▁종합 적으로
▁흐 르는
▁뜨 겁
▁반발 이
▁보호 를
▁선언 을
▁싫 은
한다 ’는
▁“그 런
▁조건 이
▁출연 해
▁든 다.

▁커피 를
▁싱 크
▁집행 유예
▁심리 적
▁가슴 이
▁낳 은
▁전반 에
▁라이 벌
▁머물 고
▁경고 했다.

▁흑 인
(이 하
▁바닥 에
▁보조 금
▁일각 에선
▁고등 학생
▁뇌물 죄
▁최우 선
▁편안 하게
▁응응 .

▁헌법재판 소
▁추세 다.

▁갤럭시 S
▁이화 여대
▁오스트 리아
▁나옵 니다.

▁다큐멘 터리
▁비로 소
5 3
G A
· 한국
’ .

▁ 율
▁ 첩
강 을
계 선
고 시
곳 은
년 의
놀 이
데 스
데 이터
동 과
라 든지

맞 춤
배 로
부 도
불 이
상 금
상 도
설 계
성 적
슨 은
안 의
야 당
어 요?
업 이
으 려는
인 들에게
자 나
자 문
절 차
정 권
종 은
중 근
지 고,
침 을
카 이
타 이어
팅 을
파 를
프 라이
해 달라
했 다면
행 위를
▁이 만
▁이 우
▁대 피
▁대 화가
▁아 들은
으로 만
▁사 귀
▁지 붕
▁하 잖아요.

▁1 대
▁가 셨
▁전 액
▁2 사
▁시 위가
▁기 금
▁“ 보
▁“ 청와대
▁자 세를
▁자 금이
▁인 자
▁주 먹
▁주 소
▁주 세요

▁경 인
00 명
▁부 합
▁여 유가
▁위 탁
▁고 의
▁의 약품
▁3 루
▁모 를
▁모 시고
▁연 내
▁연 동
▁유 네스코
▁저 널
▁저 번
▁뭐 야

▁최 상
▁마 구
▁교 차
▁김 이
▁세 울
▁무 선
▁통 학
▁통 계를
▁반 등
▁실 전
▁한국 으로
▁학 급
▁학 살
▁건 국
▁박 모
▁스 퍼드
▁차 림
▁감 싸
▁좋 다
▁생각 으로
▁할 부
▁물 량
▁외 화
▁청 원
▁7 명
▁양 도
() ,
▁먹 으면서
▁201 6
▁9 2
▁높 고
▁운 송
▁늘 렸다.

▁크 기
▁함께 

▁버 는
▁올해 로
▁복 구
가지 구
▁국가 에
▁승 무원
▁11 2
▁결과 다.

▁결과 적으로
▁순 이었다.

▁놓 는
▁삼성 화
▁중요 하다”고
▁트 럭
이었 다”고
▁육 상
▁주장 도
▁정책 과
▁않았 기
▁진행 될
▁탄 소
▁맡 게
▁급 식
▁상태 에서

▁방송 에서
▁답 이
▁전망 도
▁한번 

▁말이 죠

▁직원 들은
▁판단 했다.

▁나가 면
▁숨 어
▁지나 친
▁살아 있
▁적용 할
▁검토 할
▁시절 부터
▁신청 한
▁받았 다는
▁듯 했다.

▁됩 니까?

▁3월 부터
▁발언 에
▁상승 했다.

만큼 은
▁다르 지
▁트럼프 가
▁높아 질
▁당선 자는
▁1만 5000
▁지속 가능
▁블 라
▁칼 로
▁한나라당 은
▁전쟁 이
▁짓 고
▁달러 를
▁부인 했다.

.5% 로
▁재미 가
▁지키 기
▁사과 를
▁선고 했다.

▁불구 하고

▁아닌가 .

▁밝히 고
▁응답 자의
▁뚜 한
▁생기 면
▁혼란 을
▁밴 쿠버
▁절차 에
▁연말 까지
테이 너
소비 자
▁겹 쳐
▁저렴 한
▁중시 하는
▁풍부 한
▁드라이 버
▁사우 디
▁오세 훈
▁앞당 겨
▁활성 화를
▁아나 운
증후 군
2 의
> (A
? ”

I FA
] “
▁ 핑
공 학과
국 적
기 에는
난 을
담 한
대 우
동 으로
됐 지만,
드 린
라 도

렸 다는
메 르
비 결
사 스
서 민
세 

스 케이팅
억 6
역 은
열 에
용 산
우 승
이 야.

자 (
저 가
전 도
제 약
졌 어요.

조 한
좋 은
중 의
즈 를
지 기도
진 한
찰 을
체 는
티 오
티 즌
했 다.
혐 의
호 와
회 사의
희 롱
▁아 시는
으로 서의
▁사 모
▁한 숨
▁한 옥
▁수 송
▁가 상
▁가 

▁정 례
▁정 시
▁정 운
▁정 당이
▁2 연패
▁보 훈
▁기 쁘
▁“ 스
▁“ 영
▁주 사
▁주 인이
▁경 기는
▁말 하고
▁공 고
▁부 친
▁안 해
▁여 왕
▁위 대한
▁고 무
▁상 원
▁조 치가
▁서 버
▁마 무
▁마 스크
▁김 창
▁' 그
▁' 비
▁원 작
▁요 번에
▁4 회
▁반 군
▁반 정부
▁재 편
▁더 구나
▁더 이상
▁장 수
▁학 자
▁노 는
다" 라고
▁때문 으로
▁때문 이라고
▁열 리고
▁따 돌
▁달 고
▁달 리는
▁맞 어.

▁음 란
▁외 식
▁외 무성
▁잘 하고
하기 를
▁미국 으로
▁삼 국
▁너 가
▁살 던
▁살 리
▁살 피
▁양 심
▁법 과
▁때문에 ,
▁피 로
▁8 2
▁초 에
▁임 기를
▁변 수가
▁지난해 에는
▁담 가
습니다 마는

▁교육 과정
▁목 동
▁친 척
▁아이 의
▁필요 는
▁속 한
▁속 에서도
▁복 무
▁편 한
▁광 범위
▁< 비
▁부분 에서
▁순 례
▁선수 의
▁태 스크포
▁온 실
학교 를
▁농 어
▁선생님 

▁좋아 요

▁로 버트
▁국회 는
▁면 세점
▁결정 적인
▁일부 가
▁탄 력
▁맡 았던
▁비판 도
▁그때 부터
▁요즘 에는
▁뜻 한다.

▁죽 음을
▁극 심한
▁K CC
▁있으 니까.

▁않을 까.

▁name 8
▁인정 했다.

▁중심 에
▁의미 로
▁작품 이다.

▁페 어
▁없었 다”고
▁우리나라 에
▁있다 ’는
▁업체 는
▁롯데 는
▁여자 친구
▁표현 이
▁캐 머
▁내놓 는
▁선택 할
▁견 디
이에 요

▁요청 에
▁착 한
▁그럴 까요?

▁차례 로
m2 당
▁198 2년
▁고객 이
▁자료 에
▁M VP
▁수석 이
▁청소년 들이
니깐 요.

▁지급 하는
카드 를
▁장기 적으로
▁쿠 데
▁유치 원
▁수요 를
▁대중 교통
▁그치 

BC )
▁가슴 에
▁브라 운
발전 소
▁“박 근혜
▁예전 에는
▁일상 생활
▁우즈 베
▁안타까 운
▁양반 이
여자 오픈
▁조용 히
▁박태 환
▁텍 스트
▁불필 요한
▁오렌 지
▁예컨 대
개발기구 (O
( s
1 만
A A
E D
I E
e d
· 무
· 안보
▁ 론
▁ 엑
가 게
갈 비
공 급
과 세
구 르
구 성
금 속
던 데
등 한
러 는
름 을
물 과
방 안
방 지
병 은
봉 을
뿐 이다.

사 다.

상 

생 태
설 명
세 ,
스 쿠
시 ,
야 지
오 염
요 즘
위 도
전 부터
주 간
주 시면
지 하
진 ,
착 한
칠 십
쾌 한
터 는
테 르
토 지
프 의
하 를
행 사를
협 동조합
횡 설수설
▁이 혜
▁그 쳐
▁대 공
▁사 다
▁수 만
▁1 .
▁가 는데

▁정 하고
▁보 전
▁보 시는
▁시 술
▁시 인의
▁시 선을
▁시 니어
▁거 가
▁나 에게
▁‘ 4
▁‘ 광
▁‘ 양
▁‘ 장
▁주 가는
▁경 부
▁중 의
▁제 자
▁국 영
▁말 만
▁내 건
▁공 방
▁오 키
▁위 주의
▁위 기의
▁의 문을
▁의 문이
▁3 명의
▁소 감을
▁되 잖아요.

▁되 잖아.

▁생 명을
▁문 서
▁최 씨는
▁같 다”며
▁교 실
▁교 양
▁김 씨
▁신 앙
▁신 제품
▁무 겁
▁근 절
▁진 단을
▁불 꽃
▁불 평등
▁받 고

▁장 비를
▁이런 게
▁스 폰
▁회 피
▁감 사를
▁좋 죠.

▁입 구
▁입 당
▁단 어를
▁매 립
▁삼 고
▁총 회
▁가지 구

▁7 00
▁처 리가
▁법 안은
▁행 진을
▁피 하기
▁초 연
▁드 리는
▁먹 게
▁본 인은
▁후보 에게
▁국민 은
이라 서
▁치 르는
▁이날 도
▁손 이
▁돼 ?

▁목 적을
▁친 노
해야 ”

▁넘 치는
▁체 제가
▁환 수
▁[ 횡설수설
▁표 기
▁이어 가고
▁어떻게 든
▁경제 학
▁국가 에서
▁프로 축구
▁군 포
▁자신 감
▁질 의
▁선생 의
▁발표 

▁중요 성을
▁해야 지
시간 에
▁않았 다"고
▁않았 다”며
▁진행 한
▁진행 할
▁맡 는
▁확인 하고
▁십 만
▁왔 습니다.

▁국정 감사
▁기자 들에게
▁규모 다.

▁반대 하고
▁방송 은
▁먼저 

▁뛰 고
▁S BS
▁읽 을
▁퍼 져
▁생산 을
▁방식 은
▁삶 은
▁아마 추어
▁레 바논
▁통일 을
▁건설 을
▁클 리
▁넘어 선
▁중앙 정보
▁이야기 하는
기술 을
▁받았 다고
▁요리 비결
▁가입 한
▁옮 기
▁틀 을
▁싶은 데

▁반발 을
▁암 살
▁전달 했다.

▁컨 소시엄
▁잃 고
▁한다 ’는
▁기다 리는
▁쌓 여
▁대한민국 을
▁차별 화된
▁벗어나 지
지방 경찰청
▁콩 나물
▁애플 리
▁부드 러워
아버 지
▁묘 사
▁습 관
▁김종 인
▁띄 는
▁시원 한
·경 남
▁명확 한
▁무게 를
▁두려 워
▁내비 쳤다.

▁2020년 까지
▁IC BM
▁유럽연합 (EU
▁성추 행
▁며느 리
▁불이익 을
% 로
9 6
O U
a m
n t
o o
· 6
· 인
∼ 8
▁ 델
▁ 씩
강 원
공 립
교 를
나 들
놓 았다.

눈 에
더 스
독 일
독 한
동 

들 도

디 지털
라 "고
래 를
리 포
목 적
법 ,
보 지
분 쟁
블 루
사 실
석 유
성 장을
세 다.

센 티브
어 ?
연 소
원 장
으 면은

으 려면
전 선
젊 은
점 수
졌 습니다.

즈 의
증 으로
첨 단
체 에
캐 피
크 리트
킬 로
투 수
파 의
하 면은

홍 보
▁이 관
▁이 의
▁그 라운드
▁있 거든요?

▁아 티스트
▁사 죄
▁사 직
▁지 켰다.

▁하 려면
▁한 인
▁수 의
▁1 명이
▁가 평
▁2 번
▁보 충
▁보 기에
▁시 계
▁시 선
▁시 한
▁나 

▁네 에.

▁‘ 피
▁인 형
▁인 원이
▁주 둔
▁주 춤
▁중 에서

▁때 에
▁때 .

▁오 르고
▁위 기가
▁위 치를
▁비 린
▁3 명을
▁만 점
▁모 순
▁모 험
▁미 지수
▁미 나리
▁서 둘러
▁그래 ?
▁같 고
▁같 긴
▁마 신
▁김 관
▁김 효
▁김 치를
▁원 인으로
▁방 문을
▁아니 면

▁강 사
▁도 민
▁재 검토
▁5 회
▁실 수를
▁실 장님
▁성 찰
▁영 동
▁장 의
▁한국 문학
▁남 기
▁남 지
▁남 자가
▁스 을
▁스 디오
▁차 량이
▁했 지만

▁20 개
▁때문 입니다.

▁달 리고
▁적 자
▁맞 어

▁확 신
▁확 진
▁새 끼
▁들어 왔다.

▁배 터리
▁가지 로
▁살 균
▁양 을
▁법 에
▁대표 이
▁사실 도
▁파 일
▁운 전자
▁줄 인
▁임 기가
▁국민 적
▁준 설
▁취 향
▁넣 었
▁이후 의
▁이후 에

▁싶 다고
▁사업 과
▁호 랑이
▁군 의
▁광 장
▁날 인
만원 에
▁항 만
▁사이 가
▁15 개
▁토 로
▁조사 하고
▁농 담
▁설명 한다.

▁주장 이다.

▁운영 할
▁않았 고
▁맡 기
▁엄마 도
▁모습 으로
▁모습 이다.

▁외국 계
▁외국 에
▁대선 에
▁마련 된
▁전국 적으로
▁새누리당 과
▁봤 습니다.

▁주민 투표
▁테 크
▁휴 가를
▁특별 감
(4 7
▁어렵 고
▁판매 를
▁활동 하고
▁힘들 다.

▁효과 는
▁우승 한
▁구성 원
▁있다 라는
▁성장 할
▁깨 한
▁표현 한
▁표현 하는
▁중앙 대
▁프랑스 의
▁7월 부터
▁티 비
▁옮 김
▁40 분
▁다니 면서
▁겪 었다.

▁사례 도
▁모르겠 다.

▁모르겠 는데

▁반영 된
▁반영 한
▁198 5년
▁불과 한
▁팬 들의
▁바뀌 는
▁여러분 들이
▁등장 했다.

▁불안 한
5000 만
▁모델 로
▁부회 장의
▁남성 의
▁맺 고
▁내세 우
▁개념 이
▁주말 에
▁싱 글
▁돕 고
▁값 이
▁관광객 이
▁라이 프
▁이승 엽
▁선두 를
▁설탕 을
▁좁 혀
▁결의 안
▁아쉬 운
▁아니겠 습니까?

▁앱 을
▁엠 비
▁근처 에
▁쓰읍 .
▁R &D
▁완벽 하게
▁프리미 어
▁수단 으로
▁힐 러리
▁기자간담 회를
여자 프로골프
▁최경 환
▁소셜 네트워크
▁포스트 시즌
▁단백 질
▁몸무 게
( 최
5 8
8 7
· 구
· 비
· 제
· 미국
· 구속
거 야?

겠 습니까?

균 형
기 에서
내 려
냐 ”고
니 를
님 의
드 레
드 의
라 우
라 이트
레 나
렸 고,
명 (
문 제를
바 꿈
발 이
백 화
보 게
부 르크
사 회를
세 트
스 런
식 당
신 고
실 상
쓰 고
아 ,
연 수원
이 )
인 승
적 일
지 휘
차 적으로
채 로
천 여
출 판
테 랑
퍼 센트
폭 이
향 곡
현 이
▁이 긴
▁대 부
▁사 안이
▁하 구요.

▁1 위에
▁가 사
▁가 면은
▁가 치는
▁것 들이

▁전 신
▁정 리를
▁2 대
▁기 습
▁기 용
▁거 라는
▁“ 세계
▁‘ 거
▁‘ 명
▁‘ 북
▁‘ 알
▁‘ 조
▁‘ 정치
▁일 가
▁일 명
▁일 원
▁일 케
▁일 한
▁일 

▁인 상이
▁인 연을
▁등 재
▁경 력이
▁해 지
▁내 밀
▁공 보
▁공 언
▁공 문을
▁고 ()
▁상 시
▁조 사는
▁의 식을
▁비 디오
▁3 승
▁만 하다.

▁소 멸
▁유 한
▁" 노
▁" 대통령
▁김 원
▁원 씩
▁원 .

▁세 수
▁신 혼
▁무 작
▁무 책임
▁분 들을
▁분 이

면서 ,
▁그러 고

▁결 성
▁도 지사
▁5 분
▁실 은
▁성 희롱
▁차 이는
▁못 하고

▁열 기로
▁6 회
▁특 성을
▁서울 로
▁적 잖
▁적 자를
▁단 맛
▁단 편
▁배 경을
▁설 날
▁삼 겹
▁삼 진
▁명 으로
▁청 계
▁총 재
▁살 게
▁금 액은
▁양 평
▁초 기에
▁본 래
▁심 층
000 명
▁담 백
▁채 로
▁하나 

▁애 들도
▁식 량
▁교수 와
▁버 스를
▁리 서치
▁절 약
▁권 장
▁11 0
▁카 운
▁끝 이
▁허 락
▁연구 에
▁잡 히
하겠 다.

하겠 다”며
▁그니까 .

▁코 이카
▁난 리
▁천 만
▁설명 할
▁설명 해
▁맞아 .
더라 구

▁아닌 지
▁면 적
▁문화 의
▁그랬 던
▁떠 나는
▁기준 에
▁맡 을
▁돌아 와
▁돌아 왔다.

▁터 치
▁압 수
▁위해서 는

▁키 운
▁자체 는
▁봤 는데
▁지지 율은
▁논란 은
▁보도 한
▁으 응
▁분야 는
▁가격 에
▁들어가 고
▁해결 이
▁해결 하기
▁성공 할
▁사진 과
▁판단 할
▁넣어 도
▁환경 부
▁미래 창조
▁지도 부는
▁경험 한
▁아버 지의
▁발언 이
▁벗 어난
▁스스로 를
▁나왔 을
▁이십 오
▁선정 해
대회 에
지원 센터
시설 이
▁198 9년
▁숙 주
▁늦 은
▁제한 하는
▁행정 안전
▁수익 률
▁주도 하는
▁보험 료를
▁덕 에
▁감소 한
▁스트 라이
▁규정 에
▁메이 커
▁쌓 인
▁쿠 폰
(I T)
▁전기 차
▁취임 한
▁인근 에
▁자격 증
▁친박 계
▁추정 되는
▁벤 치
▁평소 에
▁마이 크로
▁탐 지
▁잠깐 만
▁아름 답
▁이란 의
수수 료
▁조언 을
▁성남 시
▁주석 은
▁가계 부채
▁바람직 하지
▁엄격 한
▁수치 다.

▁부드럽 게
▁한마디 로
IS T
▁비핵 화
▁아랍 에미리트
▁영원 히
대한민 국
▁브로 커
▁성균관 대
▁v s
' 인
- 일
B A
B K
~ 12
· 해
· 사회
∼ 200
▁ 젠
▁ 겠습니다.

▁ 섰다.

가 정
간 호
거 야
겠 죠?

경 에
광 고
다 지
도 도
두 리
르 도
르 며
리 라고
매 출
면 에서
무 침
미 로
미 칼
부 패
사 퇴
살 인
셀 러
어 의
어 린이
었 다”며
역 의
영 향
오 를
이 .

저 는
전 화
점 유
정 당이
즈 가
출 한
콘 서트
콤 한
태 우
터 가
통 에
학 )는
▁이 청
▁그 담에
▁있 거나
▁있 나요?

▁대 고
▁대 원
▁대 타
▁사 장님
에서 다.

▁수 령
▁수 질
▁1 점
▁정 선
▁2 위에
▁시 점에서
▁“ 경제
▁나 을
▁나 면

▁‘ 당
▁‘ 외
▁‘ 북한
▁주 실
▁주 시고요.

▁경 선을
▁부 쳐
▁부 상을
▁안 되는
▁위 조
▁고 시
▁상 실
▁상 원의
▁조 개
▁조 계
▁의 구
▁소 나무
▁되 고,
▁되 구요.

▁되 는데.

▁되 었습니다.

▁저 쪽
▁" 인
▁" 일본
▁' 자
▁세 이
▁신 당
▁신 도
▁무 쳐
▁분 향
▁분 

▁불 린다.

▁결 집
▁재 생
▁한국 전쟁
▁학 위를
▁지금 부터
▁열 악한
▁입 양
▁6 만
▁6 명
▁과 징
▁서울 과
▁서울 을
▁응 ~

▁물 량을
▁들어 야
▁평 일
▁배 럴
▁설 명이
▁민 영화
▁것이 기
▁7 1
▁포 격
▁대표 이사
▁걸 로

▁간 주
() 로
▁드 시는
▁점 거
▁201 1
▁높 인
▁운 허
이라 든가
▁갖 췄
▁손 상
▁넘 었다.

▁체 감
▁식 이다.

▁환 호
▁리 조
▁끝 났다.

▁허 물
▁나오 자
한테 는
▁삼성 에
▁이유 도
▁길 고
▁사용 하고
▁폭 으로
▁요구 해
▁요구 하며
▁천 재
▁예정 대로
▁금융 권
▁운영 에
▁베 르
▁추진 해
▁그랬 어

▁자기 소개
▁돌아 갈
▁분석 된다.

▁보여 줬다.

▁팀 에
▁18 9
정부 의
▁14 0
▁위원 장을
▁시민 이
▁마련 을
▁키 울
▁키 우고
▁패 권
▁자체 가

▁상당 수가
▁우려 했다.

▁우려 하는
▁밀 집
▁지지 층
▁침 투
(4 5
(4 6
(5 0
▁제품 에
▁맛있 어
▁예상 보다
▁판단 에
▁프로그램 은
▁이러 면
▁서비스 가
▁제공 한
▁아마 

▁격 차
▁살아 온
지역 의
▁조선 의
▁확보 할
▁과거 에는
▁제작 한
▁잘못 을
▁여론 을
▁옮 기는
▁나왔 던
▁맨 유
▁회의 가
▁싶은 데
▁욕 심
▁연결 하는
▁옆 으로
▁깊 어
▁정당 한
▁고객 의
▁LG 전
▁판결 했다.

▁전통 적인
▁탄핵 을
▁인수 위
▁짓 을
▁심각 하게
▁이곳 을
스( N
▁투입 해
▁출범 한
▁휘 발
▁여론조사 에서
▁법인 세
▁민주주의 를
▁근본 적으로
▁채널 을
▁고령 화
▁종류 의
▁무죄 를
▁마침 내
▁예쁘 게
변호 사
▁사외 이사
▁스코 틀랜드
▁식민 지
▁패러다 임
▁특목 고
담보 대출
▁입학사정 관
▁캐머 런
( 고
2 로
2 만
T O
· 5
· 안
▁ a
▁ 큐
공 을
과 에
까 봐
나 요
된 다”며
디 에
론 ’을
르 몬
밥 을
방 식
버 려
보 의
빌 딩
상 선
속 으로
수 익
수 학
시 안
시 스코
연 금을
오 던
오 롱
우 를
원 

의 사
이 니까
잡 이
제 철
주 자
중 을
청 에서
총 을
출 자
칙 을
컴 퓨터
플 레
했 어.

▁이 득
▁이 원
▁그 라
▁대 항
▁대 검찰
▁아 들의
▁사 천
▁한 다

▁수 분
▁전 력을
▁시 끄
▁시 도를
▁기 자는
▁거 센
▁“ 평
▁“ 국가
▁“ 검찰
▁다 다.

▁다 리를
▁네 티즌
▁‘ 구
▁‘ 올
▁‘ 주
▁주 자
▁주 어진
▁중 징
▁해 커
▁해 주고
▁국 조
▁공 단
▁부 도
▁부 하
▁부 총리
▁오 사카
▁없 다

▁없 잖아요.

▁고 졸
▁조 형
▁조 회
▁관 영
▁관 철
▁비 록
▁있는 가
▁3 층
▁소 니
▁연 료
▁연 체
▁" 국민
▁서 류를
▁개 도
▁마 틴
▁마 시는
▁김 윤
▁' 성
▁' 유
▁원 리
▁요 약
▁요 소가
▁방 청
▁신 장
▁신 호를
▁신 자유
▁무 을
▁무 척
▁분 할
▁분 들이

▁바 빠
▁바 지
▁그러 면서도
▁진 전
▁불 펜
▁재 고
▁5 명이
▁장 군
▁차 에
▁했 죠.

▁입 소
▁출 퇴근
▁특 이한
▁참 

▁잘 해
▁북 측
▁7 3
▁시작 된다.

▁버 릴
▁따라 가
▁기업 가
▁잡 혀
▁< 에이
▁당시 에는
▁나오 고

▁내용 으로
▁순 서
▁선수 단
▁볼 넷
주의 자
▁토 끼
▁트 랙
▁30 만
▁빠 졌
▁빠 지는
▁커 지는
▁폭 이
이었 다는
이었 는데

▁선생님 .

▁디 엔
▁어려 웠
▁탈 레반
▁탈 바꿈
▁터 널
▁영화 에
▁기자 들이
▁있으 면서
▁자체 적으로
▁있고 요

▁방송 통신
▁중심 이
▁의미 다.

▁되게 

▁해외 에
▁분야 가
▁긴 축
▁활동 하는
▁플 랜
▁숨 은
▁건강 에
▁석 방
▁통일 이
▁목표 가
▁대회 는
▁풍 경
▁벌어 질
▁1년 에
▁공정 위
▁공급 을
▁늦 어
▁엔 씨
▁히 는
▁밑 으로
▁N LL
▁컨 디션
▁끼 어
▁신고 했다.

▁슈 리케
(I C
▁교과서 에
▁메시 지
▁위안 화
▁케 리
기간 이
▁이틀 간
▁상임 위
▁고속 철
▁의식 한
이닝 을
▁주석 이
▁무너 뜨
▁공무 원의
▁부장 검
▁한- 일
▁이정 현
▁명확 히
▁겨냥 해
▁식당 에서
통상 자원
▁불거 진
▁박영 선
▁익숙 한
▁급속 히
▁인건 비
▁스크 린
▁지주 회사
▁전· 현직
▁경제협력 개발기구(O
▁정세 균
▁인테 리어
▁끔 찍
▁[횡설수설 /
( 0
( 연
4 억
6 명
M )
N G
] 

e c
m 의
· 개
’ 에는
∼ 19
▁ 껴
▁ 를
갈 등
결 을
광 장에서
구 조를
국 립
기 계
길 

네 .
네 이
놓 을
당 했다.

덩 이
도 서
도 .

독 재
드 리고
리 자
모 집
묘 한
발 의
범 을
병 에
볶 음
부 상
샤 오
수 (
수 술
승 희
시 기
시 피
심 원
십 자
안 정
언 어
였 는데

인 구
져 요.

주 시고요.

준 이
째 로
채 권
책 으로
체 스터
추 적
케 미칼
통 계
퇴 직
트 럭
파 업
푸 드
학 부
합 이
해 진다.

협 회가
호 영
호 주
▁있 지

▁대 림
▁하 셔
▁한 도
▁한 다.
▁1 등
▁어 묵
▁어 유
▁가 닥
▁전 보다
▁2 분
▁2 명을
▁거 대
▁거 칠
▁나 물
▁자 기도
▁다 룰
▁‘ 특
▁‘ 파
▁일 들이
▁일 정이
▁인 성
▁인 신
▁인 센티브
▁중 재
▁제 임스
▁오 라
▁오 가는
▁우 세
▁선 별
▁3 안타
▁모 스크
▁소 규모
▁연 석
▁되 지

▁되 겠습니다.

▁저 축
▁" 올해
▁문 체
▁같 고요.

▁김 문
▁' 3
▁' 기
▁' 전
▁' 201
▁원 주
▁세 력을
▁세 우는
▁신 지
▁그런 지
▁발 목을
▁4 분기
▁재 래
▁영 역을
▁더 운
▁남 이
▁남 중국해
▁스 프
▁감 기
▁감 동을
▁추 측
▁생각 하고

▁열 쇠
▁6 0년
▁적 을
▁평 상
▁집 무
▁뒤 에서
▁매 번
▁매 수
▁청 렴
▁것이 고
... “
▁7 억
▁법 적으로
▁행 위가
▁간 첩
▁투 구
▁만들 고

▁판 정
▁담 을
▁늘 었
▁하나 가

▁시작 되는
▁규 정한
▁누 릴
▁있었 고
▁있었 지만,
▁국가 인권
▁프로 세
▁광 진
▁카 르
▁다시 마
▁허 술
▁연구 하는
억원 )
▁됐 는데
▁조사 해
▁농 성
▁병 이
▁빠 지지
▁예정 이라고
▁로 저
▁기록 은
▁현대 모비스
▁100 년
▁확인 을
▁공개 할
▁국정 감
▁뉴 스를
▁친구 는
▁K A
사회 에
▁자체 에
▁영향 력
▁휴 식
(4 2
▁강화 해
▁귀 한
▁L A
▁직원 들에게
▁확대 하고
▁붙 은
▁듣 지
▁효과 도
▁숨 을
▁핵심 은
▁되고 .

▁나와 서

▁달라 붙
▁지도 부가
▁찍 는
▁갑 작
▁수출 을
·1 9
인지 ,
▁공부 할
▁처리 할
▁하시 고

▁좋겠 다”고
▁좋겠 어요.

▁컨 테이너
▁거쳐 야
▁앉 은
▁덕 수
▁않겠 다고
▁빚 은
▁절반 을
▁옛날 에는
▁염 려
▁모양 이
들한테 

▁이곳 은
▁아래 로
▁출시 한
겠다 며
▁집단 적
▁불편 을
▁지구 촌
▁성향 이
▁애플 의
▁세력 의
▁모른 다는
▁불리 한
▁생태 계
▁엘지 (L
▁고구 려
▁“오 늘
▁깔끔 하게
▁피아 니스트
▁시· 군
▁완벽 한
대사 관
▁"북한 이
▁보건복지 부
▁몽 골
국정 원
▁꼼꼼 히
가니 스탄
▁저질 렀
▁유니폼 을
▁슬라이 더
터테인 먼트
▁업그 레이드
▁월스트리트 저널
▁프리미어 리그
' 란
4 일
E S
· 성
▁ ·
▁ 까지
간 다는
강 의
거 지
공 사의
권 ,
금 도
기 보다는
년 째
닐 라
대 비
동 은
됐 으며,
되 지만
둥 이
란 한
메 트로
방 으로
번 이
복 이
부 한
브 로
브 를
비 치
사 원
사 장
사 전
사 찰
살 로
수 요
스 도
아 리
연 극
였 어요.

오 백
월 의
위 )
으 러
음 식
이 냐
일 리
저 축
전 당
조 로
준 은
쳤 던
총 회에서
충 청
팀 에
편 으로
포 가
하 곤
형 은
▁이 경
▁이 노
▁그 땐
▁그 지
▁있 다"면서
▁아 일랜드
▁사 냥
▁사 료
▁사 학
▁지 킬
▁1 m
▁가 루
▁가 부장
▁것 임을
▁보 다

▁보 금자리
▁시 시
▁기 내
▁기 적
▁“ 반
▁“ 학교
▁나 경원
▁자 매
▁다 각
▁다 리가
▁‘ 예
▁일 가의
▁인 격
▁인 원을
▁주 행
▁등 등
▁중 이던
▁제 휴
▁해 변
▁해 수
▁국 채
▁공 습
▁안 의
▁안 에는
▁때 려
▁때 로는
▁오 고

▁오 로지
▁우 체
▁우 호
▁고 영
▁관 리가
▁비 유
▁비 하면
▁모 토
지만 은
▁유 동
▁개 장
▁많 다”고
▁' 소
▁원 격
▁원 료
▁세 균
▁그러 면서

▁발 라
▁강 간
▁4 번
▁불 로
▁반 죽
▁재 심
▁실 력이
▁장 사
▁장 치를
▁후 폭
▁노 리고
▁박 경
▁남 용
▁차 명
▁6 억
▁출 구
▁응 .
▁평 화를
▁직 선
▁삼 은
▁명 동
▁것이 어서
▁총 선을
▁금 액을
▁200 0만
▁된 다”며
▁법 학
▁법 정에
▁사실 에
▁파 티
▁번 만
▁번 호
▁8 3
▁9 3
▁높 지
▁임 무
▁임 금을
▁국민 과
▁지난해 에
▁담 겼다.

▁취 한
▁늘 린
▁친 정
▁넘 쳐
▁야 후
▁시간 과
▁속 의
▁그거 를

▁버 리는
▁쓰 여
▁승 차
▁승 인을
▁호 기
▁편 견
▁갈 비
▁자신 들이
기업 에
▁연구 의
▁순 이익
▁검찰 ,
▁눈 물이
▁사이 클
한테 서
▁계획 은
▁이유 에
▁몰 라도
▁홍 삼
▁길 에
▁코 오롱
▁병 원으로
▁월 평균
▁국제 통화
▁설명 하는
▁좋아 .

▁받아 왔다.

▁곳 도
▁( 이
▁정책 위의
▁면 허
▁과정 에서

▁가족 은
▁국정 원은
▁국정 원의
▁친구 들은
▁올라 와
▁있으 시
▁정상 급
▁우려 하고
▁밀 양
▁“이 명박
(5 7
▁판매 량이
▁긴 장이
▁힘들 었
▁참석 하는
▁이뤄 지고
▁악 용
▁공격 적인
▁삶 과
▁놀 고
▁핵심 인
경기 장에서
▁미래 의
▁사무 실을
▁성장 률
▁롯데 그룹
▁검토 해
▁재판 에
▁대회 가
▁캐 럴
▁조직 이
▁산업 통상자원
▁인천 시
▁개정 안은
▁움직 일
▁개선 이
▁대비 한
▁보이 며
·1 1
▁케이 비
▁제일 모직
▁총리 실
▁걱 정을
▁198 6년
▁바람 을
소득 이
▁전시 회
▁얼굴 에
▁던 지는
▁언어 의
▁바뀌 고
▁여기에 다가
▁확정 했다.

▁형태 가
▁현장 실
▁이루 는
하시 고

▁출전 한
▁맞춰 서
▁197 2년
▁컴퓨터 를
▁죄 책
.3% 로
▁현대차 는
▁머물 렀다.

▁으음 .

▁제2 차
▁전투 기
▁어울 리
▁대결 을
▁0 2
▁멸 종
▁상관 없
▁싫어 하는
▁“북한 의
▁<한겨레> 와의
▁흘러 나
▁네네 네.

▁김연 아
▁득점 왕
▁점유 율
▁낮추 는
▁꼴 찌
.... ”

비시 >
▁최하 위
▁눈앞 에
▁전경 련
▁크리스마 스
▁팔레스타 인
프란 시스코
티오 피아
% 를
( 대
. or
2 일
5 천
S K
T F
e )
l o
u t
▁ 었
겠 습니다
극 을
내 셔널
놓 는
대 왕
되 며,
드 립니다.

란 을
렸 지만
로 선
마 라톤
면 ,
면 의
미 래
배 가
베 이스
베 이터
보 며
보 장이
성 

수 출
스 

신 한
야 권
영 상
오 면서
완 종
유 통
음 에
응 답
이 지만,
인 가

자 )
재 난
지 마
천 의
크 푸
탈 루
해 ?

현 실
홈 쇼핑
▁이 리
▁그 리는
▁있 단
▁아 가
▁사 격
▁사 안을
▁지 불
▁한 상
▁수 확
▁1 7년
▁전 사
▁정 국
▁정 전
▁2 위를
▁2 개를
▁기 기
▁기 와
▁거 거든요

▁“ 정부가
▁자 란
▁자 르
▁다 져
▁다 투
▁다 가가
▁‘ 삼
▁‘ 하
▁‘ 박근혜
▁일 ”이라고
▁인 물을
▁인 플루엔
▁주 역
▁제 발
▁국 감
▁국 경을
▁부 르고
하고 요.

▁안 겨
▁안 성
▁오 르면
▁여 부가
▁않 자
▁않 기로
▁고 로
▁의 총
▁의 심을
▁비 자
▁모 욕
▁모 임을
▁유 보
▁저 

▁서 브
▁같 으면
▁개 인이
▁교 사를
▁많 아

▁김 주
▁' 내
▁방 금
▁신 상
▁통 폐
▁아니 기
▁들 고

▁진 료를
▁당 론
▁당 해
▁현 상은
▁재 계
▁재 개를
▁성 별
▁성 격을
▁영 업을
▁사람 들과
▁한국 인의
▁학 계
▁학 부
▁남 자는
▁스 티브
▁차 장은
▁했 어?

▁입 점
▁특 위
▁특 이
▁물 량이
▁새 마을
▁외 쳤다.

▁것이 다
▁그렇 다.

... ‘
▁양 천
▁파 면
▁행 안
▁행 운
하지 

▁초 록
▁드 림
위원 으로
▁본 토
▁정도 .

▁심 심
▁심 상정
▁임 의
▁임 창
이라 면서
▁가능 하면
▁증 상을
▁크 다고
▁이후 에는
▁될 까
▁규 정이
▁책 에
▁책 에서
▁애 국
▁큰 일
▁표 본
▁쓰 게
▁쓰 이는
▁있었 다”며
▁국가 와
▁승 계
▁군 수
▁군 인
▁허 리케
▁잡 힌
▁은 근
▁있을 까요?

▁백 만
▁발표 가
▁30 개
▁홍 성
▁경기 침
▁커 진
▁월 급을
이었 고
▁천 막
▁그럼 요

▁측 에서
▁좋아 서
▁그러니까 요.

▁베 테랑
▁팔 팔
▁떠 났
▁돌아 왔
▁갔 던
▁골 드
▁십 육
▁민주당 과
단체 가
(5 1
▁귀 를
▁서울시 의
▁드러 내
▁긴 장을
▁확대 하는
▁유럽 에서
▁홈 플러스
▁대부분 은
▁숨 겨
▁놀 이
▁고려 할
▁여자 친
▁신청 했다.

▁밥 상
▁확보 해
▁낙 찰
▁선택 하는
▁4월 부터
▁사랑 의
학과 를
산업 의
▁인간 은
▁부모 의
▁즐 겁게
▁욕 설을
▁유명 하다.

▁가능성 

▁공급 이
50 만
▁전화 로
▁F C
▁시각 도
▁사람들 한테
▁판결 에
▁예술 가
▁재정 적
▁밑 에서
▁전달 하는
▁아프 가니스탄
▁끼 친
▁빚 고
▁신뢰 가
▁해석 을
▁소통 의
▁끝나 지
▁할머니 는
▁직후 인
▁197 0년대
▁보장 하는
어요. "

▁도와 주
▁낳 고
▁호텔 에서
▁전반 적으로
▁본인 도
▁관측 도
▁움직임 에
▁부상 으로
시스템 을
▁무시 하고
▁생긴 다.

▁주최 한
·고 교
소송 을
▁페이스북 에
▁갖춰 야
▁신한 은행
▁모으 고
▁원장 님이
▁되돌 아
▁대대 적인
▁사외 이
▁“특 히
▁뉴욕타임 스(N
▁의외 로
▁홍익 대
▁양해 각
▁유나이티 드
캐피 탈
▁미래창조 과학
& A
' .

' 다.

1 로
5 00
7 8
· 군
게 .

결 제
공 사를
구 도
군 요.
규 명
기 반
끈 한
난 히
네 트
니 가
돌 을
드 림
들 까지
디 스플레이
레 는
리 우드
마 의
마 이
만 족
망 에
매 체
모 의
뮤 지컬
민 을
버 섯
베 이션
벤 션
보 드
보 자
보 면

보 겠습니다.

석 ,
성 명
수 

숙 한
슬 링
습 기
신 용
씨 

았 습니다.

애 가
역 과
연 하게
였 는데
오 늘
와 대로
원 (
인 척
저 께
제 ,
제 국
채 용
청 사에서
체 계를
추 는
축 산
하 잖아요.

형 의
호 흡
화 도
회 사를
▁이 밖에
▁그 분이
▁사 옥
▁사 육
▁사 형
▁하 

▁하 려는
▁하 는데요.

▁하 셔야
▁수 여
▁수 임
▁1 승
▁가 운
▁전 철
▁정 직
▁정 하는
▁보 세요.

▁시 일
▁시 킨
▁시 선이
▁거 니까.

▁거 잖아.

▁“ 선
▁‘ 단
▁‘ 리
▁‘ 코
▁일 년
▁일 축
▁인 맥
▁인 선
▁인 권을
▁중 점
▁제 네
▁해 본
▁해 저
▁내 놔
▁여 파로
▁않 으면

▁고 액
▁상 관이
▁조 별
▁조 씨는
▁선 동
▁소 아
▁소 지가
▁유 의
▁" 남
▁" 내가
▁" 앞으로
▁서 너
▁생 계
▁그래 가지고

▁개 시
▁교 정
▁' 김
▁' 어
▁' 최
▁무 너지
▁동 갑
▁들 러
▁발 송
▁강 좌
▁진 도
▁현 황을
▁결 론이
▁반 경
▁5 000만
▁성 장이
▁더 는
▁건 데요.

▁스 노
▁스 승
▁알 기
▁때문 .

▁추 운
▁열 리
▁물 기를
▁들어 서는
▁평 준
▁직 원을
▁문제 라고
▁매 도
▁매 몰
▁삼 각
▁명 단
▁같은 데요.

▁총 장의
▁가지 구
▁살 기
▁양 대
▁걸 친
▁파 헤
▁행 렬
▁피 겨
▁약 물
▁9 5%
▁일본 ,
▁함 부로
▁채 를
▁화 제
▁사회 주의
▁산 을
기도 

▁크 라
▁크 로
▁환 자를
▁[ 201
▁벌 인다.

▁누 나
▁이어 가
▁교수 로
▁경제 부
▁복 직
▁지원 한
▁승 리로
▁호 투
▁권 리가
▁광 명
▁국내 에서는
▁질 이
▁< 시
▁< 한국
▁학교 와
▁않는 다면
▁선생 은
▁말씀 하시
▁말씀 하시는
▁계속 될
▁준비 했
들에게 도
▁중요 하게
▁토 종
▁토 크
위원회 와
▁몰 두
▁만들어 서

▁길 은
▁길 거리
▁폭 격
▁폭 락
▁평가 도
▁굉장히 

▁않았 고,
▁와 

▁추진 을
▁과정 은
▁100 만원
▁확인 되지
▁십 사
▁엄마 를
▁위원 은
▁극 적인
▁기자 와
▁송 금
▁키 웠
▁정상 이
▁영향 력이
▁풀 려
▁휴 양
(5 6
▁발생 해
▁생활 에
▁페 이지
▁프로그램 에
▁지나 지
▁레 드
▁있다 ’고
▁인터넷 에서
정책 의
▁이야기 다.

▁비슷 하다.

▁제기 된
▁여론 의
라이 언
▁I MF
▁러시아 와
▁스타 트
▁내부 에
▁뽑 은
▁위험 에
▁연결 해
▁진출 한
▁진보 적
▁고객 에게
▁거래 가
▁아니냐 .

운동 가
▁촉 발
▁냉 이
▁범죄 에
▁언제 든지
▁행복 을
▁의무 가
▁해석 된다.

▁재미 있는
▁존재 하는
▁쿠 키
▁2차 전
가량 의
▁모양 을
▁포기 하고
▁197 9년
▁확산 되고
▁접근 을
▁밝히 는
▁골프 장
▁안녕하 세요
▁공천 을
▁튀 기
기간 에
▁어어 어
▁어어 어

▁촉구 하는
▁이르 렀
▁실질 적
▁주인공 은
▁다녀 야
▁샌 프란시스코
▁결승 에서
▁전형 적인
▁기여 할
▁아하 .

▁정체 성
▁주석 의
▁산하 에
▁셋 이
▁떡 볶
▁합리 적
▁합리 적인
▁신분 으로
▁문자 메시
▁넣어주 시고요.

II B
▁이례 적으로
▁유기 농
▁시중 은행
임대 주택
▁지식경제 부
▁실시간 으로
▁컬렉 션
▁탄탄 한
▁캠페 인을
▁오케스트 라
▁우상 호
▁카이 스트
▁시카 고
▁애플리 케이션
( V
( 아
( 총
2 억
3 6
< 한겨레>
M B
M C
T S
a tion
u r
· 화
○ ○
갈 이
감 시
감 으로
건 ,
그 든
긴 다.

내 를
노 인
님 은
당 국
대 도
대 변
대 병원
도 전
됐 으나
드 베
디 스크
라 ”고
래 요?

마 드
만 으로는
번 호를
범 은
법 ’
병 으로
부 인과
분 과
상 인
서 양
세 훈
수 당
시 다
식 도
애 플
었 죠.

워 싱턴
웨 이트
의 학
인 민
인 정
임 에도
적 ,
제 일
졌 다”며
조 리
조 작
차 게
창 한
키 퍼
파 는
플 라
하 에
하 다"며
합 동
했 다

효 율
▁그 친
▁있 지.

▁대 로

▁아 을
▁사 물
▁사 거리
▁지 점에서
▁어 저께
▁가 축
▁정 조
▁시 위에
▁거 니까
▁자 구
▁자 위권
▁다 수의
▁‘ 입
▁‘ 핵
▁일 감
▁인 해서
▁중 장
▁중 지
▁제 어
▁해 줘
▁해 왔다.

▁해 놓고
▁부 가가
▁안 주
▁오 너
▁여 신
▁고 고
▁고 장
▁고 지
▁의 제
▁선 행
▁관 제
▁관 리에
▁모 시
▁소 신
▁연 이어
▁" 공
▁서 운
▁생 중계
▁마 흔
▁요 리가
▁세 일
▁세 금이
▁방 에서
▁구 별
▁구 형
▁발 전에
▁당 산
▁당 첨
▁불 행
▁받 던
▁도 미
▁5 00여
▁영 하
▁학 대
▁학 위
▁이렇게 .

▁이런 거
▁차 는
▁했 지
▁좋 다”고
▁때문 인
▁못 하도록
▁입 었다.

▁적 대
▁확 률이
▁배 송
▁배 신
▁민 심을
▁200 8
▁200 0여
▁처 한
▁막 혀
▁양 의
▁법 안이
▁사실 과
▁프 라이
▁간 절
▁간 부는
▁번 의
▁8 7
▁8 9
▁판 사는
▁관계 자가
▁줄 고
▁줄 였다.

▁변 형
▁이상 득
▁치 명
▁치 우
▁돌 리
▁채 운
▁늘 어

▁사회 적으로
▁크 다”고
▁세계 대전
▁야 권의
▁정치 적으로
▁종 북
▁누 진
▁누 구를
▁그거 는

▁경제 민주화
▁복 제
▁지원 도
▁국가 안전
▁국가 기록
▁편 을
회의 에
▁완 주
▁자신 에
▁부분 은

▁항 암
▁전문 성을
▁준비 할
▁계획 에
▁계획 이라고
▁홍 명
▁동안 의
▁경기 장
▁폭 침
▁월 세
이었 는데
이었 고,
▁이야 

▁선생님 을
시간 은
▁축 적
▁디 도
▁디 자
▁디 스플레이
▁개발 이
▁개발 했다.

▁100 억
▁잠 이
▁기준 은
▁기술 과
▁십 년
▁십 삼
▁십 팔
▁수준 에서
▁가족 들의
▁위원 장님
▁외국 에서
▁마련 에
▁전국 에
사업 은
시키 며
▁자유 계약
▁얻 지
▁귀 농
▁합의 로
▁부산 의
▁플 라
▁없었 을
▁쪼 개
▁구성 돼
▁고려 한
▁C G
▁C IA
▁증가 하는
▁격 리
지역 에
▁밥 도
▁뭔 가를
▁정권 에
▁괜찮 을
▁쫌 

▁러시아 는
보고 서
▁다니 며
▁겪 어
스타 일
▁회의 에
회사 인
▁욕 심이
▁되겠 죠.

▁결혼 한
▁발전 소
▁중단 을
▁제외 하고는
▁당선 인
▁협력 사
▁쉬 고
▁헌법 에
▁사망 자
▁암 튼
▁던 졌다.

▁졸업 하고
▁칠 레
▁구속 된
▁인권 침해
▁변화 의
▁컨 텐츠
▁팬 들은
▁G DP
▁작업 은
▁느끼 지
▁언제 까지
▁있겠 죠.

▁의무 화
▁대북 제재
▁위반 한
▁소비자 에게
레스 테
▁넓 어
▁모양 의
▁섞 여
▁어쨌든 

▁통신 은
▁메시 지가
▁마을 에
서비스 를
▁자산 을
▁휘 말
▁마이 크
▁재밌 게
기간 을
▁비난 을
▁수비 수
업계 는
▁제2 의
▁짐 작
▁연설 을
▁요새 는
▁카메라 를
▁자랑 하는
▁동아일보 와의
▁어깨 를
▁총괄 하는
▁블랙 리스트
▁앤 드
디아 라비아
EC D)
▁바람직 한
▁왔다 갔다
▁어쩌 면
▁"아 직
▁엄격 하게
▁부작 용이
▁쇠 고기
▁시급 한
▁춤 을
▁포르 투갈
▁멈추 지
▁에너 지를
▁하하 하
▁적당 히
▁김한 길
(北 )
▁여태 까지
( 日
( 일
3 억
5 7
7 4
D I
u s
v er
· 주
· 청
∼ 1
∼ 5
▁ of
겁 니다.

고 리
고 등학교
구 요?

나 노
나 봐
다 피
당 국은
대 원
데 도
됐 다가
디 스
라 든가

란 이
량 에
루 미
르 코
마 한
모 는
무 사
미 스
바 르
방 울
배 에
부 품
사 리
서 부
서 는

성 향
성 환
소 

소 리가
약 이
예 요?

오 면
요 리
유 치
육 상
윤 리
일 간
창 원
타 가
택 시
특 검
평 가를
포 트
플 래
할 머니
함 께
해 하는
휴 가
▁이 강
▁이 월
▁아 카데미
▁사 정을
▁사 생활
▁지 검
▁하 향
▁하 더라
▁한 도를
▁수 홍
▁1 등급
▁어 색
▁어 선
▁것 ,
▁것 "

▁전 산
▁전 염
▁정 병
▁보 상을
▁기 관이
▁거 침
▁거 고요.

▁“ 금융
▁“ 과거
▁자 릿
▁자 생
▁자 세가
▁‘ 백
▁‘ 서
▁‘ 위
▁‘ 의
▁‘ 천
▁‘ 초
▁인 디
▁인 연
▁제 의를
▁해 달라
▁국 책
▁말 과
▁부 가
▁예 로
▁예 멘
▁오 시
▁오 직
▁오 호
▁상 큼
▁선 원
▁비 전을
▁소 나
▁되 지만
▁되 면서

▁" 안
▁" 예
▁문 태
▁최 연소
▁김 씨의
▁' 수
▁원 활
▁세 게
▁신 문을
▁동 거
▁구 해
▁바 에
▁도 전을
▁반 짝
▁재 즈
▁5 차
▁후 에도
▁차 이나
▁두 지
▁회 장으로
▁입 혀
▁6 조
▁과 감한
▁특 정한
▁적 법
▁배 급
▁직 전에
▁민 관
▁민 영
▁민 중
▁삼 사
▁청 사
▁역 을
▁총 을
▁가지 

▁살 면서
▁7 0여
▁에 피
▁번 갈
() ’
▁8 1
▁드 문
▁의원 에
▁점 수가
▁201 7
▁경우 를
▁심 의를
▁변 하지
▁국민 들은
▁국민 행복
▁타 지
▁돌 렸다.

▁준 다는
▁손 실
▁돼 요
▁목 에
▁크 레
▁다음 으로
▁식 탁
▁속 옷
▁이어 ,
▁최근 까지
▁광 교
▁11 9
▁자신 과
▁질 서
▁연구 진은
▁대학 로
▁형 이
▁첫 해
▁돈 까
▁내용 과
▁선수 들과
▁준비 된
▁준비 에
▁15 분
▁가지고 는
▁오늘 

▁몰 락
▁해야 지

▁동안 에

▁알려 지지
▁빠 뜨
▁폭 력을
▁접 시에
이었 으나
▁국제 적인
▁좋아 할
▁기록 하고
▁진행 했다.

▁피해 는
▁이미 

▁결정 은
▁그것 만
▁여성 들의
▁급 감
▁골 든
▁낮 다.

정부 와
▁내년 에는
▁왔 던
▁이름 도
▁혐 오
▁17 0
업체 들이
▁싸 우는
▁테 니
▁특별 수사
(4 1
(5 3
(5 5
▁전문가 들
▁부산 시
▁페 르
▁없어 요
▁판단 해
▁없었 다고
▁놀 란
▁놀 랍
▁놀 랬
▁격 차를
▁안전 하게
▁안전 보장이
▁사무 실에서
km 의
▁왜냐 면

▁적극 적
▁찍 을
▁찍 었다.

▁과거 사
▁낙 후
▁원내 수석
▁견 해를
▁묻 어
▁고민 하고
▁요리 

▁9월 부터
▁즐 겁
▁주택 담보대출
▁연결 돼
▁차례 나
▁0. 0
▁은행 의
▁깊 게
▁거부 하는
▁아니냐 

▁LG 는
▁히 트
▁니 네
▁사람들 

▁수익 률이
▁푸 짐
▁변화 는
▁제도 는
▁끼 고
▁실패 를
차례 나
▁남편 과
▁장기 간
▁아닙 니까.

▁말씀드 렸던
▁혁신 을
▁재미 를
▁남성 은
▁지시 한
▁행동 에
▁한반도 에
▁지정 된
▁나무 가
체육 관에서
cm ,
▁안녕하 세요

▁안녕하 세요?

▁겸 손
▁마늘 

▁생각하 시는
▁탐 사
▁전반 적인
▁대우 건설
▁타이 거
▁벽 에
▁아시 다시피
▁체결 했다.

▁예비 역
▁구간 을
자유 구역
▁세상 에서
▁아유 

▁체계 적으로
▁외환 위기
▁유권 자
▁거짓말 을
▁논쟁 이
▁주차 장
▁보고서 에서
▁활발 하게
▁비대 위
▁대안 으로
▁비타민 C
수산 식품
-3 으로
▁류현 진은
▁아웃 도어
▁취지 다.

.co .kr
▁곱 게
▁그저 께
▁나중 에

▁국가정보 원
▁언젠 가
▁후진 타오
▁특성 상
▁트리 플
▁자발 적으로
▁리버 풀
▁어두 운
▁어허 

▁뭐랄 까
글라 데
▁희토 류
▁블라 디
스쿠 니
▁소셜네트워크 서비스(SNS
▁<에이 피
( 여
A C
I ]
g e
h a
y )
· 양
· 중국
∼ 9
▁ 니까?

가 치
강 점
급 적
길 은
남 용
동 근
된 다
드 니
디 의
라 지
류 에
릭 스
몬 드
믄 

발 찌
번 의
베 트남
보 훈
사 ’
사 지
생 은
세 요?
셨 던
셨 어요?

속 을
속 에서
았 고
업 종
용 차를
워 

원 동
은 퇴
음 의
인 수
인 치
일 인
점 도
째 인
체 제를
탄 도미사일
틀 어
파 에
필 드
하 키
협 상을
호 ,
화 했다.

희 룡
▁이 색
▁이 준
▁이 철
▁이 보다
▁이 자를
▁그 들
▁지 대
▁지 킨
▁한 눈에
▁가 파
▁가 구의
▁전 송
▁전 의
▁정 씨는
▁2 .5
▁시 신을
▁거 나
▁“ 매
▁“ 아이
▁자 선
▁‘ 경제
▁‘ 아이
▁일 삼
▁주 연
▁경 위
▁경 유
▁때 를
▁때 마다

▁오 기
▁오 가며
▁우 편
▁없 으니
▁고 래
▁상 륙
▁상 하
▁조 화
▁조 화를
▁비 해서
▁만 져
▁미 달
▁미 스터
▁" 상
▁" 나는
▁서 강
▁서 청원
▁같 았다.

▁교 보
▁많 았던
▁' 우리
▁원 안
▁세 번째
▁세 미나
까지 의
▁통 지
▁발 로
▁당 하는
▁현 미
▁현 안을
▁불 쌍
▁올 랑
▁받 기도
▁도 주
▁성 립
▁더 더
▁장 소로
▁스 파
▁두 세
▁지금 보다
▁했 었는데

▁좋 겠습니다.

▁추 상
▁못 하
▁열 정
▁6 ·15
▁할 까요?

▁출 품
▁맞 벌이
▁단 정
▁배 구
▁직 장을
▁직 업을
▁미국 인
▁명 도
▁총 기
▁총 알
▁10 8
▁살 린
▁금 연
▁된 다면
▁된 다고

▁양 국은
▁걸 러
▁간 사인
▁번 은
() 와
▁8 명
▁8 00
▁초 콜
▁드 셔
▁드 시면
▁후보 도
▁일본 으로
▁관계 자들이
▁이번 주
이라 서

▁갖 췄다.

▁넣 고요.

▁산 정
▁환 자는
▁표 정을
▁쓰 인
▁있었 죠.

▁날 개
만원 )
▁느 다.

▁당시 의
▁나오 게
▁학교 생활
▁쪽 을
▁쪽 에서는
▁놓 으면
▁전문 직
들에게 

▁몰 입
▁사용 자
▁농 협
▁접 시
▁월 남
교육 과
▁금융 기관
▁진행 해
▁진행 됐다.

▁향 기
▁찾아 서
▁개인 적
▁시민 들은
▁몸 으로
▁만나 면
▁공동 대표
▁존 슨
▁출신 이다.

▁name 11
▁싸 움이
▁인정 받
▁풀 고
(4 9
▁하루 를
▁일반 인
▁해외 로
▁귀 여
▁방법 도
▁역사 에
▁역사 의
▁작품 의
▁논의 했다.

▁악 몽
▁지방 의
▁방식 에
▁이러 면서

▁시장 점유
▁주변 을
▁나와 요.

▁경영 을
▁있다 라고
km 로
▁상대 방
▁집중 할
(6 3
▁넘어 가는
▁나서 서
▁확보 에
▁계약 이
▁전략 이
▁아파트 는
▁수출 이
▁고민 하는
▁엘 피
▁남자 애
▁매출 액은
▁통과 를
▁발견 한
▁발견 했다.

관계 에
▁트럼프 는
▁가져 온
▁가져 왔
▁소득 을
▁진보 신당
▁0. 1%
▁제외 하면
▁당선 인은
▁거부 하고
▁정당 의
▁사태 에
는지 ,
▁반발 

▁오른 다.

▁낸 다.

▁망 설
▁언제 나
▁한다 면

▁곤 두
▁멀 어
▁기초 연금
▁기초 생활
▁절반 이
▁재산 이
▁의사 소
▁출연 한
▁독립 을
▁자녀 의
▁바이 올린
▁베이 컨
▁대표팀 의
▁미사일 을
▁재료 부터
▁여름 에
▁기름 이
▁단일 화를
▁임명 된
▁확실 하게
▁휘 두
▁관객 을
▁다가 온
▁횡 단
▁부탁 을
▁오랜 만에
▁초청 해
입니다. "

▁고향 인
▁장학 금을
▁고소 한
▁아르 티나
▁전년 보다
정상 회담
▁구제 금융
▁조심 해야
▁보조 금을
▁낭 비
▁합류 했다.

▁동남 아시아
▁정규직 으로
(R &
▁신중 하게
리랑 카
▁유로 존
▁검찰총 장
▁지은 이는
▁다이어 트
▁커뮤니 티
▁정진 석
▁최우수 선수
▁"최 근
▁노트 북
▁튼 튼
▁티베 트
▁국내총생산 (G
▁산학 협력
▁정운 찬
( 남
( 정
- 9
0 으로
3 으로
T E
m 에
~ 20
· 8
· 장
· 포
” ,
▁ 닉
▁ 콤
▁ 으면
▁ 져야
강 화
겠 어요.

과 목
내 장
노 트
녹 색
농 단
농 협
대 선
던 데?

동 력
돼 서
된 다"고
두 가
드 리는
들 지
들 보다
디 가
레 스트
리 라
리 스타
마 르
만 명이
머 스
미 에
변 에
변 이
보 다.

보 도록
북 도
사 나
사 단
상 ’
생 각
석 으로
세 안
소 수
시 하는
시 죠?

었 고

였 다"고
요 원
으 실
이 야

일 드
자 흐
장 치를
적 

주 ,
지 면

청 구
층 ,
커 피
코 드
티 모
퍼 스를
▁그 루
▁대 게
▁대 세
▁사 야
▁사 위
▁지 내고
▁한 잔
▁수 단을
▁전 만
▁전 한
▁정 찰
▁정 했다.

▁2 부
▁시 야
▁시 기는
▁거 란
▁거 구요.

▁“ 개
▁“ 피
▁“ 4대강
▁나 도

▁자 서
▁자 아
▁다 듬
▁‘ 만
▁‘ 배
▁‘ 카
▁인 증을
▁주 당
▁주 방
▁주 는

▁제 너
▁제 때
▁제 로
▁제 삼
▁내 서
▁부 동
▁때 면
▁예 의
▁여 고
▁여 건이
▁않 다”며
▁없 습니다

▁위 주
▁상 세
다” 라는
▁3 50
▁만 료
▁소 액
▁소 스가
▁소 재를
▁연 행
▁유 교
▁유 성
▁유 치를
▁되 레
▁되 느냐
▁되 잖아

▁저 하
▁" 기
▁" 다
▁" 시
▁서 남
▁문 항
▁문 구를
▁같 다는
▁개 개
▁개 국
▁마 냥
▁김 미
▁김 신
▁김 혜
▁' 세
▁' 지
다고 .

▁원 자로
▁요 인이
▁요 금을
▁세 련
▁무 기를
▁무 실점으로
▁통 역
▁통 화를
▁구 원
▁우리 한테
▁그러 게
▁강 구
▁당 기
▁4 ~5
▁도 둑
▁실 려
▁성 수
▁성 관계를
▁장 미
▁후 순위
▁남 학생
▁스 며
▁했 는데,
▁좋 다는
▁좋 습니다

▁때문 "이라고
▁생각 이다.

▁단 절
▁외 부에
▁잘 할
▁배 어
▁작 고
하기 에는
▁매 실
▁삼 성을
▁총 력
▁북 -미
▁양 식
▁양 육
▁대표 에게
▁파 장이
▁행 위에
▁간 격
하지 .

▁9 4
▁9 년
▁임 차
▁국민 은행
▁국민 참여
▁지난해 까지
▁담 합
▁갖 는다.

▁산 후
▁산 부인과
▁증 시
▁체 력이
▁책 도
▁정치 권이
▁협 회
▁종 류가
▁[ 뉴스
▁벌 이
▁누 르고
▁상황 에서도
▁호 날
▁편 찬
▁창 설
▁형 편
▁형 편이
▁나오 면서
▁됐 다”며
스트 로
학교 에
▁코 트
▁설명 하고
▁대상 이다.

▁좋아 

▁않았 습니다.

▁진행 이
▁현대 오
▁참여 한다.

▁포함 되지
▁개발 도
▁개발 할
▁여성 가족
▁맡 는다.

▁분석 됐다.

▁공개 를
▁기술 로
▁터 를
▁혼 합
▁엄마 랑
▁엄마 한테
▁선거 는
▁외교 부는
▁영화 제
▁국정 운영
▁외국 인이
▁극 히
▁소비 가
▁책임 지는
▁위해서 라도
▁name 10
▁name 12
업체 를
▁주민 이
▁전망 을
▁빨 래
▁판매 량
▁부산 에서
▁맛있 어요.

▁이뤄 져
▁이뤄 지
▁환경 단체
▁듣 고

▁숨 이
▁의혹 과
▁이해 하는
▁감사 합니다

▁격 돌
▁적용 하는
▁적용 되는
▁깨 하게
죠. "

(6 5
▁넘어 갈
▁받았 고,
▁색 다른
▁대응 할
▁공연 이
▁아파트 의
▁풍 성
▁여론 조사를
▁부모 를
▁중소 형
▁그럴 까
▁목소 리로
▁사례 다.

▁은행 에
▁노력 하고
▁아니냐 ”고
▁주목 받고
·2 4
▁수석 대표
▁참가 하는
▁촉 촉
하거나 ,
▁국무 장관
▁어린이 들이
▁인수 한
▁P GA
▁이루 고
▁신고 한
▁잃 었다.

▁의무 적으로
▁개최 를
▁언급 하지
▁자녀 가
▁쿠 바
▁법무 부는
▁소설 을
▁선보 여
▁선보 인
▁시청 자
▁내세 우는
▁안타 를
▁도전 하는
BS )
▁자율 형
▁출발 해
▁권력 의
▁돌아가 셨
▁일으 켜
▁빛 이
▁애플 이
▁상임 고
▁위치 에
▁상징 하는
▁흑 자
▁민족 의
라운드 에서
신문 은
▁넥 슨
▁연계 해
▁정치권 에
▁거에 요

▁일제 강점
▁워싱턴 포스트
an d
▁자세 한
▁용산 구
(한국 시각)
▁천구백 구십
▁괜찮아 요.

▁가이드 라인
▁정무 수석
▁영업이익 은
드로 이드
▁간담 회
▁각오 를
▁자영업 자
▁신조 ()
▁들어선 다.

▁아시안 게임
▁노하우 를
▁마이너 스
▁공영 방송
▁소홀 히
▁조속 히
▁플로 리다
▁에스엔 에스
▁오키 나와
▁통폐 합
' ...
( 중국
- 김
T A)
o m
o p
▁ 셔
▁ 펀
가 입
가 량을
검 증
겠 네요.

경 선
급 한
끔 

나 ?
노 스
더 러
리 츠
리 라는
리 서치
마 리를
먹 을
메 가
며 

문 도
문 화를
미 한
방 안을
병 원에서
보 육
보 이
분 께
상 환
서 야
선 한
성 년
손 으로
쉬 운
스 피
시 절
아 침
앤 드
약 한
였 기
인 상
일 까
있 게
저 런
적 이라고
조 6
조 림
지 배
차 이나
창 의
채 가
총 연맹
치 와
커 스
크 림
크 의
클 린
테 스트
팀 장
페 스티벌
편 성
하 산
항 쟁
해 지면서
했 더니
▁이 불
▁이 사는
▁이 산화
▁대 권
▁대 여
▁대 파
▁대 가를
으로 서는
▁사 표를
▁지 수
▁한 시
▁수 월
▁수 사는
▁가 나
▁전 작
▁시 인이
▁시 인은
▁기 한
▁거 치지
▁“ 국제
▁“ 개인
▁자 궁
▁다 해
▁다 행이
▁네 이
▁‘ 물
▁‘ 빅
▁‘ 세계
▁일 회
▁인 력이
▁주 름
▁주 위
▁등 )
▁중 점을
▁해 에
▁해 봐야
▁국 유
▁내 몰
▁내 리고
▁공 관
▁부 수
▁부 장은
▁오 락
▁오 차
▁없 잖아.

▁위 생
▁고 3
▁고 도
▁고 대로
▁조 정을
▁의 욕
▁비 전
▁있는 지

▁3 000만원
▁3 단계
▁소 폭
▁소 개를
▁연 례
▁유 동성
▁" 비
▁" 세
▁서 방
▁서 정
▁최 적의
▁' 안
▁원 대
▁요 건을
▁신 안
▁신 성장
▁무 분
▁동 포
▁구 치
▁구 성을
▁발 족
▁도 모
▁반 격
▁반 전
▁재 첩
▁5 번
▁실 명
▁실 체
▁계 급
▁계 류
▁성 동
▁영 리
▁장 점을
▁장 소에서
▁한국 당
▁한국 도
▁박 희
▁차 등
▁차 질
▁두 시
▁두 고

▁했 었다.

▁20 ~30
▁좋 았다.

▁못 했다”고
▁열 을
▁열 풍
▁과 외
▁달 랐
▁확 고한
▁들어 요.

▁배 분
▁배 수
▁삼 월
▁검 사는
▁살 았던
▁7 9
▁금 세
▁양 측
▁에 코
▁포 리즘
▁법 령
▁파 문
▁합 창
▁번 을
▁피 난
▁피 를
() 과
▁드 래
▁드 디어
▁그냥 .

▁관계 자들의
▁줄 여야
▁논 리를
▁씨 도
▁이날 은
▁가능 하다는
▁산 불
▁넘 겼
▁필요 성이
▁야 기
▁야 스쿠니
▁함께 하는
▁식 용
▁식 이
▁환 전
▁표 방
▁리 처
▁최근 엔
▁절 도
회의 가
▁카 자흐
▁허 

▁맛 이

▁형 님
▁형 평
▁학교 로
▁메 신저
▁순 으로
▁백 화
▁눈 빛
▁사이 코패
▁온 도
▁계획 "이라고
▁삼성 동
▁삼성 생
주의 와
들에게 는
▁핵 탄
▁이유 가

▁트 랜
▁커 져
▁접 한
다. ”(
▁철 폐
▁철 학을
교육 이
▁운영 해
▁베 이스
센터 ,
▁팔 고
▁이용 객
▁골 키퍼
▁찾아 와
▁찾아 왔다.

▁찾아 가는
▁16 0
▁십 구
▁나타 내는
▁투자 해
▁엄마 의
▁선거 가
▁외교 장관
▁강조 한다.

▁송 영
▁마련 하고
▁폐 막
▁패 스트
▁황 우
▁물론 ,
▁우려 

단체 장
▁주민 등록
▁언론 사
▁으 으
(5 9
▁추가 적인
▁전문가 가
▁역사 학
달러 로
▁헌 재는
▁해결 하는
▁작품 으로
▁힘들 고
5% 로
▁있는데 도
▁핵심 적인
▁증가 하고
▁상대 의
인가 .

(6 1
▁각각 의
▁확보 하고
▁뿐 ,
▁저기 

시장 ,
▁설치 한
▁제기 된다.

▁국민의 당이
▁아버 지를
▁징 후
▁스타 일이
▁1년 여
▁많아 서
▁오바마 는
▁콘 크리트
▁정신 과
▁웃 는
▁트럼프 의
▁모르겠 어.

▁연결 이
▁달리 ,
▁대화 의
▁당선 된
▁거부 할
▁뜨 겁게
▁원내대표 도
▁올림픽 에
▁자동차 를
▁언어 가
▁지켜 봐야
▁수익 이
▁챙 겼다.

▁단계 로
카드 의
▁희망 이
▁한나라당 의
▁기다 려
▁소송 에서
▁방안 은
▁기관 의
▁평화 의
▁사라 졌다.

▁동아 리
▁비행 기를
▁닭 고
▁아닌가 요?

▁특검 이
▁레이 저
▁올리 며
▁아내 와
▁탐 구
▁인생 의
▁버스 에
▁개편 을
▁통계 청
▁연대 보증
▁이승 만
▁새벽 에
▁업계 에서는
▁마케팅 을
▁수수 료를
▁일자 리가
▁일어 났다.

▁시키 고
▁데뷔 한
▁KT X
▁컬 러
▁철거 민
▁창조 경제
▁샤 워
▁"지 금
▁요기 다
▁받아들이 지
▁털어 놨다.

▁브리핑 을
▁행정부 의
▁본회의 에
▁취득 세
▁방사 능
▁메모 리
▁냉장 고
▁뛰어넘 는
▁일간 지
▁신동 빈
▁못지않 은
▁아사 히
▁워크 아웃
▁이완 구
▁대지 진
▁플루 토
▁에프 티
▁버무 려
▁시국 선언
탈루 냐
▁에피 소
& C
( b
- 8
2 명
G C
l a
l d
· K
· 러
· 상
· 문화
· 경기
▁ 픽
가 요
가 량이
개 에
거 야

게 도
겠 지만,
결 국
공 이
과 정을
광 화문
구 장에서
기 (
기 )
년 도에
니 ,
되 는

론 도
망 의
메 라
밀 러
발 레
발 사
버 리는
보 로
본 다.

분 한
비 밀
사 관
생 들이
셨 는데

시 다.

신 

아 지
업 에
연 봉
오 ()
올 로
와 도
우 와
워 킹
인 ’
일 곱
일 보는
주 식
총 선
크 는
터 미널
투 표를
티 시
팀 에서
판 은
하 다면
하 십니까?

학 대
화 장
후 배
훈 의
▁이 송
▁이 씨
▁이 사를
▁이 들과
▁그 보다
▁있 더라고

▁대 남
▁대 의
▁대 국민
▁아 키
▁아 리랑
▁하 잖아.

▁하 며,
▁한 복
▁전 복
▁전 역
▁전 진
▁정 모
▁정 황을
▁보 다.

▁시 점이
▁기 사가
▁거 랑
▁거 기도
▁“ 의
▁“ 입
▁“ 19
▁나 어
▁나 가지
▁자 질
▁자 세로
▁‘ 개
▁‘ 뉴
▁‘ 적
▁일 이라고
▁일 들을
▁인 질
▁인 구는
▁주 기로
▁중 증
▁해 를
▁해 법
▁국 공립
▁내 며
▁내 장
▁내 준
▁공 작
▁부 품을
▁안 쪽
▁예 ?

▁오 게
▁없 다면
▁고 갈
▁상 급
▁의 도를
▁관 해
▁비 리를
니까 .
▁만 원
▁연 고
▁연 초
▁연 기가
▁유 격
▁유 방
▁유 브
▁미 끄
▁되 거든요

▁되 거든요?

▁저 번에
▁" 새
▁" 신
▁서 명을
▁문 서를
▁문 건을
▁' 2
▁' 동
▁' 명
▁' 시
▁' 원
▁' 정
▁원 장의
▁요 소를
▁무 거
▁무 단
▁무 언
까지 .

▁통 하는
▁통 째로
▁구 도
▁구 명
▁발 주
▁불 량
▁받 으면서
▁도 출
▁반 해
▁재 선
▁재 수
▁실 감
▁실 태를
▁박 물
▁박 차를
▁알 고

▁알 리고
▁차 남
▁차 종
▁차 관이
▁회 색
▁회 식
▁20 개국
▁20 세기
▁따 냈다.

▁입 문
▁입 체
▁6 000
▁6 시간
▁출 루
▁확 고
▁물 은
▁외 고
▁집 도
▁직 장에서
▁민 감
▁명 분을
▁청 담
▁역 사는
▁금 리는
▁막 강
▁막 힌
▁에 드
▁중국 산
▁간 병
▁간 신
▁초 까지
위원 장의
위원 장과
▁9 만
▁만들 려고
▁임 직
▁임 무를
▁논 평을
▁관련 기사
▁활 짝
▁준 다고
▁왜 ?
▁채 권을
▁손 꼽
▁화 합
▁목 이
▁친 인척
▁크 다"고
▁각 광
▁환 상
▁누 락
▁누 비
▁사업 장
▁이어 지
▁지역 별
▁경제 위
▁최근 의
▁기업 으로
▁승 격
▁광 물
▁끝 내고
▁백 남
▁눈 부
▁사이 에

▁온 도가
▁발표 하는
▁발표 하고
▁알려 지면서
▁거기 까지
이었 지만,
▁선생님 한테
▁지적 한
▁조금 이라도
▁진행 을
▁면 도
▁보인 다"고
▁보인 다”며
▁과정 의
▁이용 해서
▁확인 하기
▁낮 았다.

▁수사 관
▁투자 에
▁왔 다는
▁죽 고
▁죽 인
▁극 우
▁극 대화
▁올라 갔
▁폐 지를
사업 의
▁오후 에
▁방송 사
▁자유 선진
▁기대 에
▁기대 하는
▁희 귀
▁말이 야.

▁전문가 인
▁서울시 립
▁서울시 향
▁역사 와
▁역사 적인
이지 리아
▁예상 하고
▁논의 하는
▁플 러스
하자 마자
▁없었 어요.

▁이해 하고
▁도입 하는
▁지나 고
▁있다 고

▁적용 된다.

▁시절 의
▁재판 관
▁50 만
▁클 라우드
▁조선 왕
▁흔 적이
▁밤 늦게
▁업무 가
▁질문 에는
▁6월 부터
▁끓 고
▁묻 고
▁됩 니다
▁설치 하는
▁공연 은
▁수출 은
▁비교 할
▁공무원 들이
만큼 이나
▁사례 로
▁꼽 혔다.

▁믿 지
▁도시 의
▁연결 되는
▁차례 에
▁공부 하고
▁중단 된
▁땅 이
▁0. 2
▁공급 할
▁당선 인의
▁거부 했다.

▁수입 이
▁걔 도
▁노력 하는
▁야당 과
▁소개 하는
▁엔 지니어
▁제한 을
·2 6
스럽 다.

수록 

▁대변 인이
▁뿌 듯
▁시각 이
주택 공사
▁전달 한
▁팬 이
▁가정 폭력
▁공간 에
▁실패 했다.

▁희망 의
▁B BC
▁압박 했다.

차례 에
▁사라 져
▁사라 질
▁가치 관
본부 장
대책 위원회
▁봄 철
▁한화 그룹
▁재료 로
▁근거 를
▁개입 을
▁액 수
▁혜택 이
.7% 로
▁벤 츠
▁제목 이
▁케 네
▁구입 할
▁수용 할
▁센 치
▁초반 에
▁초반 부터
▁전북 은
▁바다 에
▁거리 에서
▁나누 고
▁짐 을
▁특징 은
▁민주주의 의
▁500 m
▁동반 자
▁접촉 을
▁이슈 가
▁런던 올림픽
▁출판 사
▁체계 적인
▁차이 로
▁만났 을
▁정기 적으로
▁법조 계
▁오빠 가
▁인턴 십
▁대답 을
▁편안 한
▁가깝 다.

▁두려 움
▁젊은이 들이
▁부른 다.

▁"우 리는
▁배워 야
▁교도 소
▁해설 위원은
▁진지 하게
▁대다 수
▁접어 들
▁서울고 법
▁기숙 사
레일 리아
▁모터 쇼
▁오오 

▁덴 마크
▁한명 숙
▁서대문 구
▁결선 투표
셀로 나
▁민주노동 당
▁구조조 정을
▁온실 가스
▁경제협력개발기구(O ECD)
드베 데
▁원내수석 부
% ,
% 에
( 중
( 국제
( 당시
1 000
2 개
3 4
4 1
h t
· 부산
” 을
▁ b
▁ p
▁ ’
▁ 롱
▁ 졌다.

강 남
광 역
구 장
군 다
금 액
금 에
나 지
난 다.

납 니다.

농 업
는 지도
능 력을
단 장
달 이
당 하는
데 요

돌 아
됐 다
드 라고

떻 게
르 드
마 케팅
만 명의
메 리
명 

미 우리
베 리
보 전
볼 넷
비 용을
뿐 이었다.

세 인
소 방
손 해
시 스트
어 ,
어 에
언 스
었 어

었 지만,
에 )
역 량
연 주
왕 이
우 수
으 시면
음 과
있 다.

재 단이
적 이라는
적 이었다.

전 환
절 로
주 신
줄 기
착 륙
책 의
천 시
치 료를
카 드는
클 리
키 의
터 로
통 행
티 는
포 도
하 든
학 은
해 튼
협 은
▁이 명
▁이 전을
▁이 씨가
▁이 만큼
▁그 다지
▁있 다.”

▁대 주
▁아 깝
▁사 단
▁사 설
▁지 루
▁지 에스
▁하 지.

▁한 방
▁한 약
▁한 다"는
▁수 거
▁수 동
▁1 억원
▁정 면으로
▁2 점
▁2 20
▁2 명은
▁2 위로
▁보 수를
▁거 취
▁거 액의
▁“ 더
▁“ 물
▁“ 경찰
▁나 갔다.

▁‘ 문
▁‘ 현
▁‘ 조선
▁일 차
▁인 스타
▁인 구의
▁주 범
▁주 제는
▁경 로
▁중 환자
▁말 라는
▁말 하기도
▁부 의
▁때 인
▁오 .
▁오 라고
▁우 익
▁위 상을
▁고 난
▁상 습
▁상 표
▁조 국
▁조 업
▁선 에서
▁관 점
▁관 행을
▁비 관
▁비 선
▁만 일
▁미 쳐
▁되 기도
▁" 올
▁" 조
▁" 주
▁뭐 였
▁같 다고
▁많 게는
▁' 진
▁요 시
▁방 을
▁무 대로
▁동 요
▁구 사
▁구 상을
▁아니 다”라며
▁발 부
▁강 점
▁강 타
▁진 흥
▁당 권
▁현 장의
▁재 차
▁실 습
▁한국 형
▁한국 토지
▁노 골
▁박 주영
▁이런 저런
▁남 측
▁남 았다.

▁지금 처럼
▁했 다"며
▁했 습니다

▁했 거든요.

▁했 어야
▁20 년간
▁추 궁
▁못 하겠
▁열 정을
▁따 르는
▁특 례
▁맞 선
▁새 삼
▁새 콤
▁들어 가지
▁단 연
▁집 값이
▁잘 한
▁배 로
▁뒤 따
▁삼 일
▁같은 데?

▁그렇 긴
▁북 의
▁10 6
▁7 ~8
▁금 액이
▁데 에
▁간 다.

▁합 산
▁8 0여
▁19 세기
▁본 회의에서
▁9 6
▁높 다고
▁만들 면
▁밝혔 다고
▁국민 에
▁준 수
▁취 할
▁손 님이
▁손 바닥
▁각 국의
▁책 상
▁협 업
▁시간 강
▁환 자들이
▁표 면
▁표 출
▁버 블
▁버 리지
▁힘 겨
▁경제 민주
▁복 사
▁지원 ,
▁국가 적
▁군 부
▁권 위를
▁얘기 하면
▁경찰 서
▁대학 들이
▁나오 는데
▁검찰 과
▁놓 여
▁놓 을
▁백 신
▁계획 도
주의 적인
▁거기 서

이고 요.

▁와 야
▁직접 적으로
▁돌아 간
▁돌아 갔다.

▁확인 해야
▁브 레
▁범 위가
▁장관 도
▁전체 적인
▁탈 당을
▁떨어 진다.

▁십 칠
▁먼 지
▁비판 한
▁뜻 밖
인데 요

▁머 리에
▁올라 섰다.

▁이름 의
▁같애 요

업체 와
단체 인
▁어느 새
▁언론 인
(5 8
▁판매 한다.

▁귀 환
▁서울시 내
▁드러 내는
▁들어가 서

문화 예술
▁얘기를 

▁기간 은
▁참석 할
▁붙 는
▁무슨 

▁플 러
▁이뤄 져야
▁이러 니까

하려 다
▁일단 

(6 9
▁현실 에
▁현실 은
▁경험 과
▁뿐 이
▁자리 잡
▁낙 선
▁제작 에
▁차지 한다.

▁움직 이
▁국민의 당은
방송 을
▁부족 해
▁사랑 이
▁서로 를
▁주택 을
▁다니 던
▁되겠 다.

▁진출 에
▁갈등 의
▁무엇 인지
▁거부 한
▁숙 소
▁상품 이
▁납 북
▁어머니 의
·2 5
▁하면서 도
▁F IFA
▁뿌 리를
▁지켜 본
▁제도 다.

▁축구 의
▁그룹 이
▁B MW
▁국회의 장
▁등장 한다.

▁루 이
▁곤 혹
▁기다 렸
▁노조 가
▁안정 적으로
▁쏟아 지는
전문 대학원
▁나무 를
▁고교 생
▁간단 히
▁측면 도
했다 며
▁진술 했다.

▁전용 면적
▁충돌 이
▁체결 한
▁예비 후보
▁느껴 지는
했는데 도
▁자원 봉
▁이스라엘 의
▁박사 학
▁면접 을
▁에스케이 (SK
▁이슬람 국가
▁없애 는
▁놔 두
▁맹 활
▁이천십 오
▁알겠 습니다

▁줄어든 다.

▁부장 판
▁한- 중
▁해양 수산
▁가득 한
▁그녀 의
▁명확 하게
▁쥐 고
▁KIA 는
▁무리 하게
▁앞세 운
▁신속 한
▁살해 한
▁부사 장
▁류현 진
▁객관 적인
▁간담 회에서
▁국토해양 부
▁“다 만
▁벗어 날
▁못지않 게
▁마크 롱
▁호응 을
▁적합 한
▁국군 포로
▁작곡 가
▁퓨 레
▁하버드 대
▁스피드 스케이팅
▁후쿠 시마
▁상반 기에
▁구자 철
▁한국전 력
▁실장 님이
▁가벼 운
▁심포 지엄
▁게이 츠
▁국제통화 기금
▁뉴욕타임스(N YT
▁번갈 아
& G
( p
( 美
( 신
( 승점
. ’

3 2
L )
T I
e a
g o
i r
m )
s )
~ 50
· 도
· 원
· 홍
∼ 10
▁ 째
공 약
공 의
과 제
과 대학
구 니
국 장이
군 요?

권 에서
극 장에서
근 이
금 ,
금 지법
나 드는
날 이
념 을
누 가
더 군요.

돈 이
동 부
두 로
들 입니다.

디 움
떨 어진
리 바운드
먹 고
모 토
법 관
분 ,
생 계
설 비
성 공
스 프
시 스
식 ,
실 천
십 쇼
쓰 는
애 니
여 고
연 도
예 요

예 요.
원 )
위 ),
이 와
적 이지
즈 니
총 액
추 를
카 를
카 페
키 로

타 리
타 와
티 비
평 이
피 가
하 루
하 느라
항 이
해 준다.

현 을
혈 을
회 장은
▁이 방
▁이 기는
▁그 제
▁대 안이
▁아 라
▁사 대
▁사 인
▁사 우스
▁지 었다.

▁지 사가
▁하 더라고
▁한 전
▁수 당
▁수 직
▁1 루
▁어 이
▁가 는데
▁전 광
▁전 에도
▁정 류
▁정 문
▁정 현
▁정 황이
▁2 승
▁보 살
▁시 너지
▁기 권
▁거 둘
▁거 치
▁거 리에
▁“ 4
▁“ 장
▁다 니다
▁다 국적
▁‘ 국
▁‘ 두
▁‘ 저
▁‘ 탈
▁주 유
▁등 에게
▁말 기
▁말 하지
▁부 인이
▁안 병
▁여 사
▁여 배우
▁않 더라도
▁없 이는
▁고 공
▁고 를
▁고 기는
▁조 성을
▁비 정상
▁3 000만
▁소 모
▁연 립
▁유 머
▁미 나
▁미 ·중
▁" 저
▁" 제
▁" 모든
▁서 는
▁문 재
▁그래 픽
▁교 란
▁많 지만
▁원 )의
▁이제 는

▁세 웠
▁방 이
▁무 이
▁분 량
▁통 보를
▁구 월
▁우리 보다
▁우리 은행
▁아니 .

▁발 목
▁발 병
▁강 북
▁강 서
▁강 성
▁당 혹
▁현 안에
▁4 시간
▁4 명의
▁불 쾌
▁받 도록
▁도 구
▁도 매
▁도 울
▁도 피
▁재 일
▁5 000만원
▁계 곡
▁계 단
▁계 승
▁더 한
▁장 소를
▁한국 인이
▁한국 은행
▁학 사
▁후 기
▁후 라이
▁노 려
▁박 아무개
▁알 렸다.

▁추 방
▁생각 했다.

▁생각 했던
▁열 한
▁대통령 직
▁서울 메트로
▁물 품
▁정부 조직
▁단 어가
▁외 로
▁외 벽
▁외 치며
▁평 가는
▁명 인
▁청 와대로
▁총 액
▁검 열
▁살 림
▁살 리는
▁7 개월
▁양 국이
▁포 기를
▁프 랭
▁번 영
▁번 번이
▁8 개월
▁점 프
▁201 8
▁9 5
▁9 00
▁일본 도
▁치 아
▁취 지를
▁채 울
▁손 연
▁화 면을
▁하나 .

▁규 제가
▁환 급
▁속 출
▁이어 서
▁지원 했다.

▁상황 으로
▁절 충
▁업 계의
▁권 영
▁권 익
▁얼 어
▁보고 서에
▁잡 아야
▁부분 들이
▁있을 까?

▁계속 되고
▁선수 들
▁전문 의
▁이거 는

▁눈 높
▁눈 치를
▁태 도가
▁발표 하면서
▁중요 하지
▁최고 치를
▁커 서
▁평가 에
▁평가 할
나라 당
▁년 도
▁그럼 요
▁주장 

▁금융 시장
▁면 죄
▁팔 백
▁떠 넘
▁탄 력을
▁이용 하면
▁돌아 다
▁돌아 오는
▁장관 급
▁전체 에
케이 블
▁터 에
▁그러면 ?

▁왔 어요.

▁위원 장과
▁위원 회는
▁모습 도
▁뉴 타운
▁죽 었
▁소비 를
▁회사 와
▁책임 은
▁황 태
업체 들은
▁주민 의
민주 당이
▁기대 했다.

▁강화 하기
▁뛰 었다.

▁제품 으로
▁활동 도
▁사진 으로
▁이뤄 진다.

▁환경 에서
▁공격 이
▁효과 적으로
하려 던
▁되고 요

▁도입 해
▁있다 면

▁업체 의
▁업체 인
▁격 인
▁사무 실에
▁상대 가
▁적용 을
▁적용 한
▁한편 으로는
▁사실은 .

(6 7
▁이야기 할
▁우선 은
▁갑 질
▁확보 하는
▁저기 ~
▁있게 

▁선택 해
▁시행 된
▁받았 을
▁산업 의
▁끓 일
▁정권 교체
▁5월 부터
▁색 이
▁술 도
▁펼 칠
▁러시아 가
▁가입 할
▁상승 한
▁왕 자
▁198 1년
▁당선 자
▁당선 인이
▁협력 해
▁숙 제
반도 체
▁사태 로
▁방향 이
▁올림픽 에서
▁2009년 부터
▁M L
▁대기업 에
▁대기업 이
▁근무 를
▁팬 들이
▁가정 에서
▁공간 에서
▁솔 루션
▁억 압
▁있겠 지만

한다 '는
▁음식 점
▁시설 이
▁쪼끔 

▁겨울 에
▁몰라 .

▁그쵸 ?

대책 을
▁월드컵 에서
▁쿠 웨이트
▁신문 에
(I S
▁선보 일
교육청 이
▁말고 도
▁여름 철
▁밖 에도
▁선진 화
▁일어나 고
▁벌써 부터
시킨 다.

▁골프 를
▁액 션
.6% 로
▁마늘 을
▁옥 상
▁옥 수수
▁◇ "
▁비난 했다.

▁공항 에
▁승리 했다.

▁자본 주의
▁휴대전 화를
▁애초 에
▁초대 형
▁영역 에서
▁흐름 이
▁섭 외
플레이 션
▁은퇴 를
▁떠올 리게
▁표시 했다.

▁외환 은행
▁소방 관
▁거주 하는
▁개성 공
▁그르 니까
▁리더십 을
▁데이터 를
▁아니에 요

▁신한 금융
▁1심 에서
▁탈락 한
▁부총 리는
▁버디 를
▁신입 생
▁내걸 고
▁사우 디아라비아
▁신흥 국
▁재미있 게
▁프랑 크푸
▁스카 우
▁회고 록
▁"현 재
▁베스트 셀러
▁모양새 다.

▁폭넓 게
▁이순 신
▁맞물 려
▁막걸 리
▁3.3 m2당
▁주한미 군
▁청양 고추
맞춤 형
▁태스크포 스(
▁마이크로 소프트
▁문체 부
▁엘지(L G)
▁카자흐 스탄
( 시
( 제
2 000원
; "
R S
i f
· 청소년
’ 까지
▁ &
▁ s
▁ 닷
▁ 란
▁ 져
가 야
가 면서
값 은
거 지

검 사를
교 도
구 매
국 수
권 으로
급 의
날 레
내 면
냈 다고
너 는
느 라고
단 속
대 중
된 

론 조사
리 에서
마 일
말 은
말 리아
매 수
무 진
반 의
방 학
벌 레
베 스트
병 의
본 이
봤 습니다.

부 머
부 부
불 교
블 록
블 리
비 디오
산 과
서 니
서 류
선 

소 장
숨 에
스 콘
스 쿨
씩 을
아 삭
았 다는
야 마
업 계가
었 어요

연 차
염 이
우 먼
원 조
원 장은
윤 회
음 으로
일 자리
잖 습니까?

정 비
제 도가
종 범
주 곡
주 행
증 세
증 은
지 .
지 사가
지 사는
집 은
차 도
창 을
철 이
청 과
체 포
카 와
탄 이
토 벤
특 정
팀 과
파 워
포 에
하 의
하 지만

하 네요.

해 선
했 죠.

휴 지
▁이 근
▁이 년
▁이 지
▁그 릴
▁대 면
▁대 졸
▁대 사가
▁아 미
▁사 년
▁사 도
▁사 시
▁지 니
▁지 만
▁하 우스
▁하 더라고요.

▁수 반
▁수 은
▁1 순
▁가 동을
▁것 까지
▁전 향
▁전 기를
▁정 립
▁2 ·3
▁보 장을
▁시 립
▁기 둥
▁거 든
▁거 잖아

▁거 두고
▁“ 성
▁“ 임
▁자 이
▁네 팔
▁‘ 6
▁‘ 메
▁‘ 임
▁일 등
▁일 산
▁일 입니다.

▁주 상
▁등 지에서
▁등 급을
▁중 개
▁중 년
▁제 왕
▁해 줘야
▁국 익
▁국 정을
▁공 학
▁부 응
▁부 장이
▁안 에서도
▁오 디션
▁우 아
▁여 력이
▁여 부와
▁없 고.

▁의 사는
▁선 점
다” ,
▁관 저
▁3 연
▁3 명은
▁3 연패
▁모 리
▁연 중
▁연 관이
▁유 래
▁미 시간
▁되 지.

▁저 에게
▁개 소
▁교 역
▁' 노
▁' 다
▁원 룸
▁방 글라데
▁신 의
▁신 차
▁무 르시
▁동 점
▁동 유럽
▁구 성이
▁우리 말
▁그러 는데
▁발 매
▁진 한
▁진 심으로
▁당 정
▁4 ,
▁4 층
▁4 학년
▁불 린
▁결 단을
▁도 를
▁반 문
▁반 ()
▁장 려
▁학 회
▁박 수로
▁남 매
▁알 렉
▁감 사의
▁입 장은
▁입 수한
▁6 대
▁할 리우드
▁적 임
▁적 폐
▁맞 출
▁맞 섰다.

▁물 밑
▁외 에는
▁문제 는

▁작 전을
▁매 장을
▁민 자
▁것이 다.”

▁총 장을
기를 

▁양 당
▁에 티오피아
▁포 토
▁법 의
▁프 란
▁합 친
▁피 임
▁드 립니다.

▁투 기
▁본 회의를
▁위해 

▁9 개월
▁경우 에

▁운 반
▁관계 자도
▁치 중
▁담 그
▁담 는
▁갖 지
▁친 절
▁친 화
▁산 이
▁아이 스크
▁넘 어야
▁세계 경제
▁체 질
▁시작 이
▁협 약을
▁환 불
▁[ 유
▁[ 대구
▁싶 고

▁사업 비
▁표 지
▁이어 갈
▁있었 으면
▁절 박한
▁승 소
▁보고 한
▁11 년
만원 이
▁돈 의
▁내용 이었다.

▁쪽 도
▁계속 되는
▁백 오십
▁전문 가는
▁사이 를
▁거기 

▁코 미디
▁사용 자가
이었 다"고
▁이야 기도
▁받아 온
레이 크
▁기록 하는
▁면 모를
▁디 스크
▁추진 한다.

▁결정 된
▁문화 부
▁문화 적
센터 와
▁경쟁 에서
▁수준 은
▁수사 권
▁봐 서

▁요즘 엔
▁국정 원이
▁대선 이
▁책임 질
▁마련 해야
▁몸 은
▁노동 자의
▁17 개
▁25 개
시키 려는
▁name 5
▁싸 움을
▁러 브
(4 3
▁한번 도
▁강화 할
▁않아 서
▁발생 하지
경제 연구소
▁붙 이는
▁퍼 부
▁판단 하고
▁울 릉
▁겁 니다.
▁언니 도
▁우승 했다.

하다 가

▁방문 객
▁방문 했다.

▁서비스 는
▁찬 물
▁성장 하는
▁롯데 의
▁깨 소
적이 고

지역 으로
(6 8
▁나서 지
▁경험 도
▁밤 을
▁업무 에
▁개정 안이
▁정권 교
▁정권 은
▁대응 에
▁빈 도
▁잘못 한
▁프랑스 에서
▁관련해 선
▁콘 퍼런
▁맨 해튼
▁주시 겠어요?

▁봉 쇄
과학 원
▁다르 다는
▁품 격
▁반영 하는
▁은행 들이
▁시스템 은
▁필요하 다"고
사진 을
▁고객 을
▁단체 는
▁납 세
▁실시 하고
▁좋겠 다
▁2007년 부터
▁누구 보다
▁전환 할
▁국무 회의에서
▁입장 에선
▁끼 칠
▁전통 적으로
보험 에
▁공간 으로
▁단계 에
▁칼 칼
▁인수 합병
▁회복 을
▁줘 도
하라 "고
▁국립 중앙
▁평화 와
▁깔 아
▁모델 이
▁전자 발찌
▁드라마 를
▁미술 관
▁기념 해
▁섞 인
▁재료 가
▁차량 에
▁바라 보고
▁위협 을
▁위협 하는
▁그치 지
▁도로 를
▁김정 남
▁예방 접
▁뒤에 야
▁명예 를
▁제목 으로
▁받아들 인
▁인물 로
▁돌아가 신
▁전면 에
▁거론 된다.

▁일으 킬
▁콩 쿠르
▁공직 선거
▁도발 에
▁벽 을
▁모임 인
▁동생 이
이랑 

▁느껴 지
▁잇따 르고
▁데다 ,
▁기여 한
마저 도
▁세상 에

▁곡 을
▁김정은 의
▁스님 의
▁것들을 

과정 에서
▁증언 을
▁통보 했다.

▁떠오 르는
▁입장에서 는

▁식품 의약품
▁급증 했다.

▁교육감 은
▁서초 동
▁지방선거 에서
▁내정 자는
·전 남
▁물가 상승
▁것인가 .

▁비박 계
▁파이 낸셜
▁개인정보 를
▁로스 앤
▁상무 는
▁이외 에
▁게시 판
위안 부
▁먹으 러
▁매력 적인
▁이렇 다
▁것” 이라는
▁담보 로
▁가전 제품
▁재활 용
▁노릇 을
▁85 m2
▁비닐 봉
▁장성 택
▁연루 된
▁돌고 래
▁태어 났
▁특조 위
▁걸림 돌이
▁송파 구
▁오승 환
▁해병 대
▁톡톡 히
▁알레 르기
(中 )
▁꼬집 었다.

▁우즈베 키스탄
▁무작 정
▁김문 수
▁블라디 미르
(R& D)
( 기
8 5
> 와
P 는
U V
c e
p p
· 저
· 교육
∼ 2
▁ m
▁ 섰
▁ 았다.

가 슴
가 인
각 각
교 동
구 간
구 리
구 에서
권 익
규 가
규 칙
그 네
길 래
나 서
니 ?

대 기
데 스크
독 을
동 포
된 다면
드 에
렌 즈
률 도
리 던
매 치
명 대
무 장
무 지
물 인
미 드
밀 리
방 법
부 동산
블 랜드
사 ()
사 항을
색 으로
섬 유
셨 을
소 스
승 장
시 한
아 들
아 찌
어 스
언 이
엄 마
에 야
여 행을
영 장
요 구
우 울
유 공
유 리
인 지를
입 찰
자 동
자 라고
장 면
재 와
전 에는
조 원을
좌 파
줘 서
증 에
지 니까

직 업
진 

측 근
치 아
콜 라
클 래식
틀 랜
해 고
해 가지고
호 에
회 전
▁그 로
▁그 칠
▁있 다"는
▁대 국
▁대 포
으로 선
▁사 임
▁사 주
▁사 항을
▁하 반
▁하 라는
▁하 자

▁한 반
▁한 수원
▁1 군
▁1 .8
▁어 마
▁어 져
▁가 .

▁가 디언
▁전 속
▁전 까지는
▁정 경
▁2 인
▁보 니까.

▁시 대는
▁기 어
▁기 형
▁거 치며
▁“ 서
▁“ 왜
▁“ 이는
▁“ 삼성
▁나 만
▁나 보다
▁자 리는
▁다 자
▁‘ K
▁‘ 왕
▁일 행
▁일 대에서
▁인 내
▁주 권
▁주 를
▁등 에서는
▁경 성
▁경 계를
▁중 에서는
▁제 국
▁국 면
▁내 로
▁공 세
▁오 디
▁오 재
▁오 전에
▁오 하이
▁여 동생
▁없 지만

▁상 여
▁조 영
▁조 그만
▁3 곳
▁만 루
▁연 인
▁유 정
▁유 지를
▁되 냐
▁되 어서
▁" 유
▁" 200
▁서 기
▁서 두
▁문 장
▁마 라
▁마 오
▁교 류를
▁' 마
▁' 잡
▁원 만
▁원 )를
▁원 희룡
▁세 인트
▁신 영
▁신 도시
▁무 치
▁무 실점
▁분 에서
▁통 깨
▁동 국대
▁구 미
▁진 주
▁당 에
▁불 분
▁불 행한
▁도 내
▁재 연
▁재 외
▁5 00만원
▁5 ~6
▁영 세
▁영 수
▁영 어를
▁장 충
▁한국 ,
▁박 철
▁박 수를
▁남 겼
▁남 동
▁남 자의
▁스 톡
▁스 리랑카
▁알 루미
▁생각 한다”며
▁못 했다는
▁대통령 실
▁대통령 이

▁따 지고
▁6 명이
▁과 감하게
▁달 간
▁서울 역
▁응 ~
▁참 패
▁물 꼬
▁들어 설
▁단 숨에
▁직 영
▁문제 제
▁매 월
▁매 콤
▁앞 바다
▁북 아
▁살 다
▁막 히
▁에 버랜드
▁법 대
▁법 칙
▁파 손
▁피 클
▁8 명이
▁언 덕
▁정도 ?

▁9 1
▁높 을
▁운 이
▁돌 리고
▁교육 문화
▁화 폐
▁돼 요?

▁목 욕
▁넘 기는
▁크 기로
▁세계 로
▁각 자의
기에 

▁협 찬
▁애 도
▁환 산
▁싶 다
▁국가 로
▁절 제
▁승 승장
▁군 이
▁권 력이
▁완 치
▁얼 른
▁날 로
이라는 

▁자신 감이
▁연구 용
▁경찰 ,
▁맛 과
▁됐 다
▁됐 고,
▁메 드베데
▁항 해
▁말씀 은
▁놓 았다.

▁백 제
▁준비 하셨
▁온 다
▁코 팅
▁좋은 데
▁저희 도
▁월 간
▁요구 

▁선생님 들이
▁그럼 요.
▁예정 돼
▁로 이터
▁와 중에
▁과정 과
▁문화 와
▁팔 려
▁별 미
▁돌아 서
▁돌아 올
▁브 래
▁급 히
▁수사 의
▁투자 은행
연구 원이
▁가족 들은
▁영화 에서
▁둘 레
▁요즘 

▁윤 상
▁마련 돼
▁마련 하는
▁자체 도
▁같애 요.
▁25 00
▁쉽 고
▁A 씨는
▁황 제
▁주민 과
▁침 입
▁테 임
▁테 니스
▁휴 업
▁강화 에
(5 3)
(5 4)
▁S TX
▁발생 하고
▁딱 히
▁직원 들
▁없어 도
▁퍼 뜨
▁논의 에
▁넣어 주시고

▁없었 기
▁없었 다는
▁프로그램 의
▁삶 아
▁방문 하는
▁건강 하게
▁지나 는
▁유지 하면서
▁검토 한
▁재판 부가
▁현실 적인
▁캐 스팅
▁신청 할
▁받았 지만
▁방침 에
▁산업 은행
▁듯 이
▁개정 해
▁아시아 경기
▁국방 부가
▁남북 이
▁보이 면
▁펼 치
▁펼 친다.

▁티 브이
▁가입 을
▁옮 겼
▁부모 님이
▁내부 적으로
▁겪 을
▁왕 복
▁틀 림
▁모르겠 어요.

▁품 고
▁대화 에
▁운동 이
▁제시 하는
▁상품 의
▁늦 추
▁정당 을
▁보통 은
▁흐 른
▁단체 가
▁잔 디
▁소개 한
▁반발 해
30 일
▁전환 하는
▁노래 가
▁기획 재정
▁국무 조정
노동 자
▁대한민 국이
▁망 원
▁2012년 까지
스러 웠
▁여기에 다
▁그림 이
▁주도 적으로
▁조성 된
▁브랜드 로
▁남편 을
▁않겠 습니까?

▁대북 정책
▁택 배
▁쏟아 냈다.

▁겨울 철
▁가르 치
▁완성 차
▁법무 법인
▁뛰어 들
▁내세 우고
▁홍보 수석
▁2006년 부터
▁출발 한
▁튀 김
▁올리 면
▁올리 브
▁평소 보다
▁공약 이
▁제목 을
▁인물 이다.

▁인생 이
▁경선 에
.9% 로
▁시위 대
보면 ,
▁궁금 해
▁이르 기까지
▁형사 처벌
▁이익 이
▁트위터 를
▁창출 을
▁잊 어
▁호소 하는
▁쏘 아
▁오르 내
▁오르 며
종합 전형
▁근본 적
▁무상 급
▁195 0년
▁덮 어
▁누군 가가
▁드러나 고
▁치러 야
▁치러 진
▁논쟁 을
▁일방 적인
▁적발 됐다.

▁맞추 는
▁진정 성
▁탁 월
박근혜 )
▁석유 화학
월드컵 경기장에서
▁한은 이
▁신랑 이
▁증권 사
▁덩 어
▁착수 했다.

▁상처 가
▁선호 하는
합니다. ”

▁프레 임
▁장례 식
▁흥미 로운
▁GS 칼텍
▁MB A
▁정교 한
▁영유 권
▁영유 아
▁한진 중공업
▁커뮤니 케이션
▁명백 한
▁손흥 민
방한 계선
▁정보기술 (IT)
▁“만 약
▁AP 통신
▁자유무역협정(F TA)
▁경희 대
▁싱크 탱크
▁농어 촌
▁특별감 찰
▁대검찰 청
▁현장실 습
▁초콜 릿
메리 칸
( J
( 공
( 해
) -
) 나
+ 1
- 20
4 2
5 4
6 4
6 일
7 만
8 9
E A
S I
m g
r a
· 배
· 국민
∼ 12
▁ 님
▁ 읍
▁ 큼
각 이
감 정
건 물
공 작
과 이
네 가
는 지에
다 ;
달 을
당 ,
대 )
대 까지
됐 는지
되 기를
드 와
랜 차
론 의
롭 다.

리 콘
명 하게
무 용
문 고
물 상
미 애
받 게
방 문
분 으로
브 란
비 행
살 에
살 의
상 위
선 발
성 ’
성 희
쇄 신
수 용
스 틴
시 픽
식 

신 청을
심 도
심 에서
심 사를
십 리
없 다.

에 르
엘 엘
영 리
오 른
온 난
유 출
이 용
자 리에
자 들에
잡 을
장 .

준 의
중 간
질 서
참 사
추 가
추 세
출 동
충 돌
킹 을
판 결
하 시고
하 셔도
하 셔야
학 부모
함 은
향 이
화 되고
회 도
효 과를
▁이 희
▁그 늘
▁대 사를
▁대 정부
▁아 랫
▁사 백
▁사 저
▁사 안에
에서 도

▁지 부
▁지 옥
▁지 인
▁지 친
▁하 세요.

▁하 더라구요.

▁한 신
▁수 료
▁1 박
▁1 천
▁것 만으로도
▁전 골
▁정 반대
▁2 .
▁2 ~
▁2 5년
▁보 답
▁보 직
▁보 입니다.

▁보 이스
▁시 세
▁시 의회
▁거 긴
▁거 울
▁“ 위
▁“ 10
▁“ 트럼프
▁나 게
▁나 트
▁나 요.

▁나 니까
▁자 식이
▁다 채
▁‘ 교
▁‘ 디
▁‘ 레
▁‘ 황
▁‘ 삼성
▁일 월
▁인 접
▁주 교
▁주 면서
▁주 문을
▁주 재로
▁경 복
▁경 청
▁중 화
▁말 았
▁내 역
▁내 지는
▁공 대
▁공 세를
▁부 속
▁부 위
▁부 부의
▁안 과
▁때 나
▁예 가
▁오 케이
▁우 루
▁여 인
▁여 당은
▁여 당의
▁없 다”

▁위 원이
▁위 구르
▁고 거
▁비 평
▁비 과세
▁3 주
▁3 5%
▁만 성
▁모 텔
▁모 형
▁모 였다.

▁연 대를
▁미 혼
▁미 ·일
▁되 니까.

▁" 국
▁" 해
▁서 문
▁서 희
▁생 략
▁최 나
▁교 장은
▁많 고,
▁많 다”며
▁김 보
▁' 불
▁' 사랑
▁원 은
▁원 치
▁원 ),
▁요 원
▁무 승
▁무 자
▁무 주택
▁분 에
▁분 주
▁분 들의
까지 ,
▁통 영
▁동 메달
▁구 할
▁우리 와
▁우리 는

▁바 닐라
▁발 사를
▁근 사
▁강 세를
▁당 겨
▁당 하고
▁현 충
▁현 지에
▁불 합리
▁반 가
▁재 범
▁재 조
▁5 시간
▁실 었다.

▁성 직
▁후 에는
▁노 다
▁노 예
▁박 은
▁박 주
▁박 진
▁박 해
▁이런 데
▁남 들이
▁지금 이
▁했 는지
▁했 으니까

▁20 ,
▁좋 지만
▁추 후
▁생각 하기
▁입 각
▁6 차
▁할 게요.

▁특 사
▁서울 이
▁단 골
▁잘 해야
▁직 속
▁문제 인
▁민 병
▁삼 년
▁삼 분의
▁명 성을
▁청 장은
▁청 국장
▁10 5
▁10 명이
▁처 지
▁양 궁
▁양 지
▁양 국의
▁양 동근
▁에 휴
▁포 지션
▁번 복
▁번 이나
▁먹 어서
▁투 수가
▁본 관
▁후보 자를
▁201 9년
▁높 다”고
▁심 야
▁관계 의
▁변 하는
▁치 면
▁타 워
▁관련 해서는
▁담 장을
▁가능 

▁취 해
▁손 질을
▁넣 어야
▁목 요일
▁아이 구
▁넘 길
▁넘 으면
▁증 상
▁증 폭
▁크 기가
▁될 까요?

▁정치 는
▁협 정을
▁애 틀랜
▁식 욕
▁[ 휴지
▁독 성
▁싶 었던
▁버 릇
▁지역 사회
▁12 7
▁12 년
▁모두 에게
▁카 다피
▁카 탈루냐
▁질 주
▁느 셔도
▁첫 번째
▁나오 는데

▁메 인
▁않는 다"고
▁놓 치지
▁사이 에선
▁태 권도
▁볼 게요.

▁가지고 .

▁발표 에
학교 가
▁알려 주는
▁사용 되는
▁농 가
이고 .

▁경기 당
▁폭 을
▁평가 하고
▁국제 금융
▁해서 는
▁선생님 도
▁거야 .
교육 의
▁맞아 요
▁않았 지만,
▁베 토벤
▁참여 연대
▁보인 다고
▁정보 는
▁정보 기관
▁그랬 어요.

▁자기 들이
▁기준 금리
▁몇 년
▁브 루
▁라 오
▁탈 세
▁청와대 를
▁터 졌다.

▁투자 할
▁왔 다고
▁관심 과
▁관심 도
▁뉴 스가
▁머 무
▁올라 왔다.

▁윤 동
▁다양 하다.

▁만나 게
▁패 스
▁정상 적으로
▁인사 로
▁않을 까?

▁name 7
▁답 한
▁주민 들을
▁침 대
▁침 범
▁보도 에
▁중심 을
▁드러 나는
▁가격 으로
▁들어가 기
달러 에
▁부산 일보
▁생활 이
▁활동 한
▁직원 들을
▁역할 도
▁읽 기
▁논의 하고
▁프로그램 도
▁같아 요.
▁빼 는
리그 에서
▁이해 하기
▁고려 해야
▁인터넷 으로
▁성장 했다.

▁유지 해
▁목표 다.

▁50 분
▁흔 적
▁꿈 은
▁확보 했다.

▁낙 마
▁제작 해
▁행사 할
▁움직 여
▁풍 요
▁수출 입
▁발언 으로
·1 6
▁주택 이
▁오바마 의
▁맨 체스터
▁통과 시켰다.

▁주시 죠.

▁요거 를

▁틀 려
회사 에
▁꼽 은
▁믿 음을
▁발전 의
▁연결 된
▁공부 도
▁소득 공제
▁198 3년
▁늦 춰
▁뜨 는
▁원내대표 의
▁반발 하는
▁좋겠 다"고
▁수석 비서관
▁던 지
▁던 지고
▁누구 한테
▁취업 자
▁짜 고
▁이동 식
▁청소년 들의
▁G PS
▁대법 원이
▁단계 에서
▁2011년 부터
▁탄핵 에
▁칼 을
▁고위 공직
으면서 도
▁압박 이
▁중소기업 에
)' 가
▁슬 픈
▁택 한
▁치료 가
▁SK 는
▁가르 치고
▁해석 했다.

▁하는데 .

▁출마 한
조선 일보
기구 인
▁기소 됐다.

▁행동 으로
▁완성 됐습니다.

▁유치 에
▁전기 요금
▁현지 에서
▁정리 한
▁회담 에서
▁레이 스
(K B
.3% ,
▁협의 해
▁온라인 게임
11 4
▁1차 전
▁무기 한
▁수상 한
.6% ,
▁케 냐
▁넣고 요

▁전반 을
▁현대차 그룹
▁응답 은
▁꼬 리
.2% 로
▁"그 런
▁들어오 면
▁나누 어
▁주인공 이
▁체포 된
▁줄어들 고
▁다녀 온
▁한글 을
▁정규 시즌
▁오르 지
▁캐릭터 를
▁사이트 에
▁기회 로
▁단속 을
▁연봉 을
▁척 결
으시 면

▁<한겨레> 가
▁떠오 르
▁시원 하게
▁올랐 던
▁아니겠 습니까.

▁구글 의
▁정해 져
▁불가피 할
엑스 포
▁과도 하게
▁댓글 을
▁“중 국은
▁의뢰 해
(T H
▁신속 히
▁조항 이
▁들어와 서
▁꼼 수
▁관여 한
▁투쟁 을
▁응응 응

▁방한 한
▁모은 다.

▁부적 절한
▁벼 슬
▁정몽 구
▁것일 까.

▁차가 운
▁호흡 을
▁티켓 을
▁텍 사스
▁초래 할
▁타임스 >는
▁진지 한
▁오스트 레일리아
▁공짜 로
▁아삭 아삭
▁통진 당
▁미세 먼
▁기온 이
▁페미 니스트
▁샌드 위치
▁이견 이
▁조윤 선
>(A P)
▁미지수 다.

▁모스크 바
.or .kr
(日 )
▁<에이피 >(AP)
군다 나
▁오하이 오
랜차 이즈
▁[휴지 통
) 다.

6 9
7 억
9 1
e w
o w
~ 40
· 광
” 를
▁ d
▁ 졌
▁ 쿨
▁ 뒀다.

개 편
것 ”

군 ,
글 로
급 으로
기 '
노 무현
다 닥
대 고
대 국
라 면서
론 ’
료 와
리 프
명 령
명 씩
모 금
모 로
병 원은
분 리
살 

삼 진
생 물
선 인
셨 으면
소 ,
소 형
스 틱
식 에는
아 빠
약 은
어 와
어 치
연 ,
영 란
영 역
영 향을
율 도
융 합
은 희
인 )
일 러
일 

입 국
자 만
장 하는
재 해
정 무
제 품을
종 목
주 구
지 식
차 와
코 노
코 올
타 격
타 의
타 자
태 양
태 풍
판 으로
평 론가
하 다.
했 거나
향 후
협 회의
혜 영
화 성
회 

▁이 데
▁이 같은
▁있 기도
▁대 명
▁대 회의
▁사 재
▁사 쪽
▁사 장으로
▁하 든
▁하 튼
▁한 단
▁한 우
▁수 박
▁수 요일
▁어 업
▁가 할
▁가 정을
▁가 방을
▁가 습기
▁전 례
▁전 립
▁전 병
▁전 승
▁전 하고
▁전 방위
▁정 재
▁정 식으로
▁2 기
▁2 안타
▁보 려고
▁기 조를
▁거 ~
▁거 시
▁거 군요.

▁거 버스
▁“ 각
▁“ 경
▁“ 광
▁“ 잘
▁“ 기업
▁“ 20
▁나 눌
▁나 이지리아
▁다 수가
▁‘ S
▁‘ T
▁‘ 낙
▁‘ 살
▁‘ 청
▁일 ”이라며
▁인 가
▁주 입
▁주 위에
하는 지
▁경 감
▁중 이라고
▁중 에도
▁중 "이라고
▁제 조사
▁해 놓
▁해 보고
▁국 문과
▁내 리지
▁안 된
▁안 은
▁안 토
▁예 견
▁오 산
▁오 면서
▁오 해를
▁우 와
▁여 긴
▁않 던
▁없 지만,
▁상 ·하
▁상 차림
▁조 롱
▁조 희
▁조 기에
▁의 식이
▁관 해서
▁비 밥
▁비 방
▁비 엔
▁비 하
▁모 여서
▁소 명
▁소 말리아
▁연 희
▁유 혈
▁유 희
▁유 학을
▁유 난히
▁미 -중
▁되 겠다는
▁되 구요

▁저 게
▁" 문
▁" 외
▁생 기고
▁뭐 지?

▁그래 요

▁최 모
▁같 지만
▁같 고.

▁개 교
▁마 니아
▁김 석
▁김 우
▁' 여
▁세 기
▁세 대가
▁방 수
▁신 공항
▁분 들

▁통 틀어
▁동 구
▁구 급
▁아니 요
▁아니 지만

▁들 인
▁근 접
▁강 국
▁당 할
▁현 수
▁4 000
▁4 명을
▁도 가니
▁재 계약
▁지난 번
▁지난 번에
▁영 문
▁사람 들에
▁그래서 .

▁한국 해양
▁건 데.

▁노 린
▁박 세
▁남 자들이
▁스 어
▁스 테
▁알 카
▁알 리기
▁차 장
▁두 달
▁회 생
▁했 지

▁했 는데요.

▁추 월
▁대통령 과의
▁입 대
▁응 모
▁물 에다가
▁들어 있
▁배 치를
▁문제 점이
▁뒤 엔
▁뒤 흔
▁작 아
하기 보다는
▁민 노
▁미국 도
▁역 임
▁역 행
▁10 구단
... ”

▁살 을
▁200 6
▁된 다"며
▁막 아야
▁포 스터
▁걸 어서
▁걸 그룹
▁걸 리지
▁피 터
▁초 당
▁드 려
▁드 셔도
▁투 자는
▁본 능
▁필 립
▁점 ,
▁높 기
▁심 신
▁운 명
▁일본 어
▁판 문
▁임 원은
▁국민 들한테
▁치 닫
▁타 율은
▁북한 과의
▁돌 이
▁교육 은
▁교육 감이
▁준 결
▁준 다
▁채 팅
▁손 실이
▁화 랑
▁화 제를
▁넣 구요.

▁넣 구요

▁크 로스
▁다음 은
▁필요 합니다.

▁각 별
▁시간 당
▁사업 이다.

▁표 류
▁버 거
▁버 려야
▁경제 위기
▁쓰 고

▁복 수의
▁리 듬
▁국가 는
▁국가 들이
▁12 %
▁승 용차를
▁광 산
▁카 터
▁자신 은
▁질 타
▁연구 는
▁됐 고

▁사이 트를
▁태 안
▁온 건
▁온 몸
학교 는
학교 에서
▁코 멘
▁사용 이
▁농 도가
▁병 사
▁병 을
▁여기 에서
▁접 종
▁접 할
▁대상 인
▁받아 서

▁로 로
▁그러니까 요

▁용 돈
▁용 기를
▁면 담을
▁면 밀히
▁참여 했던
▁추진 하기로
▁개발 하고
센터 의
▁맡 았
▁급 변
▁갔 다가

▁팀 에서
▁아무 래도

▁낮 에
▁가족 들을
▁비판 적인
▁선거 운동을
▁관심 은
▁위원 장으로
▁국정 화
▁뜻 의
▁결국 에는
▁모습 이었다.

▁머 리카
▁극 대
▁규모 에
▁올라 간
▁몸 담
사회 에서
▁있으 나,
사업 자
▁A FC
▁우려 의
▁우려 해
▁싸 울
▁자유 와
▁“이 미
▁추가 했다.

▁판매 한
▁어디 를
▁분야 로
▁가격 도
▁부산 저축은행
자로 부터
▁해결 책을
▁작품 에
▁성공 적인
▁직원 과
▁참석 자들은
▁없어 ?

▁부담 은
▁유럽 과
▁역시 

▁같아 서
▁우승 에
▁서비스 업
▁레 슬링
▁활용 하고
▁증가 할
▁업체 와
▁살아 나
▁살아 있는
▁안전 성
▁지도 자가
▁롯데 백화점
정책 에
▁여자 애
▁시절 을
▁시절 인
(6 4
▁중앙 선거
▁갑 상선
▁확보 하기
▁능 력은
▁분위 기도
▁제작 을
▁요청 이
▁I OC
▁2008년 부터
▁많아 서

▁끊 고
▁되겠 다

▁공정 성
▁총리 에게
▁믿 어
▁이전 까지
▁도시 에서
▁모르겠 어
▁기능 은
▁경기도 는
▁노력 하겠다”고
▁종합 해
▁사태 는
▁사태 의
▁야당 을
소득 세
▁인도 적
▁좋겠 다

주택 을
▁지켜 보는
▁냉 전
▁근무 한
▁변화 와
▁전달 할
▁제도 의
▁훈련 에
▁바뀌 어
▁아빠 도
▁끼 워
▁그림 은
▁들었 는데

▁작가 들의
차례 의
▁이루 어진
▁않겠 다”고
▁순간 에
▁노조 의
▁안정 된
▁깔 고
▁재산 은
▁끌어 내
▁염 색
▁메이 크
▁드라마 가
▁교사 들이
▁추천 을
▁시청 률이
▁포기 하지
▁197 8년
▁197 4년
▁말고 는
▁대중 의
▁인근 에서
▁증거 로
▁위협 이
▁TV 를
▁대체 할
텔레 비전
▁기반 이
▁무기 징
▁도와 주는
▁당국 에
▁제목 은
▁높이 의
▁떨어진 다는
▁흔들 리는
▁수원 시
▁폴 란드
▁시위 대가
▁부처 님
▁긴급 조치
▁체험 을
▁권한 이
▁권한 대행
▁성격 의
▁값 을
▁대우 를
▁관광객 들이
.8% ,
▁공유 하는
▁U AE
▁잊 어버
▁선물 로
달라 "고
자원 개발
▁흐름 에
▁섭 섭
▁30% 를
▁캐릭터 가
·이 상
▁무너 진
▁자전거 를
▁다루 고
▁“북한 은
▁촛불 집회
해보 니
▁컬 링
▁거지 요.

▁뼈 대로
▁하늘 을
▁맞서 고
▁낭 독
▁대리 점
▁귀국 한
▁예고 했다.

▁작용 할
▁극단 적인
▁김상 곤
▁무산 됐다.

선수권 대회
▁발휘 할
▁활발 한
▁취약 한
▁방위 사업
▁t he
▁주관 하는
en t
▁투명 하게
▁도덕 적
▁압도 적
▁뚝 딱
▁방사 성
효과 가
▁적절 히
▁국토해양 부는
▁대학원 생
▁표정 으로
이라던 가
그래 픽
▁미래에 셋
▁한가 운데
▁걸림 돌
▁페미 니즘
▁NYT 는
▁박수홍 입니다.

▁비공 개로
▁고용노동 부
▁기득 권
▁실정 이다.

▁개그 맨
메르 스
▁청계 천
▁양천 구
▁자유계약 선수
▁간신 히
' 며
( ‘
( 대표
( 경기
( 삼성
) 였다.

6 억
7 3
> (C
F A)
I G
i d
~ 18
· 방
· 복
· 현대
▁ 듬
▁ 럭
▁ 려
▁ 는데
강 이
것 이
게 요
겠 죠

경 비
군 데
근 한
금 리가
날 을
남 북
냐 면은

니 의
님 들이
닝 을
당 국이
대 인
드 라고
라 ”
라 ”

랄 지
래 든가
롤 라
름 한
리 고

리 기도
목 표
무 라
박 람회
벌 을
복 성
북 핵
분 들이
비 한
비 

사 망
사 상
사 십
세 서
수 아
슬 레이
시 로
실 적
심 과
었 다

었 거든요.

예 요
완 전
용 과
용 인
우 병
인 식
인 증
일 지
일 화
자 지
절 대
조 5000
졸 업
준 호
지 나
지 난
직 에서
창 작
채 는
청 장
츠 버그
칠 년
코 스
통 장
트 ’
특 구
특 수
편 찬
피 안타
하 셔
함 ,
현 주
현 장에서
화 됐다.

휴 일
▁이 들도
▁대 강
▁대 놓고
▁아 오
▁아 내는
▁사 리
▁사 월
▁사 르코
에서 /
▁지 질
▁하 지는
▁어 절
▁가 던
▁가 리는
▁가 다가
▁전 폭
▁정 대
▁2 세
▁보 고,
▁보 세요

▁시 킬
▁시 티
▁기 고
▁기 을
▁기 회에
▁거 장
▁거 점
▁“ 손
▁“ 올
▁“ 초
▁“ 선거
▁“ 하지만
▁“ 시민
▁“ 처음
▁‘ 눈
▁‘ 매
▁‘ 종
▁‘ 허
▁일 과
▁일 만
▁일 했다.

▁일 었다.

▁일 하다
▁일 학년
▁주 중
▁주 시고요

▁경 축
▁경 력을
▁경 위를
▁제 사
▁제 동을
▁제 각각
▁국 과
▁내 실
▁내 한
▁내 고

▁내 면서
▁내 역을
▁공 은
▁공 이
▁공 장에서
▁부 설
▁부 러워
▁안 나
▁때 였다.

▁오 류
▁오 월
▁오 니까

▁오 자와
▁여 주
▁않 다"고
▁않 게

▁위 에다
▁고 ,
▁고 엽
▁있는 지를
▁3 .
▁3 선
▁3 개를
▁3 000여
▁소 망
▁연 임
▁연 재
▁연 어를
▁유 진
▁유 화
▁미 주
▁미 처
▁미 묘한
▁" 2
▁" 불
▁" 연
▁" 201
▁문 이
▁문 인
▁최 적
▁최 정
▁마 다
▁마 실
▁교 내
▁교 직원
▁교 향곡
▁많 다
▁김 구
▁김 국
▁김 남
▁김 두
▁김 유
▁김 제
▁' 리
▁' 영
▁' 외
▁원 폭
▁원 

▁원 )에
▁요 인으로
▁이제 .

▁세 법
▁방 지를
▁신 약
▁무 대가
▁분 단
▁분 배
▁분 식
▁동 문
▁동 작을
▁구 단의
▁구 호를
▁아니 다"고
▁들 으면
▁발 이
▁강 진
▁진 작
▁현 명한
▁4 명은
▁4 00여
▁불 고
▁올 스타
▁받 기로
▁결 단
▁결 산
▁재 앙
▁계 십니다.

▁사람 ,
▁사람 만
▁사람 은

▁건 다.

▁스 포
▁스 테이
▁스 파이
▁알 릴
▁회 견
▁회 동을
▁좋 으
▁열 병
▁과 격
▁서울 지방경찰청
▁적 고
▁응 하지
▁참 치
▁집 회에
▁문제 점
▁앞 을
▁삼 촌
▁역 동
▁너 

▁된 

▁양 승
▁양 재
▁양 상을
▁대표 님이
▁사실 로
▁파 프리카
▁초 선
▁후보 들이
▁운 전을
▁임 정
▁임 원이
▁논 문이
이라 면서도
▁타 개
도록 

▁넣 었다.

▁아이 들과
▁증 설
▁체 인
▁체 중
▁애 써
▁시간 

▁[ 강원
▁벌 을
▁사업 도
▁지역 과
▁경제 적으로
▁경제 적인
▁쓰 나
▁엄 중
▁지원 은
▁지원 

▁지원 하기로
▁12 5
▁호 칭
▁충 성
▁권 오
▁학생 들한테
▁날 을
▁카 리
▁국내 에선
▁부분 이

▁됐 지만
▁항 일
▁순 조
▁순 차적으로
▁검찰 을
▁사이 로
▁태 릉
▁태 평
▁태 도에
▁온 다고
▁볼 까
▁15 만
▁몰 린
▁몰 리는
▁트 리즈
▁해야 되
▁농 심
▁농 식품
▁굉장 한
▁병 원이
▁병 원은
▁글 에서
▁평가 해
이었 다”며
▁좋아 졌
▁로 맨
▁보면 .

▁용 도로
▁현대 캐피탈
▁향 도
▁추진 에
▁추진 한
센터 장은
▁여성 과
▁팔 린
▁별 명이
▁떠 안
▁기준 금리를
▁급 진
▁급 한
▁장관 ,
▁찾아 보기
▁경쟁 에
▁수사 와
▁혼 다
▁압 력
▁요즘 은

▁친구 도
▁대선 개입
▁이름 과
▁송 호
▁몸 의
▁그걸 

▁있으 면은
▁존 엄
▁봤 더니
▁풀 어야
▁언론 을
기관 으로
▁특별 검사
(4 8)
▁의미 하는
(5 4
(5 8)
▁않아 

문화 유산
▁L ED
자들이 

▁기간 보다
▁울 고
▁울 려
▁플 래
▁악 영향을
▁없었 다"고
▁영국 은
▁아마 존
▁경영 진
▁지나 가는
▁달라 졌다.

▁24 0
▁레 저
▁레 시피
▁격 상
▁통일 의
▁롯데 백화
▁검토 를
지역 에서
▁재판 에서
▁중앙 선
▁중앙 은행
▁중앙 노동
▁밤 새
▁써 는
▁딸 은
이에 요.
▁개선 될
▁괜찮 습니다.

▁이사 장을
▁이사 회를
▁오히려 

▁술 에
▁보이 지만
라이 프
▁부족 하다는
▁I n
▁옮 길
▁부모 는
▁40 만
▁즐 기고
▁즐 거운
▁복지 부는
▁복지 국가
▁이십 사
▁비용 으로
▁모르겠 지만

▁가져 와
▁진출 이
m2 에
m2 의
▁운동 에
▁0. 5
▁제시 하고
▁은행 들은
▁흐 르
요? ”

▁인도 의
▁2월 부터
운동 의
▁주목 하고
▁보호 하기
스럽 고
▁대기업 과
▁전환 이
▁밑 간을
▁전통 의
▁1000 만원
▁건물 에
▁건물 은
▁주도 하고
▁남편 의
▁“지 금은
▁루 이스
▁흘 려
▁등록 을
▁기관 지
▁위반 으로
▁언급 하며
▁사라 지는
국제 공항
▁쌓 은
▁가치 와
인으로 서
▁뇌 물을
▁해주 시면
▁허용 하는
▁늘어나 면서
▁두산 의
▁포기 하는
▁접근 할
▁대중 문화
▁2014년 까지
개혁 을
▁위협 에
기록 물
▁그만 두고
▁E S
▁심리 전
▁하락 했다.

노조 가
▁안팎 에서는
▁챔피언 결정
▁꽃 을
▁개편 안
▁배경 이
▁배경 에는
▁2만 여
▁궁금 합니다.

▁나아 갈
▁바다 를
▁바다 에서
▁청문 회를
▁드리 겠습니다.

▁머물 러
▁50% 를
or ld
▁공유 하고
▁흑 자를
▁콜 라
▁콜 레스테
▁촬영 한
정의 당
▁냄새 를
▁펴 고
▁홈페 이
▁영역 이
▁아아 .

▁극복 할
▁항의 하는
▁합격 자
▁하자 고
▁헬 기
▁아닐 까.

▁무시 한
▁소식 에
▁몰랐 던
▁획 정
▁법정 에서
▁봉사 활동
▁시달 리고
▁시달 리는
▁3차 원
▁당사 자인
▁탄생 한
기준 을
▁용인 시
▁측근 은
▁발의 한
▁빅 데이터
▁대사 관
건강 보험
▁앤 서니
▁추산 된다.

▁괜찮은 데

▁기각 했다.

▁“기 존
▁400 m
▁시진핑 ()
▁모으 는
▁부드럽 고
▁펜 실
▁강정 호는
▁"우 리가
▁소수 민족
▁마디 로
능력 시험
▁하드 디스크
▁딜 레
▁오이 씨
▁“새 누리당
▁나중 에는
▁"내 년
▁"당 시
▁사각 지
▁SK텔레콤 은
▁엘리 베이터
▁뜨거 워
플러 스는
▁기후 변화
▁지음 /
▁되살 아
▁시민사회 단체
▁당직 자는
▁양극 화
▁오프 라인
▁그릏 죠.

▁e 메일
▁선대 위
▁203 0년
▁베이비 부머
▁이한 구
▁노르 웨이
▁평균자책 점
▁초고 층
▁예술의 전당
▁주저 앉
▁두꺼 운
▁템 플
▁<비 비시>
지하 철
▁무책임 한
▁배럴 당
▁인신 매매
▁가운 데

▁더더 욱
▁주상 복합
▁식품의약품 안전
(TH AA
▁[강원 ]
▁콜레스테 롤
( 주)
3 일
6 0년
7 1
7 일
C D
D P)
M BC
S J
· 당
· 폐
▁ f
▁ 램
▁ 립
▁ ?

간 탄도미사일
강 제
개 정
갤 럭시
거 부
건 

경 준
경 험
경 제를
교 원
귀 포
기 보다
께 요.

난 한
냐 ,
농 민
단 지를
돌 았다.

됐 다"고
될 지
드 렸
든 다.

들 였다.

래 스
래 ?

력 발전
련 을
리 고,
모 리
모 바일
박 물
법 적
베 스
보 고

분 은
블 로
산 업을
삼 십
생 과
생 인
선 ,
성 동
수 엘
숙 이
순 이
시 앤
신 탁
신 문이
아 르
업 소
었 다가
여 섯
여 서

였 으나
예 선
움 의
의 학과
있 고
잠 수
장 일
재 단의
전 공
져 서

조 2
조 4
조 9
주 시고
줬 으면
지 거나
지 원을
진 해
집 권
천 이
천 억원
출 된
친 박
캐 나다
크 리스
타 지
터 에
테 이션
토 럼
트 러
파 티
패 가
패 드
퍼 를
품 이
프 린
플 릿
피 니
하 세요
한 다"며
함 으로
해 결
했 다”는
현 ,
호 (
호 기
홀 딩
화 되는
후 반
▁이 겼
▁이 면
▁이 세
▁있 잖아요?

▁대 는
▁대 의원
▁사 명
▁사 살
▁사 제
▁사 장과
▁지 네
▁지 망
▁지 위
▁지 켰
▁지 장이
▁지 내는
▁하 필
▁수 뇌
▁1 명을
▁1 ~3
▁어 딜
▁어 뜨
▁어 민
▁가 니까
▁가 자고
▁것 인데
▁것 인데,
▁전 대
▁전 전
▁전 시장
▁정 돈
▁보 물
▁보 은
▁시 점을
▁시 중에
▁“ 5
▁“ 관
▁“ 알
▁“ 차
▁“ 핵
▁“ 많은
▁나 로
▁나 이를
▁자 랐
▁다 산
▁‘ 투
▁‘ 호
▁‘ 19
▁‘ 일본
▁‘ 4대강
▁일 련의
▁인 위
▁인 상에
▁주 총
▁주 제가
▁경 신
▁국 한
▁말 하기
▁내 줬
▁부 닥
▁안 건
▁안 동
▁안 이
▁안 다”고
▁안 종범
▁오 름
▁우 는
▁여 자는
▁없 지.

▁없 어야
▁없 다고

▁위 를
▁위 태
▁고 루
▁고 유의
▁조 광
▁의 아
▁의 자
▁의 장이
▁의 해서

▁선 뜻
▁선 체
▁관 통
▁모 태
▁모 처럼
▁연 장을
▁연 주를
▁유 임
▁저 두
▁" 마
▁" 스
▁" 처음
▁생 계를
▁생 기지
▁문 구
▁같 구요.

▁마 비
▁마 요
▁교 민
▁김 중
▁' 일
▁' 국민
▁원 이다.

▁원 까지
▁원 짜리
▁세 포
▁무 가
▁무 함
▁동 경
▁동 방
▁구 금
▁구 름
▁구 역
▁구 하기
▁바 보
▁아니 더라도
▁그러 더니
▁강 등
▁진 전을
▁당 협
▁4 00만
▁불 에서
▁올 레
▁반 에
▁실 수로
▁영 재
▁더 군다나
▁장 신
▁장 외
▁장 시간
▁장 아찌
▁후 반기
▁노 스
▁노 인이
▁노 태우
▁박 선
▁박 재
▁알 린
▁차 질이
▁감 히
▁했 나
▁추 도
▁추 워
▁생각 해야
▁못 했다고
▁못 한다는
▁열 광
▁입 이
▁6 위
▁과 장이
▁정부 로부터
▁평 했다.

▁배 석
▁배 터
▁직 결
▁삼 만
▁명 태
▁것이 냐

▁검 사가
▁처 지에
▁막 았다.

잖아 ?

▁에 .
▁포 트
▁법 은
▁파 를
▁행 위는
▁행 태를
▁합 치면
▁8 %
▁드 럼
▁먹 으면

▁본 사를
▁후보 자에
▁9 8
▁9 명
▁9 0년대
▁9 ·11
▁만들 겠다는
▁판 을
▁임 금이
이라 면

▁가능 하다고
▁화 답
▁화 염
▁아이 콘
▁책 이다.

▁환 율이
▁[ 부산
▁[ 충청
▁[ 광화문
▁교수 도
▁교수 

▁지역 별로
▁경제 력
▁쓰 다
▁있었 다"고
▁호 전
▁프로 배구
▁충 원
▁편 의를
▁학생 들과
▁광 양
▁모두 를
▁처음 이
▁카 라
만원 에서
기업 인
▁질 서를
▁다시 는
▁다시 

▁허 어
▁경찰 을
▁< 엔
▁되는 지
▁됐 기
▁검찰 에서
▁놓 친
▁백 두산
▁전문 성
▁볼 까요
▁계획 하고
▁삼성 생명
▁발표 는
명이 었다.

▁핵 과
▁이유 는

▁트 래
▁30 억
▁해야 지.

▁조사 

▁사용 했다.

▁경기 회복
▁평가 한
이었 기
▁대상 자
▁로 비를
▁맞아 야
▁금융 지주
▁운영 한다.

▁운영 되는
▁축 제를
▁향 을
▁향 하는
▁피해 자를
▁마음 도
▁팔 로
▁그랬 어
▁떠 날
▁보여 주기
▁공개 

▁공개 하는
▁골 자로
▁18 대
▁십 분
▁선거 인
▁영화 관
▁14 개
▁국정 농단
▁시민 들에게
▁올라 서
▁마련 하기
▁전국 을
▁있으 면은

▁쉽 다.

▁인사 들의
▁방송 의
▁방송 이
▁봤 어요.

▁밀 고
▁인정 받고
▁주민 들에게
▁논란 과
▁논란 의
▁특별 전
▁강화 

▁강화 해야
▁의미 의
▁예산 안을
(5 2
(5 2)
(5 7)
▁어렵 기
▁전문가 를
▁않아 .

경제 연구원
▁해결 해
▁예상 치
▁역할 에
▁참석 을
▁사진 은
▁붙 었다.

▁사고 의
▁없었 습니다.

▁지방 이
▁공격 으로
▁만큼 

▁홈 쇼핑
▁이러 고

▁우승 컵
▁우승 으로
▁빼 면
▁혐의 에
▁나와 

대학 에서
▁유지 했다.

▁대신 해
▁롯데 제
지역 을
(6 6
▁재판 이
▁왜냐 하면은
▁표현 의
▁흔 한
기술 이
▁배우 가
▁딸 의
▁받았 다”고
▁방침 ”이라고
▁개정 안에
▁해당 한다.

▁차지 할
▁행사 에서
이에 요
▁대응 하는
▁전략 기획
▁빈 민
▁독일 에서
▁보이 기
▁서로 의
▁인간 을
▁12월 부터
▁자연 을
▁뽑 고
▁목소 리는
▁회의 는
▁회의 록
▁봉 투
▁봉 하
▁웃 고
▁웃 음을
▁공식 적인
▁이전 의
▁도시 를
▁대화 와
▁10월 부터
▁반영 하지
▁갈등 과
▁하겠 다.

▁상품 은
▁썰 어서

▁개혁 에
▁자료 는
▁제출 할
▁단체 의
▁헤 아
▁실시 해
▁토론 회에서
▁2010년 부터
▁참가 한다.

▁싫 어.

▁시각 을
▁분명 하게
▁짜 서
▁전통 적
▁건물 의
▁챙 기는
▁확정 할
▁주도 권을
▁언제 든
▁형태 를
▁억 지
▁밝혀 

▁회장 에게
▁있겠 지만
▁에스 비에스
▁영업 정지
▁등록 된
▁불안 정
▁불안 해
▁규정 했다.

▁원칙 적으로
▁쏟아 지고
▁끌어 들이
▁경남 기업
▁전자 우
▁걱정 하는
▁독립 운동
▁혁신 도시
연구소 가
연구소 는
▁봄 에
▁넓 게
▁허용 하지
▁직후 부터
▁뛰어 들었다.

▁조정 할
▁두산 이
▁확산 되는
▁검사 장
▁투입 된
▁인근 의
▁자격 으로
▁자격 증을
▁못해 

▁자율 적으로
▁출시 된
▁노인 복지
▁2015년 까지
▁명예 교수
▁때까지 

▁테러 를
▁찬성 하는
▁거론 하며
▁연극 을
▁전공 한
▁내일 도
▁“국 회
▁20% 를
▁소유 한
▁들어오 고
▁줄어들 었다.

▁도착 했다.

▁촬영 을
(F I
▁수행 하는
▁한글 로
▁혼란 이
·사진 )이
▁일자 리는
▁키워 야
▁제1 비
다니 는
▁전년 도
▁잘라 서
▁세워 진
▁터뜨 리며
공동 체
▁분노 를
▁낭 송
▁동아일보 가
▁분쟁 을
▁고등 어
▁적발 된
▁작용 한
▁말씀이 신
▁김상 조
▁심지어 는
▁일관 되게
▁노사 정
▁슈퍼 마켓
▁생명 보험
▁엄격 히
▁보좌 관
▁국제사회 에
▁자존 심을
▁넷 플
▁등판 해
▁치른 다.

▁지향 하는
▁교육과 정을
▁억울 한
▁실태 조사
▁불투 명한
▁즐거 움
▁트로 피를
▁기재 부
▁이석 기
▁메달 을
▁아끼 지
▁"오 늘
▁감당 할
▁카카오 톡
▁폭넓 은
▁덕분 이다.

▁남양 주
▁정동 영
▁내시 경
▁로열 티
▁종업 원
▁크루 즈
▁걸맞 은
▁광범위 한
▁살균 제
▁휘발 유
▁인플루엔 자
▁중장 년
▁정병 국
▁유방 암
▁닷 새
▁로스앤 레스
▁[광화문 에서/
( f
) 라는
) 씨가
9 일
? ...
C M
D B
n et
· 단
’ 에서는
’ 이었다.

▁ 랑
▁ 림
▁ 뷰
▁ 엽
▁ 츠
▁ 는다.

거 지.

고 객
공 고
공 모
관 실
교 가
구 정
국 악
국 

그 림
급 이
길 래

난 방
능 한
니 는
다 면은

답 을
대 다.

됐 으며
되 ,
라 노
랑 프리
래 요.

럭 시에
력 ,
령 은
류 의
마 당
명 예
무 니
물 리
미 도
미 와
배 나
버 터
버 스를
법 도
볼 라
볼 까요?

부 ·
부 양
분 부터
브 르
비 즈니스
산 ,
세 )
세 력이
셜 록
수 산물
시 위를
식 물
신 사
심 에
십 니까.

씩 

아 라
았 다”고
었 나
었 어
였 지만,
영 ,
오 와
온 다.

옵 션
완 화
요 ,
용 의
우 ,
웃 음
원 ),
으 라고
음 은
이 민
인 지는
장 에는
장 학회
적 ·
전 인
전 지
전 투
점 )
점 ),
정 산
제 )
조 7
조 와
주 석이
중 개
지 ’
지 점
처 에
체 와
쳐 서
초 가
충 격
충 남
치 스코
카 ]
카 가
코 프
터 의
텐 데
토 의
트 와
틀 러
파 와
파 원
하 길
하 거든요.

하 구요.

하 잖아.

항 의
해 달라고
했 어
혐 오
협 력을
혔 던
홍 콩
화 물
▁이 회
▁이 동을
▁그 럽
▁있 네요.

▁있 대.

▁대 추
▁대 도시
▁아 야
▁사 범
▁사 유가
▁지 뢰
▁하 남
▁하 트
▁하 잖아

▁하 소연
▁한 승
▁수 호
▁수 치가
▁수 단이
▁1 위로
▁가 드
▁가 량
▁가 세
▁가 옥
▁가 기로
▁가 려고
▁가 구가
▁가 급적
▁전 념
▁전 력이
▁전 월세
▁정 우
▁정 장
▁정 정
▁보 약
▁보 잉
▁보 는데

▁보 였던
▁보 니깐
▁기 침
▁거 기를
▁거 슬러
▁“ 직
▁“ 모든
▁‘ 돈
▁‘ 로
▁‘ 에
▁‘ 엘
▁‘ 10
▁일 이었다.

▁인 준
▁주 고,
▁주 머니
▁등 기
▁중 남
▁중 형
▁중 거리
▁제 안이
▁제 보를
▁해 라
▁해 부
▁해 산물
▁해 달라고
▁국 수
▁내 놨
▁공 교
▁공 평
▁부 정부
▁안 도
▁안 드로이드
▁때 ?

▁예 매
▁우 스
▁않 거나
▁위 의
▁고 르는
▁상 공
▁상 기
▁조 림
▁조 준
▁의 석
▁선 풍
▁관 념
▁비 치
▁3 국
▁모 교
▁모 이는
▁소 문
▁연 안
▁유 언
▁유 소연
▁미 워
▁" 北
▁" 특
▁" 정부가
▁서 귀포
▁최 순
▁최 상의
▁또 .

▁마 에
▁마 쳤
▁마 드리
▁마 당에
▁김 희
▁김 치가
▁김 씨를
▁' 보
▁' 선
▁' 장
▁원 -
▁원 외
▁원 주민
▁요 동
▁세 분
▁세 대의
▁방 중
▁신 이
▁무 리가
▁구 도를
▁우리 에
▁바 우
▁바 라고
▁바 이어
▁바 리스타
▁그러 냐
▁그러 던
▁발 발
▁근 속
▁강 령
▁강 변
▁불 에
▁도 청
▁재 원을
▁성 평등
▁장 원
▁장 이
▁장 하
▁장 사를
▁한국 노총
▁건 수는
▁노 년
▁박 광
▁남 태희
▁스 텔
▁차 고
▁차 원이
에게 

▁회 부
▁회 상
▁감 성
▁했 으며,
▁20 5
▁좋 구요

▁추 종
▁따 지면
▁입 어
▁입 장에
▁할 려
▁과 목을
▁달 았다.

▁맞 습니다.
▁응 징
▁참 의원
▁음 모
▁단 거리
▁외 부의
▁청 룡
▁것이 며,
▁총 서
▁총 학생
▁총 동원
▁살 릴
▁살 살
▁7 대
▁7 만
▁처 형
▁막 지
▁막 판에
▁많이 들
▁양 현
▁포 수
▁걸 리고
▁파 문이
▁중국 어
▁간 에

▁번 쯤
▁피 우
() 성
() 인
▁초 월
▁약 이
▁투 명한
위원 장인
▁후보 자로
▁경우 

▁심 정
▁심 리를
▁만들 지
▁만들 고,
▁판 소리
▁임 태희
▁변 함이
▁이상 

▁돌 리는
▁준 우승
▁화 면에
▁대해 ,
해야 

▁아이 언
▁증 액
▁규 범
▁책 으로
▁애 들을
▁함께 한
▁[ 호남
▁싶 어.

▁속 을
▁속 하는
▁버 튼
▁지원 과
▁상황 이었다.

▁승 리의
▁군 에
▁광 장에서
▁끝 내기
▁허 어

▁맛 은
▁형 식을
▁은 평
▁됐 고
▁사이 드
▁준비 해야
한테 도
▁15 00만
▁발표 해
▁토 익
▁몰 렸다.

▁농 단
▁농 사
▁농 성을
▁병 에
▁접 견
▁저희 들은
기로 는
▁예정 "이라고
▁주장 과
▁정책 으로
▁금융 거래
▁금융 투자
▁포함 하면
▁개발 과
▁개발 하는
▁마음 먹
▁모르 지
▁효 성
▁탈 피
▁낮 췄다.

▁떨어 졌
▁기술 의
▁기술 력을
연구 원의
▁선거 법
▁외교 ·안보
▁그때 가
▁상태 였다.

▁압 력이
▁국정 기획
▁모습 과
▁강조 

▁극 한
▁송 은
▁위해서 였다.

▁노동 부
▁노동 자가
사업 으로
▁자체 로
▁존 재를
▁반대 의
▁A IIB
▁인사 들은
▁앞으로 의
단체 의
▁인정 할
▁주민 들
▁보도 자료
기관 과
▁하루 가
▁어렵 다"고
▁어렵 다”며
▁않아 야
▁않아 요?

▁판매 할
▁서울시 와
▁서울시 교육청은
▁퇴 장
▁xx 이
자로 서의
정보 통신
▁없어 요.
▁퍼 트
▁퍼 팅
▁판단 하는
▁논의 한
▁생산 할
▁이러 니까
▁내려 오
▁언니 랑
▁숨 지고
하다 며
▁의혹 

▁이해 관계가
▁안전 사고
▁관리 할
(6 0)
▁기본 이
▁녹 지
▁표현 했다.

▁넘어 섰
▁꿈 나무
▁선택 의
▁선택 이
▁딸 내
▁시행 하는
▁그동안 의
▁뭔 가

▁움직 이고
▁아파트 에
▁사랑 에
▁남자 친구
▁비교 를
▁통과 했다.

▁끊 었다.

▁틀 렸
과학 수사
대회 는
▁다르 고
▁차례 의
▁진출 할
▁진출 했다.

▁0. 1
▁숙 련
일까지 .

▁시스템 으로
▁쓸 모
50 억
▁뜨 고
▁캠 코
▁옷 도
▁제주 도는
▁헌법 을
▁실시 했다.

▁토론 이
운동 에
▁주목 할
▁참가 자
▁칠 월
▁11월 부터
▁수익 성이
▁냉 각
▁국무 위원
▁근무 하던
▁푸 는
▁이동 하는
▁더욱 이
▁범죄 가
▁1000 명
▁가정 에
(7 0
▁단계 가
▁시험 에
카드 로
▁들었 을
▁억 지로
▁중소기업 이
▁에스 엠
)' 의
▁다만 ,
▁2013년 부터
▁계열 사의
▁보기 엔
▁절대 적으로
▁넓 히
▁전날 보다
▁일정 에
▁파악 한
(I MF
▁완성 된
▁추천 한
▁197 5년
▁했는데 .

▁접근 이
▁마무리 했다.

조차 도
▁비상 장
.4% 로
▁김영 재
▁튀 니
▁휘 둘
▁수업 이
▁운전 자가
▁낳 을
▁된다 라고
▁정상회담 에서
▁경선 에서
.1% 로
▁응답 이
▁구입 한
▁196 7년
▁불가능 하다.

억달러 를
억달러 (약
▁청문 회에서
▁종목 에
▁종목 을
▁사법 시험
▁원자 재
▁감안 할
▁임시 국회
▁상징 인
▁아우 르는
▁움직임 은
▁솔직 한
▁잊 혀
▁비싸 게
▁청구 했다.

▁출석 을
▁“사 람
▁극복 하고
보호 법
타임 스
▁낫 지
▁단독 으로
▁바닥 을
▁사이트 에서
▁주최 하는
▁아쉬 움을
▁올라가 면
▁세금 으로
14 일
▁봉사 활동을
▁공무 원을
▁터뜨 린
▁시켜 야
▁브리 티시
▁기울 이고
▁참기름 

▁창의 적인
▁건립 을
▁의존 하는
▁독자 적인
▁바란 다"고
▁크리스 티
·여 )는
▁네네 .
특별 법
▁진단 했다.

▁김연 아는
▁“미 국은
▁죽음 에
▁괜찮아 .

(U N
▁충청 권
드라 구요.

▁“여 러
▁바이오 시
▁웨 딩
▁사령 관
▁검은 색
▁“일 부
▁이외 의
▁게시 판에
▁구속영 장
▁[수도권 II
▁특혜 를
▁비결 은
▁해운 대
▁‘안 철수
▁연구개발 (R&D)
만9 000
·연 평도
▁생생 한
▁무슬림 형제
▁정유 라
▁불어 넣
▁1분 기에
▁다짐 했다.

▁거품 이
▁기운 이
▁반갑 습니다.

▁부끄 럽
▁가맹 점
▁옵 션
▁선관 위
파운드 (약
▁박용 택
▁프라 임
▁히로 시마
▁날카 로운
▁플랜 트
▁신지 애
▁국정감 사에서
▁후폭 풍
▁제네 바
▁<한국 방송>
대변 인은
▁디자 인이
▁[뉴스 룸
▁트랜 스
▁자유선진 당
▁케네 디
▁프랑크푸 르트
▁어마 어
브란 스
▁[충청 ]
( d
( 북
( 세
( 옛
( 평균
8 일
A P
P R
o b
r i
· 민
· 북
· 금융
· 시민
· 운영
▁ 챔
▁ 톤
▁ 는데

▁ 리는
가 도
가 서
가 을
가 들이
감 

거 가
건 데

겠 다”

결 과를
겼 던
공 원에서
광 이
국 토
국 회에서
규 정
그 린
기 자의
끼 를
난 이
님 도
돼 ,
되 는데
두 언
레 카]
려 던
례 로
론 가는
류 는
름 다운
맛 을
면 세점
모 터
문 학과
미 경
바 라크
반 응
번 을
벨 리
벼 락
봅 니다.

브 레
선 도
소 유
시 죠.

신 고를
아 .

아 몬드
안 한
었 으나
었 어요
였 고

올 라
올 리
왕 을
욱 은
위 해
유 기
유 도
음 직
이 거나
인 '
인 프라
일 날
잉 글랜드
자 리를
자 였던
작 으로
장 려
재 단은
저 지
적 ”이라고
전 국
정 하게
제 ’를
졌 다"고
종 ,
주 얼
주 기를
줄 을
지 ?
질 적인
쪽 ·1
채 무
책 에
체 인
촉 진
카 르
컴 퍼
크 와
키 리
투 자가
트 릭
팔 백
패 )
패 션
플 란
하 다”는
혈 관
형 ,
호 ’
혹 한
확 산
훈 이
희 가
▁이 발
▁이 차
▁이 라고
▁이 기고
▁이 스탄
▁그 렸다.

▁대 교
▁대 하는
▁사 오
▁지 극
▁지 름
▁지 워
▁지 

▁지 사의
▁지 분이
▁하 ~
▁하 구
▁하 승
▁하 원
▁하 니까.

▁한 라
▁한 수
▁한 순
▁한 계에
▁수 년
▁수 두
▁수 산
▁수 년간
▁1 부
▁1 개월
▁1 .2
▁어 슷
▁어 진
▁어 휴
▁것 들도
▁전 이
▁정 근
▁정 형
▁정 홍
▁시 교육청은
▁기 탁
▁기 사는
▁거 제
▁거 리는
▁거 지?

▁거 액을
▁“ 본
▁“ 삼
▁“ 역
▁“ 젊은
▁나 고

▁자 정
▁자 처
▁다 스
▁‘ 과
▁‘ 라
▁‘ 나는
▁‘ 글로벌
▁일 러
▁일 조
▁인 허가
▁주 셔도
▁주 체가
▁경 총
▁경 고를
▁말 치
▁말 처럼
▁내 란
▁내 에서는
▁공 제
▁부 착
▁부 진을
▁안 될
▁안 면
▁안 에서는
▁안 건을
▁때 처럼
▁오 니까
▁여 느
▁여 기가
▁않 죠.

▁않 습니다

▁않 거든요.

▁위 기로
▁고 흥
▁상 고
▁상 사
▁조 코
▁관 장은
▁비 법
▁비 아
▁비 폭력
▁비 영리
▁3 자
▁3 .5
▁만 해
▁모 을
▁소 고
▁소 수의
▁소 상공
▁유 골
▁유 린
▁유 선
▁미 학
▁되 나?

▁" 도
▁" 동
▁" 만
▁" 원
▁" 경제
▁서 산
▁서 장
▁생 전에
▁뭐 든지
▁문 법
▁문 성
▁문 구가
▁그래 요
▁최 선
▁최 형
▁최 희
▁개 조
▁마 도
▁많 으면
▁김 덕
▁김 명
▁김 옥
▁' 더
▁' 반
다고 ?

▁원 하지
▁원 전을
▁요 령
▁세 습
▁세 대를
▁방 망이
▁신 분을
▁그런 가?

▁구 단이
▁발 동
▁발 자
▁강 석
▁강 해
▁강 하다.

▁불 릴
▁불 은
▁올 림
▁올 리지
▁도 마
▁도 봉
▁반 사
▁재 워
▁실 증
▁실 직
▁실 렸다.

▁성 신
▁성 장에
▁성 관계
▁영 도
▁더 워
▁장 담
▁장 타
▁한국 기
▁한국 산
▁노 동을
▁박 기
▁박 창
▁박 연차
▁남 구
▁알 면서도
▁차 갑
▁차 질을
▁두 렵
▁감 금
▁지금 은

▁했 어요
▁게 스트
▁좋 았던
▁생각 해서
▁생각 한다"고
▁못 했지만
▁열 차
▁따 낸
▁입 금
▁입 지를
▁6 %
▁달 해
▁특 급
▁특 성이
▁적 당한
▁맞 다.

▁맞 서는
▁참 으로
▁참 나물
▁확 신을
▁물 에다
▁물 질이
▁새 송
▁단 계를
▁외 출
▁집 에서

▁집 행을
▁직 행
▁설 계를
▁앞 섰다.

▁명 과
▁것이 지
▁것이 다

▁역 삼
▁역 부족
▁그렇 군요.
▁너 머
▁10 곳
▁10 개월
▁200 m
▁양 호
▁포 크
▁법 치
▁데 에는
▁걸 린다.

▁프 레스
▁프 랜차이즈
▁행 정부가
▁중국 과의
▁합 니다.”

▁8 만
▁있어 서는
▁먹 던
▁약 정
대로 라면
▁점 포를
▁운 운
▁일본 식
▁하고 요

▁만들 게
▁임 플란
▁함 정
▁이상 이면
▁타 고

▁채 우
▁화 석
▁친 분이
▁산 모
▁산 소
▁넘 었
▁다음 엔
▁체 코
▁필요 도
▁필요 하지
▁각 기
▁찾 는다.

▁정치 인이
▁종 편
▁식 감이
▁힘 드
▁힘 써
▁경제 개혁
▁쓰 신
▁12 9
▁12 00
▁절 망
▁편 에
▁완 파
▁광 부
▁11 5
▁11 7
▁모두 의
▁날 려
▁카 를
억원 에서
▁부분 이다.

▁은 메달
하겠 다
하겠 지만
▁순 위를
▁순 수한
▁백 내장
▁눈 과
▁사이 에서는
▁태 백
▁태 워
▁태 도는
▁15 0여
▁몰 랐다.

▁만들어 낸
▁만들어 내는
▁코 를
▁평가 에서
▁여기 다가

▁접 경
▁요구 는
▁철 회를
▁예정 이었다.

더라 면
▁용 기
▁용 역을
▁운영 된다.

▁않았 나
▁않았 는데
▁현대 그룹
▁면 세
▁참여 정부
▁그것 에
0% 를
▁팔 을
▁그랬 어.

▁자기 가

▁돌아 선
▁어려 웠던
▁급 성
▁범 인
▁범 인이
▁분석 하는
▁보여 야
▁라 이스
▁효 자
▁이를 테
▁민주당 을
▁내년 부터는
▁터 미널
▁투자 한
▁비판 

▁엄마 가

▁압 둘
▁머 무는
▁친구 를
▁올라 간다.

▁회사 채
▁공동 선
▁봤 던
▁거의 

업체 는
▁휴 일
▁자유 형
▁기대 된다.

▁의미 한다.

▁발생 한다.

달러 ,
▁퇴 사
경제 인
▁직원 으로
▁읽 힌다.

▁논의 는
▁환경 영향
▁생산 량
▁프로그램 으로
▁대부분 을
▁같아 서

▁시장 경제
▁구성 된다.

▁건강 이
▁이해 관계
▁아까 

▁경영 에
▁달라 지
▁고려 하지
▁고려 시대
▁있다 '는
▁상대 방을
▁지도 부의
대학 을
▁유지 하기
▁깨 이
(6 1)
▁보수 와
▁보수 적인
▁꾸 민
▁흔 적을
▁현실 과
▁밥 이
▁질문 은
▁받았 습니다.

▁조직 의
▁견 과
▁묻 지
▁묻 히
▁움직 이지
▁개선 에
▁대응 이
▁요청 할
▁보이 기도
산업 이
▁인터뷰 

거리 다.

▁상승 을
▁공무원 과
▁공정 하게
▁선정 했다.

▁다르 기
▁기능 성
▁높아 져
▁가져 오
▁그대로 

▁1만 3
공사 ,
공사 와
▁지속 될
▁썰 매
▁수입 은
▁필요하 다”며
▁고객 들이
▁사태 와
▁보통 

▁방향 에
▁보호 하는
▁남아 있는
▁대출 이
▁참가 해
▁기획 한
중앙 회
▁밑 간
▁빌 린
▁망 라
▁망 명
▁1000 억
▁탄핵 심판
▁조성 해
▁똑같 애
▁여행 사
▁대구 ·경북
▁회복 이
▁P R
▁"이 런
▁남편 은
▁볶 을
▁타고 난
▁뉴욕 의
▁스마트폰 으로
▁달러 에
▁건축 물
하시 면

▁택 시를
▁기관 에
▁평화 유지
▁아닙 니다
▁언급 을
5000 만원
▁“그 러나
▁의사 결정
연구소 장은
▁맺 어
▁근로 자의
▁이케 

▁것과 는
▁문학 의
▁넣으 시고

▁재료 는
▁포기 한
▁사과 와
▁한반도 의
챔피언 십
▁홍보 를
▁살짝 

시킨 다는
▁임명 동의
야구 위원회
▁돌려 보
▁돌려 주
.7% ,
▁굴 러
▁싱 어
▁개막 하는
▁수상 했다.

▁생각하 시면
노조 는
▁자살 을
▁탐 색
▁텐 데.

▁교체 를
▁수도권 에서
▁알았 어.

▁일으 켰다.

▁국어 학
▁싶어 하는
▁색깔 을
▁196 9년
▁채택 을
업계 에
▁사법 부
▁설탕 

▁직업 이
위권 에
▁물러 난
15 일
·미 사일
▁검색 을
▁계산 을
▁샌 토럼
▁항의 했다.

▁합격 한
▁멋 있
▁진영 의
문제 에
▁주최 로
▁개방 형
▁묵 묵
▁이루어 지는
▁실종 된
▁떠오 르고
▁강경 한
▁어른 들이
▁그분 들이
▁자치 구
22 일
▁들이 고
코리아 는
▁예고 한
▁분쟁 이
▁일방 적
▁요기 다가
▁받아들이 는
▁갈아 입
▁드릴 게요.

▁남한 의
▁무관 하게
▁특허 를
▁가계 대출
쇼핑 몰
▁부진 한
▁비율 로
▁계좌 로
▁무엇보다 도
베이 니아
▁안돼 

▁쇠 고
▁이종 걸
▁스트레 스가
▁어떡 하
▁폐기 물
▁기상 청은
▁비서실 장
▁이례 적인
▁포털 사이트
▁노벨 상
▁지침 을
▁인사청문 회
▁혈압 이
▁멍 게
▁행보 에
▁탱 글
▁교육과학기술 부
▁문과 대
▁방통 위
▁단호 박
▁에너 지가
▁신선 한
▁명분 으로
kW h
▁법사 위
▁송도 국제
▁당당 하게
▁스페 셜
▁현대·기아 차
▁안녕하십 니까.

▁아휴 

▁컨트롤 타워
▁빼돌 린
▁감추 지
▁중수 부
▁합참 의
▁외교통상 부
▁파격 적인
▁태블릿 PC
▁최저임 금을
▁최태 원
▁단말 기
▁일환 으로
▁노란 색
▁한숨 을
▁삼겹 살
▁대타 협
▁신자유 주의
▁KA IST
▁덕수 궁
▁양해각 서
▁올랑 드
▁리처 드
▁한국토지 주택공사
▁얼어 붙
▁아이스크 림
▁[유 레카]
▁깨소 금
▁승승장 구
▁이데 올로
(THAA D
▁[호남 ]
( 미
( 조
( 일본
) 이나
3 만
3 000만
4 로
6 2
6 000
9 만
E R
E U
M A
] <
a ti
g ,
i on
k t
t 의
u l
· 9
· 백
· 인천
’ 만
’ 처럼
▁ =
▁ 례
강 경
개 에서
거 리고
거 렸다.

건 전
겠 네

경 마
경 기도
계 ,
관 제
교 수는
국 (F
기 게
기 ’를
내 

네 스
능 력이
니 에
대 회가
데 다
도 르
들 에서
라 면

란 은
래 의
랭 킹
량 으로
렸 고
로 와
론 적
룸 버그
마 늘
면 허
문 ,
문 제가
미 라
미 스트
바 라
버 스터
법 률
벽 을
부 인
부 진
분 담
분 위
뿐 만이
사 고를
사 추세
속 도
수 정
시 면은
식 별
식 사
신 도
신 화
아 산
악 을
억 제
엔 엔
엔 터테인먼트
여 겨
연 대는
왔 다고
외 국어
용 지
인 간
인 턴
인 지

일 까?

재 단에
전 까지
점 

정 부는
조 사는
주 세요

줘 

지 급
지 상
지 출
지 수는
진 료
찮 은
철 학
체 적
총 회를
층 으로
칭 을
카 운
커 가
클 라
통 의
팔 년
패 ,
하 가
하 죠

하 더니
했 어야
했 으니
형 과
환 이
황 식
희 상
힘 을
▁이 국
▁이 별
▁이 왕
▁이 통
▁이 라는
▁대 두
▁사 당
▁사 원
▁사 소한
▁지 정을
▁하 청
▁하 기가
▁1 .6
▁1 안타
▁가 겠
▁가 보
▁가 봤
▁가 신
▁가 정이
▁전 ,
▁전 적
▁정 호
▁2 곳
▁2 개의
▁보 드
▁보 듯
▁시 력
▁시 흥
▁시 기와
▁기 량을
▁거 머
▁거 다

▁거 라고

▁“ 교
▁“ 금
▁“ 방
▁“ 승
▁“ 학생
▁“ 경기
▁“ 조선
▁“ 언론
▁나 노
▁나 이는
▁자 문을
▁자 취를
▁다 승
▁‘ C
▁‘ 꽃
▁‘ 베
▁‘ 야
▁‘ 은
▁‘ 포
▁‘ 교육
▁‘ 미국
▁주 도로
▁등 에도
▁경 질
▁경 합
▁제 4
▁해 는
▁해 요
▁해 요.
▁국 고
▁말 았다.

▁말 했다”고
▁내 과
▁공 권
▁공 석
▁공 지
▁공 방이
▁안 치
▁안 다.

▁안 경을
▁안 중근
▁때 린
▁예 년
▁예 상을
▁오 위
▁오 디오
▁오 메가
▁여 가
▁여 보
▁여 자들이
▁않 느냐
▁않 나.

▁없 잖아

▁없 음을
▁위 배
▁고 모
▁고 운
▁고 치
▁고 강도
▁상 암
▁상 인
▁조 물
▁의 논
▁의 장을
▁의 회의
▁선 교
▁선 정을
▁비 상이
▁3 가지
▁3 번째
▁소 독
▁소 용이
▁유 소년
▁미 투
▁미 군이
▁되 었다.

▁되 나

▁" 3
▁" 보
▁" 정치
▁" 작년
▁생 명의
▁문 예
▁그래 두
▁개 는
▁개 에
▁개 연
▁마 찰
▁마 키아
▁김 소
▁' 구
▁' 모
▁' 우
▁세 로
▁신 씨는
▁동 독
▁구 우
▁구 한
▁아니 고.

▁그러 믄
▁진 동
▁진 로를
▁당 신은
▁4 ·2
▁불 복
▁불 응
▁도 핑
▁반 칙
▁반 포
▁5 명을
▁5 7%
▁실 기
▁계 기를
▁성 당
▁성 장의
▁영 사
▁영 진
▁사람 하고
▁장 치가
▁한국 에서는
▁한국 여자프로골프
▁학 내
▁학 자들이
▁학 자금
▁건 을
▁스 태
▁알 제
▁알 코올
▁두 차례
▁지금 ?

▁했 지.

다" 면서도
▁추 미애
▁열 세
▁대한 축구
▁대통령 께서
▁따 를
▁따 르지
▁6 학년
▁출 소
▁출 현
▁과 감
▁달 콤
▁서울 행정
▁물 결
▁정부 나
▁정부 서울
▁음 향
▁외 압
▁평 론가
▁잘 게
▁잘 

▁직 격
▁직 장에
▁직 간접
▁뒤 덮
▁뒤 져
하기 만
▁설 치를
▁매 력을
▁민 원을
▁앞 다
▁삼 을
▁명 씩
▁명 창
▁명 

▁청 주시
▁청 해진
▁총 영
▁10 배
▁10 위
... ”
▁7 위
▁7 0년
▁7 명이
▁금 고
▁금 정
▁얘 도
▁데 로
▁데 는

▁걸 쭉
▁파 인
▁파 주시
▁중국 도
▁8 억
▁초 코
▁초 점이
▁드 신
▁먹 어.

▁본 연의
▁임 종
▁논 평
▁국민 대
▁국민 들을
이라 든가

▁치 며
▁씨 씨
▁취 하는
▁취 지에
▁채 소를
▁손 쉬운
▁다음 주
▁각 별한
▁시작 해서
▁시작 하면
▁애 완
▁애 호
▁식 습
▁식 재
▁벌 고
▁벌 금을
▁표 정이
▁교수 들이
▁따라 ,
▁따라 야
▁리 커
▁있었 는데,
▁기업 에서
▁상황 에서는
▁상황 에서

▁국가 들의
▁승 마
▁얘기 들을
▁11 %
▁날 에
▁자신 만의
▁끝 낸
▁연구 한
▁연구 팀은
▁창 건
▁잡 으면
(1 만
▁나오 니까
▁부분 

▁됐 습니다

▁메 밀
▁항 목을
▁쪽 과
▁놓 지
▁전문 적인
▁준비 했다.

▁온 천
▁중요 합니다.

▁핵 을
▁오늘 은

▁동안 은
▁코 치는
▁사용 하면
▁병 영
▁병 력을
▁폭 풍
▁접 대
▁선생님 께
▁측 과
▁좋아 해
▁좋아 하고
▁좋아 하시
▁주장 해
▁운영 되고
▁와 이어
▁향 했다.

▁포함 될
▁문화 관광
느냐 가
▁범 국민
▁보여 줘야
▁공개 됐다.

20 )
▁효 력
▁탈 환
▁아무 렇
▁낮 춘
▁낮 에는
▁기술 개발
▁터 질
▁비판 적
▁비판 하고
▁엄마 

▁모습 에
▁친구 들을
▁극 도로
▁규모 도
▁없이 도
▁송 구
▁나라 로
▁위해서 도
▁노동 자들의
사회 는
사회 복지
▁있으 므로
▁상당 수는
▁반대 한
▁밀 접한
▁지지 율을
▁싸 워
▁싸 우고
▁특별 사
▁자유 민주주의
▁평균 보다
(4 9)
▁기대 감이
▁예산 으로
(5 9)
(5 6)
(5 0)
▁퇴 진을
▁xx 을
▁L S
▁긴 밀한
▁없어 지
▁악 순환
▁유럽 에
▁공격 에
▁홈 경기에서
▁주요 한
▁내려 진
▁구조 로
▁있는데 요

하다 고

▁혐의 도
▁제공 해
경기 연맹
▁도입 이
▁달라 

▁석 좌
▁증가 율
▁통일 에
km ,
▁적용 될
대학 의
▁검토 

정책 이
▁표현 할
▁우선 협상
▁나서 면서
▁신청 하면
▁확보 가
▁가서 도
▁배우 들이
▁업무 보고
▁워 킹
▁써 도
▁선택 은
▁선택 했다.

▁그동안 에
▁제작 된
▁행사 로
▁제기 할
▁아파트 가
▁독일 은
▁요청 해
▁을 지로
·1 0
▁부모 와
▁나왔 다고
▁착 륙
▁왕 따
▁왕 세
▁이십 대
▁욕 망
▁믿 음이
▁소속 된
▁모르겠 지만
▁모르겠 어

▁가져 다
▁0. 5%
▁198 4년
▁갈등 으로
▁시스템 에
▁쓸 데
▁자료 로
▁소개 하고
▁여야 의
▁설립 해
▁설립 했다.

▁실시 하는
▁실시 한다.

▁하시 면

▁주목 

▁M &A
▁수석 을
▁수석 의
주택 은
▁예술 을
▁수익 률을
스크 린
▁인권 위
하거나 

▁의료 진
▁대한민 국은
환경 을
▁장애 인이
프로 야구
▁바뀌 지
▁1000 억원
▁지급 을
▁유엔 이
▁챙 기고
▁탄핵 이
▁바꾸 지
▁행복 하게
▁줘 서
▁신고 가
▁한다 고

▁쇼 팽
▁국립 과학수사
▁건축 이
▁뭐냐 면은
▁“( 이
▁출전 한다.

▁염 기
국제 영화제
▁가치 관의
▁부회 장을
▁어제 

기구 (W
으니까 요.

▁행동 이
들한테 도
▁근거 는
▁되어 있
▁컴퓨터 에
▁접근 하는
▁죄 를
▁통신 이
▁선고 받은
▁나눠 서
▁유일 하다.

▁주식 형
▁아닌가 ?

▁특검 은
▁일어나 서
▁살짝 만
▁차별 을
▁심리 학
▁괴 물
▁공약 으로
▁아내 를
▁냄 비
▁지구 온난
▁제조 업체
▁거론 되고
▁일으 키는
▁홀 에서
▁발굴 해
▁응답 했다.

▁196 0년
▁196 0년대
▁답변 이
▁값 에
▁10% 를
.2% ,
(M OU
▁청문 회에
▁1조 원
▁머물 렀
▁한미 약품
▁설득 하는
▁콜 로
▁물러 서
▁특징 을
▁구간 은
▁‘대 통령
▁프로젝트 에
▁“한국 의
▁양파 를
▁예측 할
25 일
·사진 )가
16 일
▁습 관이
▁조작 을
▁이스라엘 은
▁제1 부
▁김정은 이
▁후배 들에게
▁포인트 가
▁조치 로
▁무너 져
▁고양 이
▁증언 이
예산 을
▁눌 렀다.

re ss
▁충격 이
▁이천십 사
▁주거 환경
▁유도 하는
▁조처 가
▁하반기 부터
▁엉 한
▁이행 하지
▁창의 적
.0% 로
ar t
▁계시 는데

▁끌어올 리는
▁따뜻 하게
▁대목 이
▁실업 급여
▁화려 하게
▁깔끔 한
로스 칸
▁오픈 프라이
▁효율 적으로
▁받으 러
▁우즈 는
▁패배 를
▁구상 이다.

구청 장
▁있습니다 만은

▁30년 간
▁새정치연합 은
▁엇갈 린
▁마감 했다.

▁최경 주는
(사진 )
▁‘최 순실
▁도요타 는
▁하드 웨어
▁소외 된
▁성명 에서
▁네트워크 를
▁영원 한
▁생생 하게
▁1500 m
▁언젠 가는
▁수신 료
▁글로 비스
▁십일 월
▁한자 리에
▁든든 한
▁농림 수산식품
▁추징 금
▁LG화학 은
▁여기저기 서
▁잃어버 린
▁마인 드
▁뮤직 비디오
▁스퍼드 대
▁스폰 서
▁중앙정보 국
▁김관 진
▁과징 금
▁“평 소
▁카르 텔
▁오호 

▁서강 대
▁무분 별한
▁국제통화기금 (IMF
▁알렉 산
▁사르코 지
▁펜실 베이니아
▁어뜨 케
▁마요 네
▁바이오시 밀러
▁[뉴스룸 /
사추세 츠
! ”

( 수
( <한겨레>
1 00
2 ,
6 3
8 명
H )
K )
O S
T 는
a p
e m
e st
h er
o T
u m
u p
~ 60
~ 17
· 과
· 노동
· 프랑스
▁ c
▁ 폼
▁ 니까
▁ 랜드
거 죠?

걸 이
경 기가
공 예
관 도
규 는
그 레
그 릇
논 문
누 구
닉 스
님 을
님 께서
다 (
다 니까

단 위
단 한
동 향
들 목
디 를
때 

라 ’
라 니
량 도
럼 비아
마 리가
말 라야
맞 이
머 리를
명 성
명 이나
물 머리
반 이
발 로
발 전을
배 기
배 추
배 치
베 레스트
보 에
본 부가
부 겸
부 자
분 배
블 랙
새 정치
센 치
솔 린
수 업
슨 의
시 나
시 브
시 

신 자
안 에서
양 성
얼 굴
연 설을
열 차
영 장을
오 버
운 을
으 세요.

을 까.

의 당
인 스
임 은
자 라는
전 ’
전 탑
죄 를
주 들이
지 침
직 이
진 입
징 용
착 이
처 에서
철 거
취 소
키 니
탄 핵
탕 을
패 ·
퍼 트
편 은
폴 리
플 렉스
하 하
하 세요.

할 려고
합 니까?

해 볼
화 되면서
▁이 글
▁이 나
▁이 현
▁있 구나
▁있 구요

▁있 나.

▁대 성
▁대 인
▁아 부
으로 의
으로 .

▁사 지
▁사 안은
▁사 연을
▁지 우
▁지 점에
▁하 냐
▁하 잖아
▁한 대
▁한 목
▁한 다.”

▁수 자원
▁1 ~
▁어 요.

▁가 석
▁가 보고
▁것 "
▁전 학
▁전 하는
▁전 원이
▁전 까지만
▁정 관
▁정 복
▁정 용
▁2 억원
▁2 라운드
▁보 는데
▁기 차
▁거 거든요?

▁“ 9
▁“ 감
▁“ 명
▁“ 백
▁“ 애
▁“ 야
▁“ 친
▁“ 카
▁“ 제가
▁나 만의
▁자 원을
▁다 쳐
▁네 트
▁‘ 꿈
▁‘ 독
▁‘ 밀
▁‘ 복
▁‘ 심
▁‘ 역
▁‘ 총
▁‘ 후
▁‘ 20
▁‘ 아시아
▁‘ 자유
▁일 송
▁일 "이라고
▁인 도를
▁인 수를
▁주 일
▁중 등
▁제 5
▁제 스
▁해 법을
▁해 준다.

▁국 도
▁말 의
▁내 전
▁내 

▁내 줬다.

▁공 표
▁공 장이
▁부 럽
▁부 평
▁부 혀
▁부 위원장은
▁안 착
▁안 상수
▁때 까지는
▁오 년
▁오 에
▁우 량
▁우 면
▁우 정
▁우 위를
▁여 하
▁위 임
▁고 이
▁상 해
▁조 복성
▁의 도로
▁선 양
▁선 장
▁비 ()
들이 나
▁3 위를
▁3 개의
▁3 ~5
▁소 용
▁소 원
▁미 네
▁미 성년
▁되 길
▁저 격
▁저 하고
▁" 6
▁" 강
▁" 교
▁서 열
▁서 예
▁뭐 지

▁최 민
▁마 빈
▁교 사의
▁많 다"고
▁많 으니까

▁' 남
▁' 천
▁' 해
▁' 세계
▁원 두
▁원 전이
▁원 세훈
▁요 린
▁신 태
▁무 바라크
▁분 포
▁통 증
▁통 한다.

▁구 내
▁구 두
▁구 본
▁구 태
▁구 하는
▁구 도가
▁구 단은
▁바 흐
▁아니 다”고
▁아니 어서
▁아니 잖아요.

▁아니 고요.

▁그러 더라고
▁들 린다.

▁강 도가
▁당 장은
▁4 가지
▁4 분의
▁불 붙
▁불 안을
▁반 입
▁반 성을
▁재 건
▁재 소
▁재 의
▁재 협상
▁5 곳
▁실 리콘
▁성 의
▁더 웠
▁후 가루
▁건 드
▁박 한
▁스 미스
▁알 폰
▁알 지?

에게 만
▁두 어
▁두 가지
▁회 화
▁감 탄
▁20 억
▁추 세가
▁열 기
▁열 리지
▁6 승
▁출 사
▁근데 .

▁과 천
▁적 나라
▁맞 췄다.

▁물 갈이
▁정부 ·여
▁들어 

▁외 야
▁배 에
▁직 거래
▁문제 에서
▁뒤 처
▁작 게
▁작 지만
▁매 장에서
▁매 사추세츠
▁미국 산
▁명 실상
▁것이 며
▁역 도
▁총 리에
▁그렇 죠?

▁살 았다.

▁금 전
▁막 론
▁막 막
▁막 말
▁법 원에서
▁사실 .

▁중국 인들이
▁합 니다."

▁번 호를
▁피 는
▁피 했다.

▁의원 들도
▁필 름
이나 마
▁높 았던
▁심 리가
▁관계 자의
▁임 박
▁변 론
▁변 했다.

▁함 으로써
▁국민 권익
▁씨 에
▁북한 인권
▁이날 까지
▁담 담
▁돌 봄
▁가능 해
▁채 우지
▁늘 려야
▁화 요일
▁돼 요.
▁사회 로
▁사회 와
▁사회 통합
해야 만
▁아이 비
▁아이 들도
▁증 세를
▁필요 해
▁각 계
▁정치 와
▁정치 인들이
▁[ 오늘
▁[ 책의
▁벌 레
▁표 가
▁표 고
▁표 적
▁이어 지면서
▁따라 붙
▁지역 경제
▁복 권
▁리 가
▁지원 금
▁지원 하기
▁상황 과
▁상황 ”이라고
▁상황 ”이라며
▁국가 보훈
▁호 르몬
▁학생 들도
▁얘기 가

▁완 봉
▁카 리스
▁자신 도
하면서 도

▁대학 수학
▁창 구
▁창 업을
▁< 문화
▁< 워싱턴
▁학교 도
▁됐 죠.

▁현재 

▁있을 지는
▁선수 와
▁눈 여겨
▁태 운
▁태 도로
▁중요 하다는
▁토 니
▁몰 리
▁홍 석
▁사건 에서
▁만들어 지는
▁코 앞
▁최고 급
▁커 지면서
▁글 은
▁난 무
▁난 색을
▁접 전
▁천 문학
▁설명 회를
▁받아 

▁예정 이어서
▁국회 법
▁수도 권의
▁그러니까 요.
▁용 지
▁용 어를
▁면 적이
▁디 테
▁포함 해서
▁결정 한다.

▁과정 도
▁일부 에선
▁정보 도
▁팀 장
▁팀 으로
▁낮 출
▁떨어 지지
정부 를
▁경쟁 적으로
▁수사 할
▁터 졌
▁비판 의
▁왔 다”고
▁그때 

▁14 년
me r
me nt
▁외국 의
▁친구 와
▁규모 인
▁송 환
▁나라 들이
▁회사 원
▁회사 인
▁책임 지고
▁몸 값
▁K O
사업 이
▁정상 화를
▁반대 해
▁인사 와
▁봤 어.

▁자유 로
▁기대 감을
▁예산 의
▁가격 의
▁방법 에
▁합의 는
▁퇴 원
▁제품 이다.

▁해결 에
▁맛있 습니다.

▁힘들 다고
▁중요한 

▁부담 스럽
▁악 기
▁주요 국
▁같아 요
▁나가 서

▁영국 에서
▁시장 으로
▁숨 지게
▁구성 하는
▁빼 고는
▁핵심 이다.

▁달라 "고
▁고려 하고
▁작년 보다
▁석 권
▁활용 을
▁찬 물에
▁보내 야
▁성장 한
▁건설 에
▁관리 하고
▁통합 에
▁통합 의
▁조선 인
▁조선 중앙
▁찍 힌
▁캐 스트
▁꿈 에
▁과거 와
▁시행 을
▁묻 은
▁움직 인
▁설치 하고
▁빈 번
▁빈 도가
▁남북 정상회담
▁사실상 의
라이 슬러
▁가입 자의
▁스타 들이
▁옮 겼다.

보고 서를
▁많아 .

▁받는 다고
▁뽑 힌
▁오래 전부터
▁맨 들
▁주시 기
▁선발 투수
▁정신 건강
▁공무원 들의
▁웃 음이
▁비용 도
▁8월 부터
▁모르겠 다”고
▁품 목을
시설 ,
시설 과
▁소득 대체
▁0. 4
▁갈등 은
▁하겠 지만
▁1만 여
▁쓸 어
▁상품 에
에스 비에스
▁흐 트러
▁잔 류
▁잔 인
▁최종 적으로
▁올림픽 을
▁이천 구
▁실시 된
▁사망 자가
▁시각 에서
▁누구 에게
▁재정 위기
▁근무 하고
▁반응 도
▁의료 관광
▁대법 원에서
▁바뀌 었
▁주고 받은
▁주고 받는
▁고위 직
▁제안 에
▁실패 로
▁압박 에
▁중소기업 의
▁아침 부터
▁잃 을
▁국회의 원이
▁서울대 학교
▁장기 적
▁달러 로
▁흘 렀다.

▁아들 인
)' 에
▁언급 은
▁광주 에서
▁흥 국
▁말씀드 릴
▁금지 하고
▁상황이 어서
포인트 ,
▁시도 한
▁존재 하지
▁봄 이
▁지시 가
▁교사 들은
▁파악 할
(I T
▁채용 을
▁선보 이고
▁선보 이는
▁197 0년
▁총선 과
▁고추 를
▁회담 이
▁일어나 지
▁출시 했다.

▁법률 을
▁추정 했다.

▁차별 이
▁자산 운용
▁아버지 와
▁하락 한
▁아내 의
▁기부 한
계약 서
▁학부모 가
▁없다 ’는
▁알았 는데

▁폴 리
▁비난 하는
▁삼성전자 와
▁배경 에
kg 으로
▁모임 에
▁소유 의
▁첨 예
▁라이 선
▁머물 며
▁쌀 을
▁충남 도
▁공유 할
▁복귀 를
신문 >은
▁무서 워서
▁넥 타
▁예예 .
▁예예 예
▁기여 를
▁T F
▁현금 으로
▁접촉 한
▁묶 여
▁나타나 지
▁진영 은
▁베이징 에서
▁결의 안을
▁포인트 를
▁철학 이
▁철학 자
▁실무 접촉
▁척 추
▁묵 은
▁中 ,
▁생존 을
13 일
▁닫 아
▁올랐 고,
▁공공기관 의
▁싶었 다"고
▁학술 지
▁최다 인
▁“우리 나라
▁“중 국의
▁맞추 고
▁성폭 행한
▁65 세
경쟁 력
▁집안 의
▁‘한 반도
▁비대 위원장
파이 낸셜
▁100여 명이
▁박영 준
▁t o
▁어쩌 고
▁기조 가
▁무소속 으로
▁부작 용을
▁학문 의
▁“어 떤
▁가깝 게
▁힐 링
▁이벤 트를
참여 예산
▁넣어주 세요.

▁인프라 를
▁결론 은
▁다이 아몬드
▁전후 해
▁점유 율은
▁늘리 기로
▁것인 가

▁방사 선
▁죄송 합니다.

결과 가
상태 에
▁금호 타이어
▁고쳐 야
▁시상 식
▁강연 에서
▁여객 기
▁세무 조사
▁피아노 를
▁“세 월호
▁정서 적
▁금융감독 원
▁꼼꼼 하게
▁조짐 을
▁감옥 에
▁아름다 움
야드 )에서
▁농림 축산
▁아스 널
▁건보 료
PGA) 투어
▁비공 식
▁저작 권
▁무더 기로
▁법제 사법
▁추기 경
▁하이닉 스
▁육아 휴
▁획기 적인
▁베네 수엘
▁깨닫 게
▁간편 하게
▁요리비결 의
리포 터
▁옮김 /
▁끔찍 한
▁은근 히
▁일축 했다.

▁조별 리그
▁디도 스
▁이산화 탄소
▁오락 가락
▁패스트 푸드
▁황우 여
▁국립중앙 박물관
▁파이낸셜 타임
▁2~ 3년
▁준결 승
▁중앙선거 관리
▁메이크 업
▁이회 창
▁대학수학 능력시험
, 

2 000만
4 000
8 2
9 억
> 과
P P
a s
o na
t 급
· 남
· 세
· 적
· 관리
· 감독
· 유럽
· 판매
’ 하는
▁ 킨
▁ 으로는
가 구를
게 이션
겠 어.

계 에선
공 장을
관 절
교 로
그 런
글 리
긴 급
김 없이
나 도
내 외
냐 ”며
너 스
녀 의
놔 야
다 이
다 ...
단 (
답 니다.

대 금
되 었다.

딩 크
락 이
래 에
러 드
론 으로
릿 한
만 금
말 에
못 해
문 예
물 류
미 리
받 기
버 렸다.

법 인이
변 경
병 원이
뼈 가
상 장
상 품을
색 의
서 스
석 한
설 에
세 기에
셨 습니까?

쇼 를
수 육
시 는데

실 래요?

안 과
억 8
없 어
염 을
였 다”며
온 라인
요 법
우 에
운 이
울 을
의 의
인 멸
일 ),
재 에
점 인
정 배
제 주
제 

조 각
종 환
주 며
주 기로
중 학교
지 표
지 죠.

지 마는
짓 는
쪽 의
찬 은
천 만원
초 에
축 을
출 마
층 에서
카 는
카 의
캠 퍼
탱 글
토 를
트 에서
페 이
폴 리오
품 질
할 수록
항 에
해 주고
했 었
혜 택
화 돼
휴 대전
희 의
▁이 공
▁이 선
▁이 슬
▁이 식
▁이 장
▁이 즈
▁이 코노
▁그 랜
▁있 음
▁있 기를
▁있 나?

▁사 장,
▁지 각
▁지 져
▁지 장을
▁지 수가
▁하 진
▁한 예
▁수 고
▁수 소
▁수 장
▁수 

▁수 치를
▁수 비를
▁1 로
▁1 타
▁1 만원
▁1 위는
▁어 후
▁가 죽
▁가 ?

▁가 구를
▁전 시는
▁전 무는
▁전 례가
▁정 자
▁정 할
▁2 등급
▁2 .4
▁보 령
▁보 죠.

▁보 장이
▁보 자.

▁보 니깐

▁시 와
▁기 공
▁기 동
▁기 금을
▁기 르는
▁거 물
▁“ 파
▁“ 포
▁“ 선수
▁“ 다음
▁나 들목
▁자 책
▁다 던
▁다 독
▁‘ 군
▁‘ 클
▁‘ 통
▁‘ 슈퍼
▁일 베
▁일 탈
▁일 하면서
▁일 했던
▁일 하던
▁주 도록
▁등 교
▁등 극
▁제 명
▁제 지
▁해 라

▁국 비
▁공 명
▁공 장에
▁부 문을
▁부 위원장
▁안 에서

▁때 다.

▁예 에.

▁오 버
▁우 엉
▁여 대
▁않 느냐.

▁없 잖아
▁없 지

▁고 개
▁고 르
▁고 비
▁고 생을
▁상 경
▁조 립
▁조 약
▁조 원
▁조 장
▁의 제를
▁의 회가
▁선 구
▁선 입
▁관 내
▁있는 게
▁3 당
▁만 회
▁만 장일
▁연 달아
▁유 관
▁유 창
▁유 에스
▁미 싱
▁미 쳤다.

▁되 새
▁되 기를
▁되 지만

▁되 잖아요

▁저 서
▁저 금리
▁저 출산
▁저 절로
▁" 성
▁" 과거
다는 

▁문 헌
▁최 씨
▁최 씨가
▁마 시면
▁마 세요.

▁교 복
▁교 전
▁교 직
▁김 양
▁김 홍
▁' 심
▁원 본
▁원 화
▁요 고
▁요 금은
▁세 액
▁세 상은
▁방 대한
▁무 모
▁통 장
▁동 동
▁동 력을
▁구 운
▁바 티
▁아니 거든요.

▁들 면

▁들 기름
▁발 행한
▁강 민
▁진 솔
▁당 신의
▁4 배
▁4 승
▁4 인
▁4 0.
▁4 개를
▁4 라운드
▁불 신을
▁받 고,
▁재 정부
▁5 0.
▁실 거래
▁계 기
▁계 엄
▁영 월
▁영 장을
▁영 감을
▁장 마
▁장 학생
▁장 하나
▁장 소에
▁한국 어를
▁박 준
▁좀 .

▁차 출
▁회 장에
▁감 고
▁감 행
▁감 각을
▁했 잖아.

▁좋 겠다는
▁생각 하시
▁못 하면서
▁열 매
▁열 지
▁따 지는
▁6 00여
▁6 이닝
▁과 제가
▁과 제는
▁달 구
▁달 달
▁서울 지역
▁서울 대는
▁참 가를
▁확 인이
▁들어 도
▁들어 있는
▁단 장은
▁단 서를
▁단 기간에
▁평 을
▁직 한
▁문제 ,
▁문제 가

▁문제 ”라며
하기 보다
▁설 레
▁삼 았다.

▁명 지대
▁것이 다.
▁역 으로
▁총 력을
▁총 장님
▁총 출동
▁그렇 군요

▁10 승
▁10 억원
▁살 포
▁7 이닝
▁금 수
▁얘 를
▁얘 가

▁에 쓰
▁대표 에
▁파 도
▁파 열
▁파 우
▁간 소
▁피 자
() 도
▁초 보
▁드 레
▁드 레스
▁먹 어

▁약 점을
위원 장,
▁필 라
▁점 쳐
▁관계 에서
▁변 한
▁변 해
▁변 혁
▁변 경을
▁논 리가
▁너무 너무
▁치 르고
▁타 면
▁담 화를
▁돌 을
▁취 소를
▁화 천
▁화 면이
▁하나 금융
▁사회 과학
▁산 적
▁산 다는
▁그렇게 까지
▁야 근
▁각 료
▁될 까.

▁시작 될
▁시작 되자
▁책 무
▁협 주곡
▁식 혀
▁[ 만
▁독 주
▁사업 가
▁그거 야
▁쓰 면서
▁있었 어.

▁기업 체
▁프로 가
▁얘기 

▁얘기 하지
▁보고 요.

▁날 렸다.

▁카 디
▁갈 릴
▁저는 .

▁경찰 에서
▁잡 수
▁첫 선을
▁당시 엔
▁여러 분이
▁부분 으로
▁됐 다"며
▁메 릴
▁메 세
▁놓 아
▁이거 를

▁태 광
▁삼성 에서
▁중요 하지만
▁만들어 졌
▁코 엑스
▁사용 하지
▁농 사를
▁폭 등
▁폭 은
▁글 도
▁천 사
레이 트
교육 에
▁육 성을
시간 씩
▁( 김
▁기록 이다.

▁금융 위는
▁용 서
▁않았 으면
▁조금 은
▁면 을
▁향 상을
▁추진 해야
▁피해 자의
▁않은 데

0% )
▁100 명
▁정보 공개
▁떠 들
▁자기 한테
▁기준 )
▁맡 기는
▁돌아 갔
느냐 ’는
▁모르 겠습니다.

▁라 스
▁라 틴
▁않고 도
케이 트
▁18 개
▁민주당 에
▁수준 까지
▁가족 에게
▁엄마 들이
▁그때 도
▁위원 회가
▁강조 해
▁친구 의
▁기자 에게
▁키 웠다.

▁쉽 지가
▁출신 은
▁밀 리
▁밀 착
▁지지 자
▁싸 드
▁싸 운
▁인정 받아
▁언론 들이
기관 리
▁“이 를
▁하루 종일
▁한번 씩
▁강화 했다.

시고 .

(5 1)
▁뛰 쳐
▁해외 자원개발
▁들어가 게
▁의견 은
▁발생 했을
문화 가
문화 의
문화 재단
달러 의
▁헌 재가
▁부산 에
▁활동 은
▁활동 할
▁직원 에게
▁역할 은
▁기간 제
▁읽 어야
▁없어 진
▁확대 ,
▁확대 

▁중요한 데

▁사진 도
▁퍼 스트
▁부담 도
▁이뤄 졌
▁듣 게
하자 ”고
▁겁 니다
▁유럽 은
▁효과 적인
▁나가 기
▁내려 온
개발 을
▁도입 했다.

▁도입 하기로
▁작년 부터
▁석 달
▁증가 에
▁업체 들의
▁통일 부는
▁보내 지
▁사무 국장은
▁건설 사
▁여자 부
▁기본 적
▁보수 의
▁우선 적으로
▁현실 화
▁신청 이
▁신청 서를
▁알아 볼
▁알아 ?

▁28 개
▁꿈 과
▁뿐 ”이라고
▁워 터
▁등으로 부터
▁6월 까지
▁견 딜
▁견 해가
▁행사 에는
▁개선 할
▁전략 이다.

▁이사 장의
▁이사 장으로
▁설치 돼
▁풍 경을
리지 원
▁I P
▁벗 고
▁교과 서는
▁나왔 습니다.

선거 를
▁뽑 혔다.

▁콘 트
▁케이 스
▁끊 긴
▁발견 되지
▁왕 이
▁공공 부문
▁웃 긴
회사 와
▁쓴 다.

▁공정 위가
▁소속 인
▁트럼프 를
▁품 에
▁품 은
▁품 질을
▁높아 지는
▁중단 했다.

▁처리 하는
▁은행 에서
▁쓸 었다.

▁경기도 의
▁상품 으로
▁개혁 의
▁필요하 다

▁늦 어도
▁원내대표 와
▁블 록
▁어머니 를
▁하시 게
▁수석 부
▁대변 인도
▁행정 자치
▁언어 로
▁시각 장애인
▁지켜 보고
▁수익 률은
▁쏟 고
▁N A
▁빌 라
▁2012년 부터
▁바뀌 면
▁썼 다고
스러 울
▁전통 과
▁여러분 께
▁잃 지
▁“지 방
▁뉴욕 에서
▁루 스
▁상황에서 ,
▁연속 으로
▁스트 로스칸
▁슬 프
00만원 의
▁출전 하지
▁개최 한
▁사라 졌
▁사라 지고
▁시설 에
▁2013년 까지
▁탓 이
▁걱정 하지
▁생각해 보
▁드라마 는
▁존재 가
연구소 의
건설 이
▁근로 자가
▁근로 소득
▁파악 해
▁빠져 나가
▁한화 의
▁허용 했다.

▁들어서 면
▁아래 에
▁D J
▁수요 는
▁혈 관이
▁유리 하게
▁개입 한
▁차량 의
▁선고 받았다.

▁바라 보
▁친박 (친
▁그만 둔
▁그만 뒀
▁부문 의
▁개념 은
▁동의 할
▁취소 했다.

▁안녕하 세요.
er )
▁굳 어
▁명예 회
▁보건 소
▁수상 자
▁안팎 에서
▁낳 아
▁꾸준 한
했다 ’는
했다 '는
▁진술 한
▁많았 고,
▁없다 며
▁일으 켰
▁이란 과
▁시위 대는
▁색깔 도
▁공항 에서
▁세종 로
증권 은
▁승리 할
▁관광객 을
▁모아 서
▁바른 정당이
▁몰아 주기
활동 에
▁번역 이
▁선두 에
▁고등학교 를
▁설득 력이
▁복귀 한
▁움직임 도
▁솔직 하게
(N LL
▁민족 주의
▁가구 당
▁쏘 스
▁폭발 적인
▁초기 부터
▁육십 오
▁“현 대
▁의식 해
▁퍼센트 가
▁홈페이지 (www.
▁무너 지는
▁평생 을
▁분류 되는
”( 김
▁일상 적인
▁카페 에서
▁달성 할
▁대처 할
▁엘지 전
▁이천십 일
▁어른 이
▁급증 하고
▁쟁 점이
▁의결 했다.

▁카메라 에
▁그래야 지
▁숲 을
▁기아 차
▁재무 장관
▁낮아 진
▁엠 씨
▁드러나 지
▁금리 인
▁법조 인
▁30분 쯤
▁엉 

▁자극 하는
▁요기 다가

▁독자 적으로
▁진정 으로
▁고문 은
▁극단 주의
▁탁 구
▁민주화 운동
▁무관 한
▁활발 히
▁한은 은
▁강요 하는
▁한·미 ·일
▁아니에 요
▁국무총리 실
도미사일 방어
▁왜곡 된
▁압도 적인
▁이외 에도
▁아이디어 가
▁강정 호
▁자존 심
▁[수도권 I]
▁태도 다.

▁박지 성은
▁할아버 지가
▁벼 랑
▁지목 된
▁간담 회를
▁시어머니 가
▁학생부 종합전형
세이 브
▁되돌 려
▁입맛 에
다’ 며
▁내걸 었다.

▁연관 된
▁금감 원은
▁영등포 구
▁박태 환은
▁어떨 까.

▁급격 한
선진 화
▁아쉽 다.

▁신동 주
▁탕 수육
▁날짜 를
▁IC T
상공 회의
▁모비스 는
·박 사
▁“남 북
▁피고 인
▁아이스 하키
▁금융당 국이
▁김포 공항
▁충실 히
▁구멍 을
▁구멍 이
▁자부 심을
▁마땅 한
▁출동 한
▁엑스 포
▁몬 가
▁세탁 기
▁요것 을
▁남짓 한
▁기다리 던
▁금속 노조
▁핵무 기를
▁조속 한
▁교훈 을
▁초중 고교
▁똑똑 한
▁녹취 록
▁단원 고
▁궁극 적으로
▁바이러 스가
▁유재 학
▁앞뒤 가
▁지능 형
▁과태 료
▁패키 지
▁첩 보
▁론 스타
▁적잖 은
시안 게임
▁이득 을
▁연석 회의
▁부가가 치
▁자릿 수
▁곤두 세
▁개발도 상
▁일회 용
▁에프티 에이
▁유격 수
▁막강 한
▁눈부 신
손해 보험
▁알카 에다
롤라 이나
시앤 캐
▁공교 롭게
▁원- 달러
▁탱글 탱글
▁오위 다오
! "
% 가
( m
) 에는
/ /
1 부(부장
4 개
5 로
6 만
6 개월
9 명
F TA
O C)
a k
n d
o g
~ 11
· 감
· 실
· 위
· 국제
· 러시아
’ 이라
▁ 렉
강 ,
겠 다.
경 화
공 대
공 원을
공 기관
과 점
관 리를
광 다
구 제
구 치
구 호
국 이다.

국 장을
극 단
기 야
기 초
길 청
깜 짝
꼴 로
남 도
내 년
내 면서
넥 스
녀 가
님 

다 를
단 다.

달 래
달 에
당 국의
도 까지
되 었
되 더라도
드 ,
려 다
려 운
료 품
률 과
매 김
명 령을
모 레
문 서
물 질이
미 약
바 둑
바 탕
박 스
방 재
범 모
병 ,
병 과
병 원의
부 장은
북 부
분 쯤
불 량
비 슷
빈 은
뿐 인
사 )
생 존
석 과
성 취
셀 프
셨 죠?

소 리로
수 ’
수 성
스 톱
스 테이
슬 램
승 이
시 대의
실 장이
아 이가
아 카데미
악 기
안 ’을
언 제
에 요
에 요?

여 곡
였 어.

오 가
올 랐다.

외 고
원 ·
원 식
원 칙
음 파
응 하는
이 긴
입 금
자 격
작 용
잘 못
장 에서는
저 것
전 화를
점 이다.

정 거
정 당은
종 교
죠 "

진 압
집 으로
징 계
창 호
채 의
처 로
처 장
천 연
체 적으로
축 제가
탈 리아
태 경
티 노
판 의
페 어
편 집
푸 르
하 에서
학 으로
협 약을
형 인
히 지
▁이 북
▁이 쁜
▁이 들에
▁이 분이
▁있 냐
▁대 ()
▁아 기를
▁아 메리카
▁아 세안
▁사 계
▁사 극
▁사 의
▁사 적인
▁사 시는
▁사 정은
▁사 들인
▁지 겨
▁지 끔
▁지 칭
▁지 수는
▁하 원의
▁하 거든요

▁하 더라고.

▁수 순
▁수 첩
▁수 없이
▁1 점을
▁1 명은
▁1 라운드
▁1 .4
▁가 담
▁가 든
▁가 이나
▁가 면서

▁가 솔린
▁전 라도
▁정 연
▁정 태
▁정 의를
▁정 원을
▁정 국이
▁2 m
▁2 급
▁2 호
▁보 던
▁보 기를
▁시 까지
▁시 교육청
▁시 선으로
▁기 점으로
▁거 다
▁거 로
▁“ 적
▁“ 집
▁“ 교육
▁“ 지역
▁자 외
▁자 식을
▁네 오
▁네 ?

▁네 ~

▁‘ 방
▁‘ 직
▁‘ 학교
▁‘ 복지
▁‘ 중국
▁‘ 내가
▁일 깨
▁일 체
▁일 하며
▁인 원은
▁주 면

▁주 기도
▁등 )로
▁중 랑
▁해 명을
▁해 소를
▁국 보
▁말 려
▁말 리
00 년
▁공 헌
▁공 부가
▁공 백을
▁부 재
▁안 좋
▁때 쯤
▁예 약을
▁오 송
▁오 존
▁우 뚝
▁우 발
▁없 나
▁없 다"는
▁고 부가
▁상 류
▁상 상을
▁조 류
▁의 약
▁의 욕을
▁비 자금을
▁3 점을
▁3 위로
▁만 지
▁소 각
▁소 품
▁연 골
▁연 금을
▁연 소득
▁유 스
▁유 세를
▁미 군은
▁미 군의
▁미 분양
▁되 죠

▁되 죠?

▁저 랑
▁저 리
▁저 어
▁저 에
▁저 와
▁저 지를
▁저 마다
▁" 단
▁" 무
▁" 양
▁" 왜
▁서 영
▁서 점
▁생 성
▁생 전
▁문 선
▁문 자가
▁문 희상
▁최 영
▁같 다
▁개 각
▁마 셔
▁마 술
▁마 취
▁마 리아
▁교 감
▁김 계
▁김 황식
▁' K
▁' 살
▁' 실
▁' 국가
▁원 동
▁요 금이
▁요 미우리
▁방 공
▁방 산
▁신 정
▁신 부는
▁무 르
▁무 색
▁무 제한
▁분 과
▁동 굴
▁우리 금융
▁바 에서
▁아니 고,
▁그러 냐면
▁들 리
▁들 었던
▁강 압
▁진 해
▁당 대
▁당 번
▁현 금을
▁4 할
▁불 사
▁불 렸던
▁올 린다.

▁도 루
▁도 자기
▁도 마에
▁반 반
▁반 부패
▁재 구성
▁5 ,
▁실 손
▁실 체를
▁성 인이
▁장 단
▁한국 수
▁학 원을
▁노 안
▁노 선은
▁박 스
▁남 게
▁남 다른
▁차 리고
▁두 들
▁했 다

▁했 잖아

▁20 세
하게 도
▁생각 이

▁대통령 으로
▁따 지
▁6 ~7
▁할 당
▁할 애
▁달 렸
▁맞 습니다
▁물 대
▁들어 섰다.

▁들어 갑니다.

▁단 양
▁외 제
▁직 종
▁문제 들이
▁뒤 섞
▁매 치
▁삼 척
▁삼 진을
▁명 문화
▁청 각
▁총 장에
▁총 액은
▁북 방한계선
▁검 증을
▁10 km
▁10 cm
▁살 지
▁7 5%
▁처 해
▁처 리에
▁된 다.
▁막 .

▁데 를
▁데 서

▁걸 까.

▁걸 어가
▁파 급
▁파 행
▁행 복지
▁행 위로
▁번 거
▁피 서
() 이다.

▁8 5%
▁드 려야
▁19 세
▁의원 들을
▁의원 직을
▁먹 었던
▁약 하게
▁투 수로
위원 장으로
▁필 기
▁점 진
▁밝혔 습니다.

▁밝혔 지만,
▁줄 은
▁변 함
▁논 리로
▁지난해 에도
▁씨 티
▁담 장
▁돌 보
▁교육 ,
▁교육 청은
▁취 미
▁화 엄
▁사회 가

▁산 사태
▁아이 고

▁증 대
▁필요 성
▁시작 하고
▁찾 게
▁책 들이
▁애 리조
▁종 결
▁시간 대
▁시간 만
▁시간 대에
▁환 하게
▁[ 이
▁독 거
▁속 해
▁큰 딸
▁이어 졌
▁버 스가
▁이게 .

▁힘 은
▁지역 인
▁엄 길청
▁기업 도
▁절 실한
▁승 복
▁호 평을
▁업 적을
▁권 역
▁얘기 만
▁얘기 는

▁국내 에서도
기업 을
▁질 환을
▁허 허
▁잡 채
▁형 상
▁< 가
▁첫 사랑
▁당시 에

▁나오 면

▁은 은
▁은 행을
하겠 다며
▁순 회
▁놓 쳤다.

▁선수 다.

▁백 팔십
▁사이 즈
▁태 우고
▁삼성 과
▁핵 ·미사일
▁거기 에는
▁길 라
▁최고 령
▁최고 지도
▁농 산
▁농 약
▁경기 의
▁병 력
▁빠 르고
▁글 쓰
▁평가 받는
▁난 감
▁난 항을
▁월 경
▁월 에
이었 으나,
▁이야 기로
▁선생님 이

▁곳 의
▁않았 다"며
어서 는
▁와 도
▁면 에서는
▁참여 하지
▁보인 다는
0% 로
▁문화 에
▁팔 꿈
▁팔 렸다.

▁정보 와
▁탄 원
▁라 이트
▁장관 에게
▁공개 가
▁공개 되지
▁갔 더니
▁낮 고
▁18 8
▁떨어 지면
▁아직 

▁내년 까지
▁가족 들
▁엄마 와
▁왔 어.

▁외교 를
▁죽 이
▁소비 자를
▁시민 들
▁시민 을
▁기자 들의
▁윤 형
▁이름 만
▁회사 로
▁마련 이
▁폐 업
▁패 소
▁황 당
▁황 선
시키 려
▁봤 어?

▁봤 더니

업체 에서
▁우려 되는
단체 들은
▁풀 린
▁휴 식을
▁자유 주의
▁기대 할
▁강화 ,
▁강화 하기로
(5 월
▁어렵 지만
▁전문가 로
▁판매 에
▁귀 했다.

▁서울시 청
▁어디 에서
▁드러 날
▁들어가 고

▁합의 

▁퇴 행
▁맛있 어요

▁힘들 다는
▁페 널
▁참석 하지
▁변호 사의
▁논의 하기
▁부담 으로
▁부담 해야
▁플 레
▁지방 정부
▁공격 하는
▁프로그램 이다.

하다 ’는
▁구성 한
▁빼 곡
▁빼 내
개발 연구원
▁서비스 도
▁경영 권을
▁도입 ,
▁지나 간
▁어린 이가
▁레 인
▁성장 과
▁성장 해
▁적용 된
▁지도 부를
대학 에
▁검토 해야
▁비롯 된
▁시절 에는
▁재판 부에
▁클 레
▁넘어 간
▁우선 순
▁알아 보고
▁밥 상을
▁자리 였다.

▁자리 매김
▁딸 도
▁시행 에
▁받았 고
▁분위 기에
▁인천 의
▁6월 에
▁됩 니다.
▁이것 저것
▁5월 에
▁대응 해
▁제기 하고
▁아시아 의
▁사랑 받는
▁I oT
산업 에
산업 은
▁서로 가
▁인간 에
▁부모 들이
▁자연 스러운
▁자연 스레
▁주택 은
▁뽑 을
▁발견 돼
▁웃 으면서
▁결혼 해
▁도시 형
▁대화 는
▁땅 값
▁땅 은
▁음악 에
자리 에서
▁쓸 쓸
▁대책 도
▁수입 차
▁개혁 이
▁종합 편성
▁단체 를
▁소개 로
▁반발 에
▁이천 이십
▁성과 연봉
▁셈 이
▁토론 회를
운동 연합
▁제한 된
▁제한 이
▁전화 통화
▁남아 프리카
▁뿌 리는
원으로 부터
▁국무 회의
▁컨 버터
▁제도 적
▁훈련 이
▁아빠 랑
▁끼 치는
▁축구 협회
▁확정 되면
▁주도 해
▁주도 했다.

▁제안 

▁강력 범죄
▁들었 다”고
▁압박 하는
▁보험 사
▁회복 할
▁줘 

▁밝혀 진
▁있겠 다.

▁60 살
▁잃 어
▁한다 ’고
▁국립 대
▁가야 지

▁음식 은
▁흘 린
▁광고 는
▁불안 감이
)' 라는
▁뭐냐 

▁소비자 물
▁쏟아 부
▁출연 하는
▁금지 한
▁몰라 요.

▁시도 했다.

▁하는데 도
▁계열 사가
▁존재 감을
▁쿠 르드
▁맥 도
▁기소 돼
▁일정 으로
▁10년 을
▁모양 으로
▁모양 이다.

▁행동 은
▁추천 했다.

▁문학 을
▁넣으 시고
▁넣으 시면
▁전기 자동차
▁소설 은
▁미사일 방어
▁보니 ,
▁D NA
▁197 6년
▁교수님 께서
▁사퇴 한
▁확산 을
▁혈 관
▁유리 할
▁짧 아
▁1위 인
▁나이 로
▁제재 가
▁임명 됐다.

▁비상 시
▁그만 둘
▁E LS
자에게 는
▁자산 이
▁혜택 도
▁도와 줄
▁협상 에서
▁걷 고
▁걷 기
▁구매 를
▁성적 은
▁성적 표
▁낳 는
▁학부모 들이
▁학부모 들의
▁2005년 부터
안타 를
▁알았 는데
▁지휘 자
▁폴 리티
개국 에서
.9% ,
▁구입 하는
▁균 형이
▁콩 을
▁부처 의
▁채택 한
▁승리 한
▁통계 청이
▁타이 이
▁종목 은
▁드리 고

▁잇따 른
▁잊 고
아버 지가
전략 을
▁인공 위
▁2004년 부터
▁사무총 장이
▁공감 대를
▁공감 대가
▁한글 대장
·사진 )은
▁묶 은
▁0 시
▁이슈 를
▁만들었 다는
▁센터 를
가구 ,
▁리그 에서
▁아쉬 움이
▁평창 올림픽
▁유사 시
▁“공 무원
▁감염 된
▁밟 고
▁간부 들이
▁긴장 감이
(G 20)
▁고맙 습니다

▁충격 에
▁공무 원은
▁터뜨 려
▁형성 돼
▁나름 의
▁파괴 하는
▁국세 청은
▁낮아 졌다.

▁목적 은
▁참고 인
▁팽 목
▁시사 했다.

▁바란 다.

▁“김 정은
▁개봉 한
▁중요하 다”며
이버 섯
공간 을
▁불거 졌다.

▁케이티 는
▁비율 도
만달러 (약
▁계좌 를
협의 회는
▁“미 국의
▁녹색 성장
▁지출 을
▁들려 준다.

▁소프트 웨
▁충청 도
▁시리즈 는
▁동일 하게
28 일
저축은행 은
▁만남 을
▁유니 버
▁재능 을
▁해상 에서
▁보건복지 부는
창조 경제
▁시골 에
▁신인 왕
프리 미
▁이혼 을
▁리스트 에
▁칭찬 을
▁답답 한
▁“국민 의
▁이례 적이다.

▁PD 는
▁유발 하는
▁그중 에서도
▁규칙 을
▁관할 하는
▁광복 절
▁바르 셀로나
아트 홀
▁나쁘 지
▁성능 을
▁문과 대학
사령 관
테크 노
▁흥행 에
▁맥락 에서
주인 공
▁지혜 를
이오 드
▁닥 터
▁리고 추
▁주검 을
▁박인 비는
▁“해 외
▁테스트 를
동아 일보
만4 000
▁부풀 려
▁태어 났다.

▁당당 히
▁까닭 은
▁신생 아
▁항소심 에서
▁4·1 3
▁직권 남용
▁멘토 링
▁US 여자오픈
관왕 에
▁입수 해
▁국사 편찬
▁과태 료를
▁재가 동
▁엔씨 소프트
(0 2
▁인센티브 를
▁법학 전문대학원
▁산업통상자원 부
▁<시 엔엔
플래 시
▁현대오 일
아침 에
▁사이코패 스
▁인스타 그램
▁에스케이(SK )
▁ML B
▁스카우 트
▁자이 언
▁'잡 월드
▁세인트 루
물상 ]
▁위구르 족
▁안토 니
▁무함 마드
▁포트 폴리오
셜록 홈
▁이스탄 불
▁지극 히
▁효력 정지
▁농림축산 식품
▁만장일 치로
▁[만 물상]
광다 이오드
! "

' 이었다.

( 경
( 박
( 성
( 영
( 유
( 재
) ’를
) '를
1 무
3 명
4 000만
9 5
9 7
E )
G M
S F
u re
· 7
· 우
· 복지
▁ 깐
개 )
건 은
검 은
검 장
게 이트
결 핵
경 전철
계 도
곡 차
관 리에
교 실
교 수로
군 에서
규 를
그 리
글 바
기 금을
깊 은
나 나
나 가고
내 과
내 시
네 는
노 릇
농 약
놓 으면
는 가

니 치
니 컬
님 께
님 들
다 보
단 도
데 자
돼 지
따 라
람 이
량 과
러 블
레 저
로 이터
르 자
마 나
말 라
매 장
물 었다.

미 노
배 심원
번 이나
병 원에
복 무
본 부를
봐 도
분 열
블 릭
사 ·
새 가
술 ,
슈 타
시 즘
신 라
십 니까
십 니까

씨 카드
야 .
어 리
업 무를
연 휴
염 은
영 의
예 비
왔 습니다.

용 ,
워 .

원 인
웠 지만
위 스
윤 리지원
음 .

의 무
이 다

이 야?

익 이
자 ”고
자 전거
잡 니다.

장 이나
재 원
저 리
적 에
전 기
전 망
점 프
제 안
젝 트
조 달
종 인
주 면서
주 ()
중 ,
중 해
증 명
증 여
지 었다.

진 출
차 기
창 고
창 출
척 을
천 년
청 탁
츠 는
커 뮤니
컨 트리
클 러
테 네
투 성이
티 가
파 괴
파 라
파 인
포 털
하 모
한 이
항 만
해 수
해 놓고
허 가를
활 용
활 을
효 가
▁이 양
▁그 죠.

▁그 로부터
▁있 지는
▁있 죠.
▁있 더라도
▁있 잖아요
▁있 다”면서
▁대 관
▁대 담
▁대 덕
▁대 동
▁대 본
▁대 

▁대 사로
▁아 냐?

▁사 양
▁사 투
▁사 행
▁사 연이
▁지 정한
▁하 느
▁한 테
▁수 류
▁수 목
▁수 서
▁수 도

▁수 정을
▁1 .7
▁어 플
▁어 이가
▁가 부
▁가 실
▁가 열
▁가 하는
▁가 하고
▁가 니까

▁것 뿐
▁것 인데

▁것 들

▁것 "이라는
▁전 방
▁전 엔
▁정 계
▁보 실
▁보 온
▁보 다가
▁보 기는
▁시 금
▁시 앤
▁시 조
▁기 무
▁기 도를
▁기 회는
▁기 계가
▁기 사에서
▁기 류가
▁“ 北
▁“ 첫
▁“ 헌
▁“ 문재인
▁“ 요즘
▁다 할
▁‘ A
▁‘ 승
▁‘ 평화
▁‘ 개인
▁일 대를
▁일 인가
▁인 재가
▁주 가를
▁주 세요
▁등 반
▁경 과
▁경 직
▁경 로를
▁제 소
▁제 보가
▁해 놨
▁해 갖고
▁말 했던
▁내 던
▁내 의
▁내 진
▁공 수
▁공 판
▁오 면은
▁우 물
▁여 자를
▁않 다
▁위 촉
▁위 스키
▁고 명
▁고 작
▁고 층
▁고 가의
▁상 자
▁조 급
▁조 폭
▁의 상
▁의 정
▁의 장의
▁의 심이
▁선 후배
▁비 어
▁비 해서

▁있는 .

▁3 세
▁만 화가
▁모 기
▁모 셨습니다.

▁소 름
▁소 행
▁소 재가
▁연 면적
▁유 상
▁유 자
▁미 르
▁미 소를
▁저 러
▁저 조
▁저 처럼
▁" 1
▁" 장
▁" 평
▁" 서울
▁서 상
▁생 후
▁뭐 든
▁문 정
▁문 의가
▁최 전
▁최 선의
▁최 첨단
▁개 운
▁교 습
▁교 재
▁교 황이
▁김 근
▁' 6
▁' 도
▁' 라
▁' 만
▁' 알
▁' 양
▁' 위
▁' 주
▁' 친
▁' 피
▁세 션
▁방 울
▁방 출
▁신 비
▁신 중한
▁무 궁
▁무 를
▁무 대는
▁분 수
▁분 홍
▁분 인데

▁구 강
▁바 그
▁들 면서
▁들 으면서
▁발 상
▁발 길이
▁근 현대
▁강 연을
▁강 렬한
▁진 상을
▁4 곳
▁4 차례
▁불 신이
▁결 렬
▁도 구로
▁반 으로
▁재 적
▁5 만원
▁5 명의
▁5 000여
▁실 물
▁실 형을
▁계 십니까?

▁영 주
▁사람 입니다.

▁장 윤
▁한국 지
▁한국 에서도
▁한국 은행이
▁노 무
▁이렇게 까지
▁박 명
▁차 은
▁차 곡차
▁감 격
▁감 시를
▁했 대

▁했 으니까
▁20 60년
▁좋 으면
▁때문 ”이라며
▁생각 했어요.

▁못 해서
▁6 0.
▁할 까?

▁과 열
▁달 할
▁특 임
▁특 화
▁특 성에
▁서울 광장
▁적 에
▁확 정한
▁물 로
▁물 었
니다 만은

▁단 결
▁외 상
▁평 안
▁집 주
▁집 단의
▁문제 들을
▁뒤 에

하기 까지
▁설 악
▁설 비를
▁매 끄
▁미국 에선
▁삼 표
▁것이 었
▁10 초
▁10 만원
▁7 일부터
▁된 장을
▁에 디
▁에 베레스트
▁법 으로
▁법 인이
▁데 치
▁대표 적으로
▁걸 ?

▁파 르
▁파 병
▁간 혹
▁간 장

▁합 니다.
▁의원 총회에서
위원 이
▁9 명이
▁판 사가
▁임 관
▁국민 투표
▁국민 연금을
이라 

▁치 았다.

▁타 자로
▁북한 산
▁관련 해서

▁갖 기
▁갖 가지
▁가능 하게
▁화 산
▁하나 는

▁산 문
▁산 출
▁산 업을
▁아이 

▁증 말
▁크 리
▁야 구를
▁정치 인의
▁정치 외교
▁시간 이

▁[ 김
▁속 초
▁이게 ?

▁올해 보다
▁지역 에서는
▁있었 어

▁기업 ,
▁기업 들
▁상황 도
▁상황 입니다.

▁12 만
▁절 단
▁승 려
▁승 률
▁충 동
▁충 무
▁충 실한
▁군 대를
▁민주 화를
▁학생 에게
▁완 화를
▁11 8
▁날 마다
▁갈 까
▁질 적
▁끝 을
▁허 지
▁대학 과
▁< 조선
▁메 일
▁항 산화
▁쪽 으로

▁있을 까

▁계속 할
▁백 령
▁눈 은
▁사이 에는
▁볼 티모
▁삼성 ,
▁발표 한다.

주의 료
▁몰 릴
▁트 레이드
▁30 일까지
▁홍 상
▁해야 될
▁사건 도
▁코 스를
▁코 스타
▁사용 된
▁커 진다.

▁폭 주
▁평가 한다.

▁감독 도
▁국제 기구
▁설명 은
▁해서 .

▁철 학과
▁좋아 서

▁곳 .

▁기록 에
▁주장 하며
▁금융 위원회
▁운영 과
▁운영 이
▁떨 고
▁와 일드
▁개발 된
▁그것 도

▁여성 혐오
▁100 일
▁별 명을
▁탄 광
▁맡 긴
▁돌아 보
▁브 로드
느냐 "며
▁어려 웠다.

▁급 행
▁범 인을
▁전체 회의에서
▁갔 어.

▁골 밑
▁골 이
▁13 5
▁13 년
▁13 억
▁아직 까지는
▁개인 적으로는
▁수사 하는
▁투자 자들이
▁비판 에
▁봐 요

▁선거 의
▁왔 다”며
▁상태 인
▁압 구정
▁영화 도
▁둘 을
▁뜻 도
▁뜻 에
▁뜻 은
▁뜻 대로
▁소비 자들은
▁올라 갔다.

▁윤 여
▁송 성환
▁책임 져야
▁만나 서

사회 와
▁패 한
사업 도
▁같애 요
▁쉽 지는
▁반대 에
▁반대 할
▁황 당한
▁인사 의
시키 고,
▁우려 와
▁밀 린
한국 당
▁어느 정도
▁인정 받은
▁침 공
▁풀 기
▁언론 과
▁언론 에서
▁자유 가
▁하루 아침에
▁일반 고
마트 폰
▁얻 었
(5 5)
▁해외 여행
▁귀 엽
▁서울시 의회
▁발생 하면
▁시즌 에
▁맛있 을
▁활동 했다.

▁참석 한다.

▁마지막 까지
▁없어 서

▁확대 했다.

▁넣어 요?

▁이뤄 지면
▁환경 부는
▁사고 는
▁사고 에
▁영국 이
▁구조 다.

구나 .
▁의혹 은
▁빼 야
▁방문 할
▁건강 검
▁주변 국
▁감사 원의
▁업체 를
▁살아 갈
▁성장 률이
km 에
▁유지 한
▁깨 어
▁익 을
▁통합 해
▁기본 으로
▁보수 에
▁녹 여
▁중앙 아시아
▁신청 해
▁능 가
▁자리 로
▁내놓 는다.

▁비슷 해
▁도움 으로
▁워 너
▁번째 다.

▁26 일부터
▁인천 시는
▁놓고 도
▁개정 에
▁행사 도
▁독일 에
▁풍 속
▁풍 자
▁수출 하는
▁보이 게
▁부족 으로
▁사랑 과
▁요리 로
▁교과 부는
▁스스로 의
▁스타 가
▁인간 과
▁나왔 지만
▁1년 을
▁기억 하는
▁뽑 았
▁통과 하는
▁선발 로
▁왕 실
▁되겠 습니까?

▁이전 에는
시설 로
▁소득 의
▁달리 

▁땅 콩
▁하겠 다
▁하겠 다"고
▁1만 7
▁대책 에
▁썰 은
▁개혁 안
▁필요하 다면
▁노력 은
▁불법 으로
▁불법 사찰
50 여
▁자료 도
▁제출 을
▁블 로
▁전시 회를
통신 에
▁실시 할
▁얼굴 로
운동 본부
▁하시 는데

사로 서
▁주목 받는
·2 8
스럽 다”고
▁F 1
▁대기업 들이
▁참가 했다.

▁졸업 식
▁2년 을
▁구속 이
▁지하 에
▁양념 장
▁촉 각을
▁재정 위
▁N SC
▁이동 할
▁컨 벤션
▁팬 들에게
▁제도 에
▁장애 가
▁장애 를
▁장애 인을
▁안보 와
▁곧 장
▁약속 이
▁전통 을
▁건물 에서
(7 4
▁조성 하는
▁들었 어요.

▁B 형
▁억 류
▁대구 에서
▁전쟁 의
▁작가 들이
▁밝혀 야
▁이루 지
▁잃 는
▁브랜드 인
▁한다 '는
▁등장 인
▁등장 해
▁장기 적인
▁항상 

▁가야 지
▁흘 리고
▁스트 리
▁광고 가
이자 ,
▁슬 럼프
▁치료 하는
(C J
(C C)
▁아닙 니까

▁언급 했다.

▁쪼끔 만
▁의사 결
▁모델 은
▁모델 인
▁금지 된
▁부인 과
▁혁신 적인
▁시도 교육청
▁그쵸 

▁계열 사를
▁바꿔 서
▁카드 사
▁처벌 이
▁2차 대전
▁절대 평가
▁봄 나물
▁변호사 ,
▁변호사 들이
▁10년 째
▁슈 팅
▁섞 어서
▁대표팀 에
▁직후 에
▁올려 야
▁입학 한
▁197 1년
▁죄 가
▁차량 은
▁증거 인멸
▁선고 한
▁밝히 면서
▁단일 후보
▁자율 주행
▁도로 가
▁액 세서
▁동의 하지
▁말하는 

▁출발 했다.

▁기반 한
▁신경 숙
▁테러 리스트
▁마늘 도
▁받아들 였다.

▁집단 소송
▁낳 았다.

▁원전 의
▁관객 이
▁흔들 릴
▁수원 지법
▁수원 지검
▁이틀 째
▁현대차 그룹은
▁소리 도
▁지휘 를
▁지휘 봉을
▁196 1년
▁촉구 하고
▁2만 5000
▁꼬 박
▁아동 학대
kg 의
▁드리 블
▁몰아 넣
지사 ,
▁정의 화
▁설탕 이
▁청구 한
▁연출 한
▁출석 해
▁플레이 를
▁생기 고

▁샌 더스
▁꺾 었다.

▁쏘 쓰
▁어울 려
▁체제 의
▁객 석
▁습 관을
▁6개월 간
▁무시 하는
▁부여 하는
▁국민연금 이
▁진입 을
▁채권 단
▁워싱턴 에서
▁‘사 랑
▁상반기 (1
▁미군 기지
▁살펴 보면
▁대법원 장
▁연봉 은
▁후원 금을
▁아쉬 워했다.

▁채널 A
▁분류 돼
▁증언 했다.

▁매달 려
▁컬 럼비아
▁소녀 의
▁앨 런
▁깎 는
▁물리 적
▁이천십 이
▁시켜 서
▁쟁 점으로
▁연방 수사
▁연방 준비
▁기아 차는
▁간호 사가
▁유권 자의
▁하여 간
▁챙겨 야
▁퇴직 금
▁폐쇄 회로
▁솔직히 

▁지자 체가
▁스피 커
▁곤충 을
올해 의
▁끌어올 렸다.

▁팽 창
▁대답 했다.

▁경찰청 장
▁드릴 까요?

▁유행 하는
▁결합 한
▁무관 심
▁데이 비스
공간 으로
▁둘째 ,
▁의원님 

만달러 를
해왔 던
▁포항 제철
▁수집 한
▁조지 아
▁조지 프
가격 이
입니다 만은

▁알리 샤
▁접수 된
▁영업이익 이
▁“가 장
▁관중 이
▁린 지
▁표결 에
▁짝 이
▁자존 심이
▁받아들여 지지
▁포스코 는
▁고정 관
(사진 )이
▁인민 군
▁적절 치
▁객관 적으로
▁사항 이
▁주기 적으로
▁등판 한
▁입사 한
▁음반 을
▁냉장 고에
▁‘1 00
▁추억 을
▁즐거 움을
▁빨간 색
▁경상 도
▁격려 했다.

▁교섭 단체
▁띠 고
▁대대 적으로
▁“지금 까지
이라던 가

▁가락 으로
▁돌아오 지
▁일시 적으로
만6 000
▁아사 드
▁다름 없
▁소집 해
▁대륙 간탄도미사일
▁금융당 국
▁추신 수
▁추신 수는
(가 명
▁외신 들은
▁초·중 ·고
-4 로
▁다저 스
▁남아공 월드컵
▁일으키 고
라던 가

▁단단 한
▁파란 색
세종 시
▁음주 운전
▁보편 적
▁볶음 밥
▁상식 적으로
∼6 월)
▁재보 선
▁릴 레이
▁일종 에
▁유가 증권
▁도우 미
번홀(파 4
▁리우 데자
▁획기 적으로
▁한·중 ·일
▁자유무역협정(F TA
▁국무총 리가
▁지속가능 한
▁사모 펀드
▁2연패 를
▁내세우 며
▁벤치 마
▁광진 구
▁차명 계좌
▁문자메시 지를
▁제너 럴
▁드래 프트
▁20개국 (G20)
▁대통령직 인수
▁프란 치스코
▁하반 기에
▁불분 명
▁다채 로운
▁자유계약선수 (F
▁홈페이 지를
▁<비비시> (B
▁우승컵 을
▁봉하 마을
▁성신 여대
▁이를테 면
▁청해진 해운
▁명실상 부한
▁[오늘 과
▁<문화 방송>
▁컨버터 블
▁차곡차 곡
▁리우데자 네이
' 까지
' 였다.

( ?
( 민
( 소
( 원
) 이었다.

) ’을
) ’의
1 명
2 무
4 명
9 2
F P
F T
I A)
N C
P M
S M
a )
i m
m L
o s
t 을
· 문
· 정치
· 광주
· 울산
∼ 7
가 짐
개 성
교 포
군 으로
그 때
그 인
근 의
꺼 이
난 에
내 도
내 역
냐 .
논 의
니 와
님 ?

대 요

데 르
동 계
동 기
돼 

되 자,
드 (
딩 을
떨 어
라 ’는
로 켓
르 면서
리 ’
리 노
립 대
만 도
메 드
메 일을
메 시지
명 인
명 주
문 

민 과
바 바
반 찬
방 은
법 원에
보 ,
보 리
부 턴
부 

불 안
비 례
비 만
비 율이
사 드
사 절
산 에서
새 우
생 으로
서 에는
선 동
성 장의
세 도
세 데스
셔 가지고

송 라이
수 권
스 닥
시 대에
실 히
싸 이
안 고
안 해
았 기
어 터
어 도

어 치를
업 자
에 어
엔 

열 심히
염 에
오 르는
요 금을
울 한
원 .

은 .

의 도
이 노
이 므로
인 출
임 정
입 학
자 에서
자 리가
장 각
재 철
전 에서는
전 에서도
절 에
절 차를
정 ’
정 에서
죄 로
주 시는
주 시고요

증 가
지 리
직 하고
쪽 이
창 수
추 행
출 금
층 과
치 도
카 스
캐 롤라이나
커 버그
탈 북
통 ,
트 넘
파 ’
폭 발
푸 른
프 터
피 는
하 천
한 미
할 까
항 으로
했 어

했 음에도
협 정을
확 한
회 생
회 원
희 는
▁이 채
▁이 씨의
▁이 쪽으로
▁이 바지
▁그 대
▁그 었다.

▁그 들을
▁그 치고
▁있 다."

▁대 테러
▁아 들과
▁사 춘
▁사 기를
▁사 전을
▁사 운드
에서 ,
▁지 갑
▁지 쳐
▁지 점을
▁지 시에
▁지 진이
▁하 수
▁하 기는
▁하 세요

▁하 와이
▁한 밤
▁한 이
▁수 납
▁수 니
▁수 락
▁수 개월
▁1 곳
▁1 인가
▁1 실점
▁전 

▁전 역에
▁정 맥
▁정 석
▁정 리가
▁정 서가
▁2 점을
▁2 명의
▁2 경기
▁2 명,
▁2 학기
▁시 비
▁시 도가
▁시 공사
▁시 의원
▁시 집을
▁기 로
▁기 부를
▁기 프트
▁거 느
▁거 미
▁거 고요

▁“ 군
▁“ 환
▁“ 향후
▁나 기
▁나 주
▁나 .

▁나 니까

▁자 초
▁자 퇴
▁다 친
▁다 하고
▁다 쳤다.

▁다 하겠다”고
▁‘ 감
▁‘ 관
▁‘ 네
▁‘ 발
▁‘ 분
▁‘ 죽
▁‘ 통일
▁일 류
▁일 억
▁일 주
▁일 기를
▁일 이

▁일 대에
▁일 감을
▁인 과
▁인 조
▁주 스
▁주 문이
▁주 지사
▁주 셔서
▁주 니어
▁경 전
▁중 공
▁중 불
▁제 고
▁제 대
▁제 막
▁제 법
▁제 청
▁제 기를
▁해 사
▁해 놓고

▁내 구
▁내 륙
▁내 줘
▁내 에서도
▁공 용
▁공 정을
▁공 원을
▁부 터
▁부 자가
▁때 리는
▁예 치
▁오 ~
▁오 던
▁오 리지
▁우 월
▁여 백
▁않 는

▁않 으니까

▁않 나요?

▁없 다”
▁없 거든요.

▁위 증
▁위 상이
▁고 기에
▁조 상
▁조 인
▁의 제로
▁의 회에서
▁의 회에
▁선 명한
▁관 공
▁비 료
▁비 틀
▁비 리가
들이 었다.

▁3 할
▁3 .5%
▁만 루에서
▁모 셔
▁모 티브
▁소 관
▁소 진
▁소 동이
▁소 박한
▁연 명
▁연 비
▁연 산
▁연 기에
▁유 례
▁유 영
▁유 착
▁유 쾌
▁되 긴
▁되 니
▁저 온
▁저 쪽에
▁" 소
▁" 재
▁" 19
▁" 선수
▁" 아이
다는 데
▁생 명이
▁뭐 를
▁문 책
▁그래 .
▁최 명
▁최 성
▁최 씨의
▁최 승희
▁같 더라고

▁개 나
▁개 량
▁마 

▁김 규
▁김 순
▁' 거
▁' 로
▁' 조
▁' 중
▁' 초
▁' 파
▁' 아이
▁세 상의
▁방 미
▁신 원
▁무 기로
▁분 들한테
▁통 찰
▁동 탄
▁동 호
▁동 상을
▁구 울
▁구 분이
▁아니 니까

▁발 사에
▁강 영
▁강 을
▁진 통
▁진 학을
▁당 헌
▁당 대표
▁당 사에서
▁현 장이
▁불 공
▁도 래
▁도 화
▁도 시에
▁도 곡동
▁재 정을
▁재 단은
▁실 장이
▁성 산
▁성 주
▁장 시
▁장 비가
▁학 원에서
▁후 인
▁건 가?

▁남 대문
▁스 릴
▁스 테인
▁알 면
▁차 이스
▁두 게
▁두 면
▁두 부를
▁생각 에는
▁생각 입니다.

▁못 했기
▁열 정이
▁6 000만
▁할 머
▁출 혈
▁특 권
▁적 십자
▁맞 는다.

▁참 을
▁물 건이
▁들어 줬다.

▁평 온
▁집 회가
▁잘 생
▁잘 하면
▁배 낭
▁배 영
▁문제 라는
▁뒤 바
▁매 개로
▁민 망
▁민 선
▁민 속
▁미국 이나
▁미국 에서는
▁삼 청
▁명 분이
▁청 장
▁것이 다”라고
▁역 점을
▁총 격
▁북 송
▁북 에
▁살 에
▁살 다가
▁7 년간
▁막 은
잖아 .
▁양 과
▁양 보를
▁양 질의
▁포 상
▁인제 는
▁법 도
▁데 만
▁데 얀
▁대표 작
▁걸 을
▁중국 으로
▁간 장을
▁합 수
▁합 해
▁피 부에
▁초 안을
▁초 소형
▁19 개
▁먹 여
▁먹 이
▁먹 거리
▁먹 으니까

▁먹 음직
▁투 병
▁본 선에
▁정도 까지
▁정도 밖에
▁후보 들은
▁점 으로
면은 .

▁심 리로
▁것은 ,
▁관계 자들을
▁지난해 와
▁치 켜
▁치 렀다.

▁다른 

▁타 선은
▁활 력을
▁활 주로
습니다 만
▁돌 린
▁교육 도
▁왜 요?

▁취 하고
▁채 굴
▁화 재가
▁돼 도
▁아이 러
▁넘 나드는
▁증 정
▁크 다”며
▁세계 무역
▁체 어
▁야 심
▁시작 했다고
▁시작 했고,
▁시작 했습니다.

▁정치 인은
▁협 력이
▁애 널
▁애 가

▁식 재료
▁환 원
▁[ 인천
▁싶 으면
▁싶 어

▁누 굴
▁버 금
▁경제 수석
▁쓰 시
▁있었 다면
▁있었 고.

▁국가 보안
▁절 여
▁프로 필
▁권 용
▁권 혁
▁권 했다.

▁완 충
▁보고 했다.

▁날 라
▁갈 려고
지를 

▁아니라 면
▁질 식
▁허 무
▁연구 하고
▁결과 와
▁잡 혔
▁형 법
▁형 의
▁< 월
(1 00
▁부분 의
▁학교 나
▁메 카
▁순 찰
▁순 위가
▁현재 로서는
▁백 혈
▁백 이십
▁사이 토
▁준비 는
▁준비 했습니다.

▁온 다.

▁온 전히
▁15 5
▁15 세
▁중요 하다
▁토 양
▁핵 안보
▁30 만원
▁홍 수
▁홍 상수
했던 

▁코 리안
▁사용 될
▁정말 .

▁농 장
▁여기 에는
이었 죠.

▁이야 길
▁국제 정치
▁천 명
▁년 

▁좋아 지
▁좋아 하지
▁특히 ,
▁예정 

▁국회 에서도
더라 ?

▁그러니까 요
▁기록 도
▁용 어가
▁않았 습니까?

▁베 리
▁와 중
▁포함 하는
▁결정 으로
▁문화 유산
▁여성 에
▁100 개
▁팔 았다.

▁별 거
▁별 개로
▁자기 들
▁이용 하고
▁급 기야
▁공개 하고
▁공개 되는
20 만
▁갔 어
▁갔 어

▁탈 모
▁13 만
▁18 %
▁18 세
▁기술 에
▁기술 적
▁생각을 

들과 는
▁민주당 도
▁터 지는
▁터 무니
▁왔 어

▁영화 와
▁14 %
▁친구 들도
▁기자 들은
▁송 승
▁송 치
▁송 전탑
▁마련 

▁만나 지
▁폐 렴
▁노동 시장
▁있으 세요?

▁공동 성
▁25 일부터
▁반대 가
▁황 정
▁인사 에
▁name 9
▁우려 된다.

▁밀 접
▁주민 은
▁보도 는
▁휴 학
기관 을
▁러 슨
▁러 시앤캐
(4 3)
(4 6)
▁희 곡
▁의미 도
▁않아 요

▁않아 서

▁귀 순
▁방법 이다.

▁역사 적으로
▁부산 지역
▁xx 

▁힘들 었던
▁없어 져
▁없어 지는
▁확대 될
▁붙 였다.

▁퍼 트를
▁울 리
▁듣 는다.

▁없었 다”며
▁지방 세
▁지방 을
▁내려 갔
▁놀 이터
▁건강 식
▁제공 하기
▁달라 요.

▁C F
▁증가 로
▁찬 성이
▁만든 

▁성장 세를
▁문제를 

▁집중 하는
▁롯데 가
▁깨 는
▁한편 으로
(6 2
(6 3)
▁보수 진영
▁꾸 린
▁표현 으로
▁27 개
▁갑 니다.

▁나서 기로
▁신청 자
▁꿈 도
▁밥 은
▁능 동
▁배우 자
▁낙 하산
▁시행 착
▁시행 한
▁가까 스로
▁제작 했다.

▁제작 진은
▁끓 이는
▁견 지
▁행사 한
▁대응 하기
▁대응 하지
▁공연 과
▁공연 에
▁잘못 이
▁제기 돼
장으로 서
방송 이
▁보이 면서
▁여론 에
▁고민 할
▁고민 해야
▁펼 침
▁프랑스 가
▁I BK
▁교과 부
▁러시아 에
▁나왔 는데

▁40 ~50
▁매출 의
▁자연 과
▁내부 에서도
▁관련해 ,
▁착 취
▁발견 하고
▁틀 에서
▁정신 적으로
▁원래 

▁욕 심을
금융 그룹
▁위험 성이
▁위험 성을
▁공정 성을
▁선정 할
▁8월 까지
▁소속 의
▁다르 다고
▁도시 가
▁도시 계획
시설 에
▁중단 한
▁진출 해
▁대화 하는
▁처리 한
▁처리 해
▁반영 한다.

▁음악 회
▁숙 명
▁1만 2000
▁경기도 가
에스 케이
▁고객 들의
▁전시 를
▁엔 진을
▁자동차 가
▁과학 자
▁히 말라야
▁히 딩크
▁던 질
▁뿌 리가
▁수익 성
▁취업 이
▁근무 했던
▁밑 바닥
▁N IE
▁반응 이다.

▁빌 릴
▁이걸 로
▁군사 력
▁거쳐 서
▁썼 던
거래 를
▁범죄 의
▁전통 문화
▁챙 길
▁확정 해
(7 2
▁주도 의
시켜 서
▁외국인 들이
▁빚 어진
▁국립 외교
▁국립 국어
한다 며
▁달러 화
▁배치 돼
▁배치 했다.

▁불안 감을
▁노조 를
▁까 만
스터 디
▁기초 자산
▁이달 부터
▁부동산 을
▁평화 통일
▁깔 깔
▁절반 에
▁절반 으로
사고 가
▁의사 들이
▁드라마 의
▁몰라 서
▁어제 도
▁있어서 는

▁맺 는
▁기소 했다.

▁근로 시간
▁허용 하고
▁채용 한
▁교과서 가
▁물어 보면
스코 리아
(19 6
▁내세 웠다.

▁이래 야
▁선진 국의
▁마무리 된
▁마무리 할
전문 지
▁마찬가지 였다.

▁닭 가슴
▁도전 할
▁폐지 하는
▁자율 성을
▁액 수가
▁개념 으로
▁추정 하고
겠다 ’는
▁창업 자
▁뉴스 공장
▁굴 복
▁굳 게
▁개막 한
▁심리 적으로
▁튀 어나
▁수상 자로
▁런 트
▁수업 은
▁자살 로
▁안팎 에
▁안팎 에선
▁구매 한
▁명의 의
▁옥 시
▁신용 평가
▁흔들 리지
▁지배 하는
▁벗어나 기
.1% ,
개국 에
▁공직 윤리지원
▁196 2년
▁핵실험 에
▁전공 의
▁누리 과정
미술 관에서
▁봅 슬레이
▁완전 한
▁뚜 이
▁소유 하고
▁첨 가
▁경북 대
▁부드 러
▁영상 으로
on g
.8% 로
▁자본 이
▁선두 로
▁70 주년
▁도착 해
(N A
▁자원 개발
▁능력 도
▁능력 에
지구 에
달라 ”고
▁연출 가
▁구간 이
▁논문 은
▁강의 실
▁마케팅 에
▁갤 럭시에
▁동영 상이
▁않으 려
▁하자 .

▁‘공 정
▁파견 된
▁이슈 로
▁이슈 에
▁해소 할
▁대학생 들이
▁실무 회담
시험 을
▁합병 을
▁외환 위
▁소녀 상
▁덮 고
오픈 에서
▁출입 을
▁직전 까지
▁부장 판사
고속 철
▁기아 자동차
▁참기름 을
▁겹 치면서
▁개별 적으로
피아 드
▁부르 며
▁“중 국이
▁상상 력을
▁의존 도가
▁둘이 서
▁끌어올 린
▁선박 을
▁사립 고
▁‘제 2의
▁구분 해
▁역전 승
▁뇌물 수수
▁통상 임금
▁조항 은
▁신분 증
▁붙잡 아
▁붙잡 혔다.

▁박영 수
▁잠재 적
▁죽음 의
▁앞장 섰다.

▁있습니다 만

▁등급 이
▁넘어서 는
▁장악 한
▁가이드 라인을
▁설문 조사를
▁가리 키
▁웨 스트
▁의도 도
▁KB 국민
▁모자 라
▁점유 율이
▁“일 단
▁어떡 해
▁데려 다
번홀 에서
▁정수 장학회
▁소셜 미디어
▁동해 안
▁넷 째
▁선제 골을
▁여부 도
.... "

▁인류 의
▁무력 화
▁내각 의
▁“새 로운
▁해주시 죠.

▁혈압 을
▁다운 로드
▁불출 마를
기본 계획
▁용의 자
인인 증
·사 법
▁“저 는
▁명칭 을
▁순환 출자
▁사각 지대
▁중대 형
▁2018년 까지
▁어려움 에
▁실수 요
▁아끼 는
만7 000
▁감상 할
▁식구 들이
(가 칭
▁버티 고
▁얘네 들이
연설 에서
▁부지 런
▁아바 타
▁조종 사
▁실효 성이
▁신용등급 이
▁성형 외과
▁감각 이
▁팽팽 한
▁전성 기
▁방과후 학교
보좌 관
▁관악 구
▁변수 다.

▁관건 이다.

▁영혼 을
▁내주 며
ig ht
▁내셔널 리그
▁최후 의
▁납득 할
▁최고경영자(CEO )
▁퍼포먼 스
▁이규 혁
▁유럽연합(EU )
▁으응 .

▁의구 심을
▁LG전 자는
▁“검찰 이
▁스프 링
▁이노 베이션
▁보금자리 주택
▁우체 국
▁원격 의료
호흡 기
▁돈까 스
▁안전보장이 사회
▁기초생활 수급
▁핵탄 두
▁광물 자원
▁엔지니어 링
▁맹활 약
▁손연 재는
▁반문 했다.

▁공직선거 법
▁마오 쩌
▁물꼬 를
▁불합리 한
▁애틀랜 타
▁심신 미약
▁판문 점
▁오이씨 디
▁딸내 미
▁<한국방송> (K
▁최희 섭
▁묵묵 히
▁양해각서 (MOU
▁페널 티
(CC) TV
% )
( 국
( 부
) 이라는
- 10
3 의
5 2
8 억
8 000
9 3
D C
L PGA
R )
T F)
i b
t er
· 마
· 토
· 개발
’ 라
’ 에도
’ 라며
▁ 랍
▁ 룸
▁ 슴
▁ 습니다.

▁ 니다

▁ ad
가 ?
가 구가
간 부
개 는
거 수
거 예요.

걸 ?

것 은
격 차
공 장에서
공 연을
교 ,
군 기지
그 로
금 고
기 나
기 .

기 구를
까 요

나 봐.

남 부
네 이터
네 이션
넥 센
녀 는
니 카
당 원
더 는
동 욱
됐 다"며
되 지는
된 장
두 면
두 고

딩 이
랄 지

러 브
련 은
론 과
룡 이
르 와
리 야
리 히
릴 라
링 크
마 니
마 니아
맞 는
머 는
물 

물 질을
미 ,
바 타
반 에
버 쿠
부 서
분 도
브 리지
비 어
사 '
사 자
사 히
사 실을
사 이어
생 ,
생 들은
설 은
성 대
수 습
순 이익
술 은
슬 리
승 일
시 장과
실 태
아 래
아 메리카
아 시안게임
악 의
야 족
어 링
업 의
연 계
였 는데,
예 금
예 정
왔 고,
용 사
웠 어요.

윤 근
율 로
으 므로
은 이
이 ’
이 ?

인 기
인 원
자 니아
저 스
제 조
조 치를
주 고,
지 향
지 는

직 하게
처 분을
척 의
쳐 야
초 교
총 괄
충 북
충 이
친 이
컨 설팅
텐 마
토 가
통 치
티 스
티 켓
팀 (
평 통
폰 을
품 으로
프 ,
프 와
필 름
하 죠?

한 글
한 텐
한 다

해 산
헬 로
호 르몬
화 나
활 성화
회 (
회 찬
휴 가를
▁이 효
▁이 정은
▁이 르고
▁그 쪽에
▁그 토록
▁있 습니다.”

▁있 음에도
▁대 미
▁대 승
▁대 에
▁아 드
▁아 로
▁아 서
▁아 태
▁아 메리칸
▁사 일
▁사 의를
▁사 정에
▁사 나이
▁지 날
▁지 체
▁지 구의
▁하 디
▁하 순
▁하 회
▁하 거든요?

▁한 경
▁수 식
▁수 위
▁수 학과
▁1 기
▁1 순위
▁어 서

▁어 김없이
▁가 구는
▁가 졌던
▁것 보다는
▁전 곡
▁전 원을
▁정 성을
▁2 6년
▁보 양
▁보 시고
▁보 수가
▁시 판
▁시 레이션
▁기 저
▁기 자를
▁기 법을
▁기 꺼이
▁거 쳤
▁“ 계
▁“ 홍
▁“ 민주
▁“ 민주당
▁“ 피해
▁나 들이
▁나 면서
▁나 이트
▁다 방
▁다 지
▁다 니다.

▁다 목적
▁‘ 골
▁‘ 금
▁‘ 별
▁‘ 엔
▁‘ 키
▁‘ 토
▁‘ 예술
▁‘ 인권
▁‘ 청와대
▁‘ 갤럭시
▁일 절
▁일 상을
▁인 출
▁인 접한
▁주 의를
▁중 의원
▁제 주의
▁해 역에
▁말 끔
▁말 린
▁말 에는
▁내 무
00 억원을
▁공 황
▁공 기를
▁공 장은
▁공 사는
▁공 산이
▁공 세에
▁부 리
▁부 스
▁부 침
▁부 지에
▁때 에

▁예 수
▁오 마
▁오 는데
▁우 러
▁우 방
▁우 유를
▁우 여곡
▁여 보고
▁여 권의
▁여 파가
▁없 앤
▁위 암
▁위 기는
▁위 키리
▁고 른
▁고 분
▁고 종
▁고 기도
▁고 도의
▁조 경
▁조 정한
▁의 사와
▁비 벼
▁있는 가

▁3 부
▁3 00만원
▁3 등급
▁3 -1
▁3 라운드
▁모 신
▁모 니다.

▁연 이
▁연 평
▁유 씨는
▁유 행이
▁미 미
▁미 만의
▁저 우
▁저 도

▁" 매
▁" 민
▁" 실
▁" 영
▁" 진
▁" 요즘
▁생 명과
▁뭐 야?

▁문 병
▁문 젠
▁문 장을
▁그래 요?
▁최 혜
▁최 측근
▁교 문
▁많 습니다

▁많 잖아요.

▁많 으신
▁김 도
▁김 에
▁김 주영
▁' 독
▁' 부
▁' 새
▁' 저
▁' 적
▁' 차
▁' 카
▁' 서울
▁' 국제
는데 ...
▁원 금
▁원 서
▁원 리를
▁요 르
▁요 코
▁방 망
▁방 불
▁방 탄
▁방 화
▁무 차별
▁분 당을
▁동 점을
▁구 독
▁그러 구
▁그러 네요.

▁들 깨
▁근 대화
▁강 철
▁강 풍
▁강 아지
▁진 전이
▁당 에서
▁현 저히
▁4 개의
▁4 000만원
▁4 000여
▁불 임
▁도 배
▁도 정
▁도 토리
▁재 단에
▁5 배
▁5 명은
▁5 분의
▁5 번째
▁5 ·24
▁실 속
▁계 실
▁성 악
▁영 산
▁영 종
▁사람 .

▁사람 이다.

▁더 듬
▁장 갑
▁장 모
▁장 소가
▁장 군의
▁한국 계
▁한국 보다
▁한국 관광
▁후 발
▁후 지
▁노 량
▁노 인들이
▁박 람회
▁남 극
▁스 이
▁차 근
▁했 고요.

▁20 명
▁때문 일
▁추 세를
▁생각 에

▁생각 했는데
▁못 박
▁못 했고
▁열 악
▁열 다섯
▁열 일곱
▁따 서
▁입 상
▁입 었
▁6 명의
▁6 ·4
▁과 실
▁달 콤한
▁적 자가
▁맞 다
▁맞 췄
▁물 의를
▁물 가가
▁들어 봤
▁외 과
▁배 는
▁직 구
▁문제 였다.

▁작 가를
▁민 원이
▁민 감하게
▁미국 과의
▁미국 여자프로골프
▁앞 의
▁삼 아야
▁명 명
▁것이 다."

▁역 력
▁역 학
▁총 수가
▁총 재가
▁그렇 다는
▁그렇 지만

▁검 사의
▁10 1
▁10 조
▁살 면
▁7 00여
▁200 억
▁된 대

▁양 주
▁에 요.

▁에 세이
▁포 로
▁포 부를
▁인제 .

▁법 적인
▁법 인의
▁대표 자
▁파 생
▁파 파
▁파 장을
▁때문에 요.

▁간 다는
▁피 란
▁피 츠버그
▁8 위
▁8 명의
▁초 라
▁초 유의
▁초 고속
▁먹 구
▁먹 었다.

위원 의
위원 장도
▁본 다"고
▁본 사가
▁본 사에서
▁후보 들의
▁필 연
▁점 심을
▁9 억
▁운 행을
▁만들 었습니다.

▁만들 겠다”고
▁관계 자를
▁관계 자와
▁국민 들이

▁치 지
▁씨 

▁타 석
장이 

▁돌 았다.

▁가능 하
▁교육 부의
▁취 급을
▁채 집
▁늘 었고,
▁넣 겠습니다.

▁하나 둘
▁산 다.

▁산 하기
▁아이 와
▁증 시가
▁이후 ,
▁필요 ”

▁필요 하면
▁각 막
▁될 

▁시작 하면서
▁협 상의
▁애 는
처럼 .

▁독 창
▁누 그러
▁속 상
▁사업 에서
▁표 창원
▁지역 별로는
▁경제 ·
▁쓰 던
▁쓰 일
▁쓰 셔도
▁엄 중한
▁리 드
▁리 뷰
▁리 콜
▁리 바운드
▁있었 으나
▁기업 형
▁12 8
▁12 조
▁절 로
▁절 상
▁호 스
▁호 위
▁편 히
▁업 고
▁군 수는
▁허 탈
▁맛 술
▁느 다”고
▁형 을
▁< 파이낸셜
억원 )를
▁부분 만
▁부분 에서

▁학교 운영
(2 1)
▁메 고
▁항 의를
▁놓 였다.

▁놓 으면

▁놓 으시
▁전문 성이
▁눈 도
▁준비 해주
▁온 통
▁삼성 에스
▁15 0만
▁토 막
▁이유 에서
▁몰 리고
▁트 라우
▁조사 와
▁사건 ’
▁농 담을
▁경기 부양
▁커 지자
▁글 귀
▁여기 

▁접 하는
▁월 등
▁국제 법
▁국제 적으로
▁국제 회의
▁대해서 만
▁천 일
▁선생님 하고
▁특히 나
레이 터
▁지적 

▁지적 하는
▁육 사
더라 구요

▁기록 으로
▁않았 어요.

▁베 풀
▁현대 차가
▁디 스
▁디 저
▁추진 하겠다고
▁개발 

센터 로
▁여성 에게
▁여성 들을
▁100 주년
▁탄 두
▁이용 을
▁맡 겼다.

▁돌아 섰다.

대표 를
▁브 이
▁모르 지만
▁않고 .

▁갔 더니

▁탈 핵
▁찾아 간
▁아무 나
▁개인 투자
▁수사 로
연구 위원은
▁비판 하며
▁압 류
▁국정 원에
▁뜻 에서
▁극 장에서
▁올라 왔
▁올라 오는
▁윤 곽
▁윤 병
▁윤 호
▁만나 기
▁공동 주택
▁새누리당 에
▁17 일부터
▁A 4
▁출신 들이
▁봤 어

▁우려 한
▁싸 서
▁어느 덧
▁인정 해야
▁침 수
조사 에
▁테 헤
▁자유 경제
(4 5)
▁으 ~

▁기대 

)이 란
▁한번 에
▁강화 한
▁얻 게
▁예산 도
▁판매 하고
▁판매 량은
▁귀 에
▁분야 에서는
▁들어가 면

▁헌 혈
▁퇴 적
▁제품 과
▁해결 될
▁시즌 에는
▁힘들 어요.

▁마지막 에

▁확대 에
▁퍼 블리
▁논의 하기로
▁부담 스러워
▁플 리트
▁환경 부가
▁생산 과
▁악 수
▁사고 방
▁방식 과
▁영국 과
▁내려 가는
▁내려 오는
▁내려 놓고
▁시장 과
▁구조 적인
▁놀 아
▁빼 고

▁핵심 이
▁주변 에는
▁도입 할
▁달라 .

▁달라 지는
▁석 ·박사
▁찬 사를
▁안전 과
▁만든 다는
▁인터넷 과
▁집중 력을
대학 이
▁유지 해야
▁롯데 쇼핑
정책 과
지역 은
▁익 는
▁익 었
(6 월
▁50 m
▁녹 말
▁클 로
▁클 릭
▁27 일부터
▁넘어 갔
▁찍 혀
▁현실 에서
▁자리 다.

▁졸 업을
▁워 커
▁조직 에
▁산업 에
▁인천 시가
▁인천 국제공항
▁끓 인
▁차지 해
▁행사 장
▁개선 과
▁개선 해야
▁5월 에는
▁전략 으로
▁제기 하는
▁독일 과
▁독일 어
▁요청 하는
▁보이 자
▁부족 하다.

학과 ,
▁7월 까지
▁9월 까지
▁나왔 어요.

▁많아 야
▁많아 요

▁다니 엘
▁케이 이
▁끊 을
▁요거 는

▁정신 에
▁믿 기
▁이전 과
▁소속 으로
▁모르겠 는데
▁공부 한
▁중단 하고
▁진보 정당
주시 구요.

▁땅 값이
▁0. 6
▁깊 다.

▁똑 바로
▁개혁 안을
▁노력 할
▁노력 해
▁종합 적인
▁쉬 지
▁흐 지부
▁단체 장
▁소개 한다.

▁아니냐 "고
▁반발 로
19 일
▁헤 매
▁어머니 도
▁고용 을
▁제한 하고
▁과학 적
▁LG 의
스럽 지
▁시각 으로
▁칠 백
▁판결 은
▁11월 까지
▁양념 장을
1% 로
▁불과 해
▁밑 돌
▁푸 르
▁청소년 을
▁청소년 의
▁안보 에
▁바뀌 어야
▁이끌 며
▁썼 어요.

▁전통 시장
▁건물 로
▁궁 합이
▁가정 용
▁확정 됐다.

(7 3
(7 1)
▁강남 의
▁조성 한
▁앉 혀
▁인수 해
▁희망 하는
▁투표 율이
▁압박 하고
▁중소기업 을
▁회복 세를
▁하셨 던
▁하셨 어요.

▁60 만
▁"이 제
하라 ”는
▁순간 이
▁배치 에
▁안정 과
▁출전 하는
▁SK 그룹
▁개최 하는
▁불러 올
▁쌓 고
▁출연 을
▁금지 하는
▁부회 장,
▁혁신 학교
▁해석 도
▁재미 없
▁계열 사인
▁보기 에는

▁월드컵 을
▁처벌 하는
▁2차 전에서
▁해주 고

▁강원 랜드
▁전날 인
펀드 에
▁파악 하는
▁삼십 만
▁삼십 일
▁행동 하는
▁물어 볼
▁줬 다는
▁뛰어 든
올림픽 위원회
▁조정 했다.

▁조정 하는
협회 와
▁여름 에는
▁컴퓨터 가
▁고추 장을
등급 을
▁생각하는 데
▁생각하는 데

▁1위 

▁도전 한다.

▁게임 에
▁그치 ?

셔야 지
▁최저 학력
▁취소 할
▁취소 하고
▁협의 가
▁출발 한다.

.4% ,
▁자산 의
▁김영 란
▁평소 에도
▁테러 범
▁공약 에
센트 럴
▁자살 한
▁안팎 으로
▁받아들 여야
▁인생 은
▁통해서 도
▁텐 트
▁텐 데요.

▁관객 의
▁관객 들의
▁흔들 리고
▁지배 적이다.

▁소금 

▁학부모 들은
▁거론 되는
▁현대차 의
▁196 8년
▁분위기 였다.

▁내일 /
▁누리 집에
.2% 에
▁빛 나는
▁사법 부의
▁자본 금
▁설계 한
▁임시 국회에서
or t
▁다가 오
▁휴대전 화로
▁지식 과
▁에이 즈
▁에이 아이
▁느껴 질
▁냈 지만
▁냈 다고
▁콜 비아
▁물러 났다.

▁• "
▁능력 과
▁업계 에
▁민주주의 가
▁캠프 의
▁야권 은
▁구간 에서
▁만족 할
▁자동 적으로
▁10여 명이
▁보낸 다.

▁양파 

▁점검 을
▁예측 했다.

▁최고위원 회의에서
▁섭 씨
▁정치권 에선
▁접촉 이
▁묘 사한
▁되는데 요

▁진영 이
▁제1 차
▁떠올 랐
▁선배 가
▁박사 님
▁센터 장은
▁모집 에
▁없애 고
▁후원 금
▁홈페이지 (
▁보상 금
▁불리 며
▁KT 는
▁밟 아
▁어머 님이
▁노출 돼
▁메르 세데스
▁유족 들이
▁조심 스럽게
▁입장에서 

▁구글 이
▁알겠 습니다
▁정해 지지
▁연방 대
▁당사 자
▁기울 여야
소비 세
▁필수 적인
▁국세 청이
▁분노 가
▁집회 ·시
▁낭 만
▁그녀 가
▁합류 한
▁근처 에서
▁치러 지는
해지 고

▁사교육 을
▁쥐 어
▁지자 체의
▁이대 호
▁이대 호는
▁3개월 간
▁생겨 서
▁파트 타임
▁자극 을
▁인재 들이
▁택시 기사
▁지방선거 를
▁진정 성을
▁10시 부터
▁공통 점이
▁극단 적
23 일
▁메이저리그 에서
al l
▁네네 네
▁진상 규명
▁부당 하게
▁무게 가
▁北 ,
▁조항 에
▁남겨 두고
▁들어와 서

자산 운용
▁신랑 도
▁개인정보 가
▁김동 철
▁케이블 TV
▁가해 자
▁학문 적
▁안타까 워했다.

▁크림 반도
▁보좌 관은
▁폭탄 을
▁새정치연합 의
▁덩 달아
▁헌법재판 소의
▁"북한 의
▁의도 적으로
▁드러난 다.

▁류현 진의
▁넥센 은
▁사흘 간
(28 ·
▁논리 적으로
▁짝 을
▁미만 인
▁부총 리가
▁지방자치단체 가
▁박지 성
▁권고 했다.

▁급여 를
▁1명 씩
▁자민 당이
▁7시 30분
▁금융위 기가
동성 애
▁각오 로
▁메뉴 를
▁산림 청
▁신입 사원
▁드라이 브
▁거세 게
(201 3년
▁압수수색 했다.

▁벌여 왔다.

▁실태 조사를
▁누리꾼 들은
▁유형 의
▁자택 을
▁관행 에
이라던 지
▁벗어 났다.

▁이화 여
▁신기 한
▁노릇 노릇
브라 질
▁대다 수가
▁부근 에서
▁첫째 는
▁"여 러
▁“대통령 이
축구연맹 )
▁주간 지
▁초·중 ·고교
▁렌 즈
▁다저 스는
▁성매매 를
▁쾌 적한
▁유대 인
▁세월 이
▁과시 했다.

▁“나 도
▁감당 하기
▁지경 부
▁NH 농협
▁성숙 한
▁딱딱 한
▁아르바이트 를
▁상설 특검
▁쳐다 보
▁테이블 에
▁서울시교육청 이
간접 자본
▁줄기 세포
▁식약 청
▁대접 을
▁무의 식
▁경제성장 률
▁유망 주
▁공청 회
▁최저임 금이
▁질병관리 본부
▁르노 삼성
▁성북 구
▁뜨겁 다.

▁삼성화 재
▁클리 블랜드
▁‘정치 적
▁중징 계
▁디엔 에이
▁고로 쇠
▁초록 색
▁허리케 인
▁평준 화
▁떡볶 이
▁치명 적인
▁국내총생산(G DP)
▁간격 으로
▁백남 기
▁노골 적으로
▁뜻밖 의
▁정부조직 법
▁정권교 체를
▁칼칼 한
▁알레르기 성
▁전병 헌
▁순조 롭게
▁이세 돌
▁조광 래
▁싱어 송라이
▁우선협상 대상
▁중앙정보국 (C
▁마요네 즈
▁가석 방
▁친박(친 박근혜)
▁코스타 리카
▁폐쇄회로 (CC)TV
▁리우데자네이 루
▁수니 파
▁<월 스트리트
버쿠 젠
! ”
' 이라
( 동
( 무
( 부산
+ 2
- 러
- 보
2 0년
2 000만원
4 만
9 로
E P
E D)
G W
I P
M S
O M
R A
T C
a b
e y
k )
· 교
· 나
· 선
· 약
· 친
· 201
· 환경
’ 나
’ 이나
’ 이라며
▁ →
▁ 잖아요.

가 면
감 축
거 라고
거 리에
거 티브
건 에서
걸 음을
게 이
게 요.
겠 네.

겨 운
경 과
경 도
경 색
경 정
공 유
관 들이
군 도
군 수
권 ’
규 의
기 면
길 ,
난 으로
냐 에
냐 "고
농 축
단 

대 ·
대 형
대 서양
든 ,
등 교육
디 로
라 .
러 티브
렌 식
련 이
로 써
론 

론 이다.

르 비아
마 

마 크를
목 에
무 대
물 고
물 도
민 ,
반 떼
받 아

발 언
버 는
법 원이
법 원은
병 수
병 원을
보 세요.

본 부의
분 들
불 가
비 인
비 용이
빨 간
뿌 리
사 례
사 전을
살 롱
상 치
샤 르
선 승
설 립
성 기
성 에서
센 트를
셔 두
소 추
속 의
수 당을
술 에
슬 로
신 데

쓰 레
씨 로
양 한
없 이

오 의
온 이
요 청
요 ”

용 호
우 니까

운 수
위 반
응 용
의 원을
있 어
자 면
자 부
절 감
정 화
조 에서
중 

지 사를
지 우지
질 러
질 수록
차 만
처 의
체 적인
초 로
치 다.

카 인
킨 슨
타 고
타 점을
탁 구
터 에서
테 스
트 (
티 의
팀 인
파 견
파 72
패 의
퍼 시픽
폭 격
피 크
필 수
하 마
하 다"는
학 도
학 사
한 강
함 도
해 방
했 습니다

화 하기
환 의
회 사는
▁이 빨
▁이 온
▁이 르게
▁이 론이
▁그 렸
▁그 립
▁그 죠

▁그 간의
▁그 쪽으로
▁그 곳에서
▁그 랑프리
▁있 구
▁있 죠
▁있 겠습니다.

▁대 물
▁대 내외
▁아 껴
▁아 실
▁아 인
▁아 플
▁아 냐.

으로 서

▁사 먹
▁사 촌
▁지 문
▁하 더
▁하 밤
▁하 아
▁하 이라
▁하 네요.

▁하 자,
▁하 셔서
▁한 소
▁한 족
▁한 가지
▁한 겨울
▁수 교
▁수 성
▁수 필
▁수 치는
▁수 학을
▁수 산물
▁1 급
▁1 억원을
▁1 실점으로
▁가 꾸
▁것 ’이라는
▁전 가
▁전 셋
▁전 ()
▁정 국을
▁보 아
▁보 라고
▁시 너
▁시 멘
▁시 아
▁시 엠
▁기 쁜
▁기 하
▁기 기를
▁기 사로
▁기 구가
▁기 승을
▁거 뒀
▁거 실
▁거 쳤다.

▁“ <
▁“ 너
▁“ 또
▁“ 총
▁“ 통합
▁“ 후보
▁“ 여야
▁“ 199
▁“ 결국
▁나 에
▁자 루
▁자 백
▁자 국의
▁다 쳤
▁다 ”고
▁‘ 목
▁‘ 생
▁‘ 송
▁‘ 추
▁‘ 정책
▁‘ 지역
▁‘ 시장
▁‘ 혁신
▁‘ 트럼프
▁일 을

▁인 텔
▁주 물
▁주 제에
▁경 비를
▁중 고교
▁중 ·고교
▁제 도로
▁해 물
▁해 요?

▁국 적을
▁내 리면
▁내 버려
▁공 부는
▁부 는
▁부 통령
▁안 전에
▁때 론
▁예 보
▁오 대
▁우 위
▁우 러나
▁여 지를
▁여 사는
▁여 자의
▁여 건을
▁없 고요.

▁없 으니까.

▁고 산
▁고 은
▁고 전을
▁고 문을
▁고 인의
▁조 타
▁의 사의
▁선 비
▁선 인
▁선 고를
▁선 순환
▁관 전
▁비 는
▁비 운
▁비 켜
▁비 트
▁비 즈니
▁비 무장
▁3 위에
▁3 차례
▁모 로
▁모 방
▁소 음
▁연 신
▁연 대가
▁유 급
▁미 쓰
▁미 일
▁미 중
▁되 다
▁되 신
▁저 걸
▁" 두
▁" 제가
▁" 세계
▁" 트럼프
▁서 적
▁뭐 .
▁뭐 ?

▁그래 가
▁그래 요.
▁최 루
▁최 시
▁개 정이
▁마 루
▁마 쓰
▁교 외
▁교 토
▁많 으시
▁김 학
▁김 부겸
▁' 5
▁' 상
▁' 서
▁' 재
▁' 중국
는데 요?

▁원 조를
▁이제 야
▁신 예
▁신 기술
▁무 난
▁무 등
▁무 혐의
▁분 은

▁통 로
▁통 에
▁통 할
▁통 제를
▁동 조
▁구 어
▁구 도로
▁우리 집
▁아니 게
▁아니 잖아.

▁그러 지

▁들 으며
▁들 렸다.

▁발 열
▁발 움
▁강 세
▁강 수
▁진 드
▁진 성
▁진 열
▁진 실이
▁4 .
▁4 위에
▁4 번째
▁4 ·3
▁4 연패
▁불 태
▁불 렸다.

▁올 여름
▁받 쳐
▁도 록
▁도 운
▁도 전에
▁반 을
▁재 취업
▁5 학년
▁5 000만원을
▁실 대
▁실 버
▁실 을
▁성 적으로
▁성 완종
▁성 소수
▁영 암
▁영 정
▁장 인
▁장 면은
▁한국 경제
▁한국 국제
▁한국 야구위원회
▁한국 개발연구원
▁학 비
▁학 예
▁학 자가
▁후 ,
▁후 방
▁후 다닥
▁건 이
▁박 씨
▁박 원
▁박 사의
▁남 산
▁남 에게
▁스 터
▁알 을
▁알 았다.

▁차 의
▁차 상위
▁두 각을
▁지금 과
▁20 20
▁생각 하게
▁못 했을
▁열 고,
▁열 기가
▁하는 가
▁대통령 

▁6 강
▁6 번
▁6 년간
▁출 력
▁출 장을
▁달 도
▁달 여
▁달 부터
▁서울 ,
▁맞 는

▁참 관
▁물 

▁물 어야
▁물 질을
▁들어 섰
▁음 음

▁단 ,
▁단 장
▁단 국대
▁단 맛이
▁외 래
▁외 의
▁집 요
▁집 사람
▁배 웠다.

▁배 심원
▁매 서
▁미국 식
▁앞 섰
▁앞 에서는
▁앞 서는
▁명 ,
▁명 소
▁명 이나
▁청 구를
▁것이 죠

▁역 량이
▁총 회를
▁총 장과
▁북 어
▁10 일부터
▁10 ·4
▁10 ·26
... ’
▁200 7
▁얘 기에
▁양 말
▁포 천
▁법 안에
▁파 출
▁파 일을
▁프 리스
▁간 식
▁번 개
▁피 어
▁피 폭
▁초 조
▁언 더
▁언 뜻
▁먹 는데

▁투 자의
▁정도 는

▁9 %
▁일본 뇌
▁만들 면서
▁밝혔 지만
▁줄 었
▁변 질
▁변 할
▁변 하고
▁논 현
▁국민 안전
▁제가 .

▁타 기
▁타 자가
▁갖 다가

▁돌 릴
▁돌 보는
▁교육 

▁교육 청이
▁취 합
▁하나 은행
▁목 사는
▁친 근
▁대해 )
▁아이 엠
▁넘 치
▁크 라이슬러
▁세계 기록
▁세계 문화유산
▁체 납
▁체 력을
▁체 계가
▁시작 돼
▁책 과
▁정치 개혁
▁애 썼
▁애 들

다가 ,
▁종 용
▁식 당이
▁식 품을
▁환 율은
▁싶 습니다

▁누 린
▁누 출
▁누 리고
▁속 에는
▁표 심을
▁버 전
▁버 팀
▁버 렸다.

▁버 무리
▁버 터를
▁힘 의
▁경제 와
▁경제 자유구역
▁쓰 리
▁쓰 기도
▁복 식
▁복 지를
가지 구

▁리 스
▁있었 나
▁있었 는지
▁지원 금을
▁기업 들을
▁기업 은행
▁12 명
▁승 무
▁승 부가
▁호 의
▁군 인이
▁학생 들이

▁얘기 까지
▁얘기 죠.

▁날 아가
▁아니라 .

기업 으로
▁끝 내는
▁허 정무
▁연구 와
▁경찰 도
▁결과 도
▁결과 물을
▁느 던
▁대학 병원
▁창 문
▁잡 고

▁첫 걸음
▁됐 어.

하겠 다

▁메 디
▁메 모를
▁항 거
▁내용 들이
▁순 서로
▁않는 다
▁현재 도
▁계속 된
▁선수 들도
▁백 두
▁백 서
▁백 석
▁전문 지
▁온 난
▁온 종일
▁볼 거리
▁계획 ”이라며
▁토 목
위원회 ’(
▁이유 에서다.

▁홍 고추
▁조사 의
▁만들어 내
▁코 퍼스
▁사용 한다.

▁농 도
▁경기 장을
▁경기 에서는
▁빠 지고
▁커 리
▁커 져

▁폭 행을
▁난 방
▁가운데 는
▁접 고
▁국제 공항
다. ’

▁천 장
▁천 오백
▁천 정배
▁철 수를
▁대상 의
▁국회 로
▁육 이
▁기록 할
▁기록 했던
▁금융 위원회는
▁용 도
▁않았 다면
▁축 의
▁현대 미술
▁면 치
▁추진 된다.

▁피해 자들이
▁결정 

▁결정 된다.

▁과정 에서도
▁문화 ,
▁마음 가짐
▁100 만원을
▁정보 에
▁정보 화
▁그랬 었
▁모르 지만

▁급 성장
▁분석 에
▁분석 

▁분석 하고
▁보여 왔다.

▁라 인을
▁효 능
▁효 력을
▁열린 우리
▁골 절
▁찾아 왔
(3 3)
▁18 4
▁18 살
▁떨어 지면서
▁경쟁 은
연구 원에
▁왔 으면
▁관심 사다.

▁위원 들이
▁기자 들
▁다양 성을
▁나라 와
▁몸 과
▁몸 도
▁K N
▁전국 경제인
▁노동 위원회
▁있으 면서

▁같애 서

▁17 7
▁A 3
▁황 영
▁황 희
▁영향 도
▁앞으로 

시키 고

업체 들의
▁하지 도
▁지지 자들이
▁주민 들과
▁테 니까
▁전망 은
▁특별 조사
▁“이 번에
어야 지
▁강화 된
▁강화 될
▁말이 야
▁추가 해
▁귀 결
▁귀 중한
▁서울시 장이
▁분야 별
▁역사 교과서
▁헌 정
▁제품 인
▁예상 

▁페 인트
정보 업체
정보 기술
▁생산 라인
▁악 화된
하자 면
▁겁 니다.”

▁없었 고
▁없었 는데

▁없었 다면
▁홈 플러스는
▁겨 루
▁이러 다
▁나가 고

▁21 개
▁21 세기
▁숨 기지
▁구성 하고
▁놀 랄
▁방문 이
▁이해 찬
▁이해 해
▁도입 하고
▁레 퍼
▁증가 세를
▁증가 세가
▁격 렬한
▁미래 전략
km )
km /
▁적용 이
▁지도 부와
▁집중 된
▁대신 ,
▁롯데 홈쇼핑
정책 은
정책 과장은
▁깨 진
▁젊 었을
▁익 산
이트 진
▁현실 의
▁현실 이다.

▁23 0
▁꿈 틀
▁과거 를
▁업무 와
▁업무 용
▁시행 하고
▁조직 적으로
▁제작 하는
▁견 제를
▁행사 하는
▁대비 하는
▁징 벌
장으로 부터
학과 에
▁러시아 를
▁가입 해
▁스스로 가
▁1년 이
▁자연 이
▁다니 시
▁다니 지
▁빨리 

▁통과 될
▁상승 에
▁왕 성
▁이십 삼
▁이십 칠
▁봉 선
▁웃 겨
▁웃 으며
▁웃 도는
▁열어 ,
회사 에서
▁비용 과
▁비용 의
▁되겠 습니다

▁되겠 죠

▁이전 보다
▁느낌 도
▁도시 재생
▁기능 도
▁높아 지
▁공부 에
▁진보 신
▁진보 와
▁땅 의
▁땅 에서
▁0. 7%
▁공급 하고
▁제시 할
▁당선 됐다.

▁음악 과
▁음악 은
▁협력 할
▁상품 인
▁좌 지우지
▁노력 해야
▁종합 대책
▁정당 성을
▁잔 인한
▁최종 예선
▁블 던
▁○ ○
통신 이
▁엔 에이치
▁엔 엘엘
▁헤 드
▁헤 쳐
▁올림픽 이
▁성과 는
▁얼굴 은
생활 에
운동 이
▁보호 에
▁사망 자는
▁LG 유
▁히 어로
▁니 콜라
경찰 이
▁대기업 은
▁지켜 볼
▁지켜 봤다.

▁노래 는
▁노래 방
▁짜 게
▁담당 자는
▁담당 했던
▁변화 도
▁의료 비
▁이걸 

▁팬 을
▁이끌 었던
▁뭘 

▁어린이 날
▁지급 한다.

(7 1
(7 7
시켜 서

▁앉 았다.

도시 로
도시 철도
▁인상 적인
▁중소기업 은
▁중소기업 중앙
▁아침 에

▁남편 도
▁청년 실업
▁않겠 지만
▁않겠 느냐”고
▁장기 화
▁빚 었다.

▁등록 금을
▁순간 이었다.

▁소송 이
▁방안 으로
▁방안 ’을
▁부동산 114
▁치료 제
▁심각 성을
▁소비자 들에게
▁31 개
▁절반 은
▁말씀드 리는
▁가치 에
▁가치 관을
▁부인 하고
▁몰라 도

.5% 에
▁시도 할
▁소통 하는
▁만약 에

▁재미 도
▁맞춰 야
▁월드컵 이
▁카드 로
▁처벌 할
▁해주 세요.

▁마찬 가
▁봄 의
▁저녁 을
~2 5일
건설 ,
▁할머니 들이
▁기소 했다고
▁파악 하지
▁섞 어서

▁추천 하는
▁교과서 의
▁대표팀 을
▁대표팀 이
▁뛰어 들어
▁정리 하고
(19 8
▁확산 되면서
▁밖 의
▁개입 해
▁사과 했다.

▁선진 국이
▁바라 본
▁바라 볼
▁1위 ,
▁도전 장을
하셨 던
▁특검 팀은
▁TV 토론
▁지정 해
▁단일 화가
(K B)
나무 는
.3% )
겠다 라는
▁위에 다가
▁뮤 지션
▁보건 의료
▁수상 작
▁수상 자인
▁권력 에
▁수업 에
▁공약 은
▁마이 크를
▁아내 에게
▁생각하 면

▁생각하 십니까?

노조 의
▁기부 금
▁기부 했다.

▁성적 표를
했다 ’고
▁옮겨 서
▁관객 들이
▁실험 이
▁인식 하고
▁찬성 으로
.1% 가
▁이란 에
지방 선거
▁발굴 한
▁희생 을
▁브라 우
▁수비 에
▁공항 을
▁먹었 어.

▁성향 을
▁길이 로
▁이르 지
▁이르 케
▁나아 질
kg 급
▁국민의당 에
▁봅 니다

▁벽 돌
▁"그 동안
▁바다 로
▁종목 의
▁1조 2
▁애플 은
▁수정 안
▁경북 도
▁홈런 으로
▁아시 죠?

▁체결 을
구조 가
▁상임 위원
▁에이 전
▁아우 디
▁완화 하는
▁법안 의
▁캠프 에
▁2위 인
▁펼쳐 지는
▁프로젝트 는
▁어울 리지
▁연계 한
▁30% ,
▁묘 한
▁습 득
▁제거 해
▁진영 을
▁키워 드
▁헬 리
이다 라고
▁지하철 역
▁300 명
▁띄 게
▁고향 에
▁금메달 리스트
▁소환 해
▁name1 이
▁인하 대
▁조치 에
▁살펴 보
▁출판 사가
▁동물 성
정상 회의
▁이때 부터
▁밟 을
·보 수
▁놔 야
▁충격 으로
▁충격 적인
▁출입 이
▁여의 치
▁물리 학
▁여당 인
▁수백 억
▁종교 적
▁의결 권
▁기울 여
공동 모금
▁공모 를
▁낮아 질
▁최다 승
▁불가피 한
▁하여 금
▁들이 는
▁일각 에서
▁측근 인
▁자랑 한다.

▁어깨 가
▁의뢰 를
▁팽 배
▁O B
▁KIA 의
▁대목 은
▁중요하 지만

24 일
▁바른정당 에
▁좋았 을
▁천안함 ·연평도
27 일
▁집안 에서
▁넘겨 받은
▁진상 규
▁도심 에서
▁경향 을
▁의원님 은
▁‘201 4
▁횡령 한
▁품목 은
▁일대 일
▁요걸 로
(200 8년
▁붙잡 고
▁놀라 게
▁150 억
▁지출 이
▁부대 변
▁입증 할
▁걔네 들이
사람 들이
▁돼지고 기를
가격 은
▁장악 하고
▁추적 해
▁"한국 은
▁허위 사실
▁인프라 가
▁국제사회 가
▁엇갈 렸다.

▁들여다 볼
▁194 5년
▁생강 을
▁표준 국어
▁표결 을
▁강정 마을
▁의문 이다.

▁식초 를
▁지목 한
▁적절 하지
▁나타난 다.

비서 관은
유로 (약
▁이렇 다.

▁버리 고

▁빈곤 층
▁입맛 을
▁살아남 을
(201 2년
(201 1년
▁모색 하는
▁근육 을
▁(0 4
▁호흡 기
▁경기에 선
▁전임 자
▁이겨 야
▁문화재 청
▁‘세 월호
▁스티 커
▁다문화 가족
▁종사 자
▁뛰어나 다.

부(부장 판사
▁“201 2년
▁뉴욕타임 스는
▁한중 일
·영 국
▁관련해서 도
▁“정부 의
전시 회
▁마스터 스
▁두드러 졌다.

▁김승 연
▁차원 에서

만8 000원
▁성실 하게
▁권위 주의
▁정리해 고
▁실효 성
▁편리 하게
▁인종 차별
▁팽팽 히
▁손흥 민은
▁마운드 에
근로 자
▁모호 한
▁돌입 했다.

억여 원을
▁LPGA 투어
▁타이틀 을
▁즈 음
▁불확실 성이
▁트레이 닝
▁그랜드 슬램
▁빠르 다.

▁망가 진
번홀(파 5
▁구로 구
▁얘긴 데

▁구석 구
▁용납 하지
▁화상 경마
▁갤럭시S 8
▁아나운 서
▁핑 계
▁페어 웨이
▁경부 고속도로
▁개도 국
▁디엔 에
(IC BM
▁평상 시
▁멸종 위기
▁홍성 흔
▁토크 쇼
▁세일 즈
▁홍명 보
▁가파 르게
▁시장점유 율
▁엘피 지
▁후순위 채
▁매실 청
▁호날 두
(중국 명
▁식용 유
▁송영 길
▁미끄 러
▁원내수석부 대표
디움 에서
애니 메이션
▁후라이 팬
▁지니 고
▁1순 위로
▁콘퍼런 스
▁국무조정 실
▁탁월 한
▁경복 궁
▁조희 연
▁고엽 제
▁넷플 릭
▁정우 택
▁"특 히
▁한국토지주택공사 (L
▁리커 창
▁콜로 라도
▁북방한계선 (NLL
▁버금 가는
▁미국여자프로골프 (L
' 처럼
( 안
- 12
. go
2 000여
8 4
8 만
> 도
F C)
N )
N O
P D
T M
U )
W A
d ress
e e
o c
s h
t h
· S
· 반
· 야
· 육
· 윤
· 단체
· 30
· 예술
· 인도
’ 였다.

▁ w
▁ 랜
▁ 머니
▁ m2
▁ in
▁ 셔츠
가 시
간 은
간 장
간 

강 은
객 들이
것 을
겠 죠
겠 구나
견 이
결 한
고 사를
공 원에
관 찰
교 조
교 사는
구 이
근 은
기 지를
나 간
나 르
나 소
내 에
니 언
님 ,
님 과
단 식
당 할
대 (
대 첩
대 사를
덕 수
도 움
도 ?

동 창
돼 온
되 다
드 래
드 러
듯 한
듯 하게
라 이스
랄 까
랑 은
루 스
르 바
른 다.

리 (
리 머니
막 은
맞 은
맥 을
명 까지
모 스
무 실
물 ,
물 이다.

미 료
미 안
민 정
민 들이
바 는
바 우
박 하게
버 스는
법 (
법 무
변 속
보 상
보 와
볼 을
비 엔
비 정규직
빈 곤
사 각
사 범
사 키
사 이버
서 트를
석 희
설 턴
세 무
세 탁
세 월호
셔 도

소 도
수 영
수 인
슨 이
슬 을
습 

시 면은

시 대를
신 교
실 질
싸 움을
아 니
애 를
야 스
에 ,
엔 에
엔 (약
여 원을
연 령
오 기
오 르
오 카
요 건
움 과
위 트
위 한
위 )가
유 니
으 라
은 ,
이 거든요.

인 거
일 렉
있 던
있 고

자 ()
자 원을
자 금이
작 전을
잔 치
재 준
적 ’
전 사
전 형을
점 이었다.

제 공
제 도는
졌 는데
조 례
조 물
주 부
주 셔서
중 일
지 진
쪽 짜리
차 근
창 기
채 소
책 은
처 리를
최 대
컨 벤션
코 는
크 릿
타 나
태 가
통 과
투 스
특 허
티 콘
편 지
편 향
평 했다.

폭 을
필 요
하 네
하 구

한 다”는
합 격
항 은
해 본
해 했다.

해 지기
해 달라는
했 지만

했 어?

행 위에
협 박
협 의를
황 후
훈 ,
▁이 남
▁이 니
▁이 도
▁이 씨를
▁그 레
▁그 면
▁그 치는
▁그 중에
▁있 잖
▁있 더라구요.

▁대 질
▁대 필
▁아 토
▁아 후
▁아 들에게
▁사 유를
▁사 그라
▁사 들여
▁지 양
▁지 엠
▁지 탱
▁지 식이
▁하 구요

▁하 셔서

▁한 기
▁한 문
▁한 왕
▁한 시간
▁수 갑
▁수 심
▁수 와
▁수 표
▁1 무
▁1 을
▁1 의
▁어 고
▁어 나
▁어 젠
▁어 기고
▁가 위
▁가 계의
▁가 사도
▁가 자.

▁것 의
▁전 기가
▁전 액을
▁정 영
▁정 원의
▁정 비를
▁정 윤회
▁정 두언
▁보 석
▁시 몬
▁시 점은
▁시 신이
▁시 드니
▁거 라

▁“ 7
▁“ 권
▁“ 메
▁“ 산
▁“ 설
▁“ 엄
▁“ 화
▁“ 영화
▁“ 투표
▁자 취
▁자 라는
▁자 원이
▁다 을
▁다 케
▁다 세대
▁네 ~
▁‘ ’
▁‘ 갑
▁‘ 날
▁‘ 돌
▁‘ 산
▁‘ 설
▁‘ 애
▁‘ 열
▁‘ 육
▁‘ 차
▁‘ 큰
▁‘ 풍
▁‘ 기업
▁‘ 가족
▁‘ 전쟁
▁‘ 촛불
▁‘ 진보
▁‘ 역사
▁‘ 문재인
▁‘ 용산
▁일 대의
▁인 지도
▁인 류가
▁인 피니
▁주 미
▁주 짓
▁경 연
▁중 엔
▁제 과
▁제 사를
▁해 라.

▁국 빈
▁국 장이
▁국 익을
▁말 랐
▁말 대로
▁말 하며
▁말 라고

▁내 디
00 m2
▁공 예
▁공 해
▁공 교육
▁공 소시
▁공 판에서
▁안 간
▁안 됐
▁안 장
▁안 해

▁때 로
▁오 시는
▁우 연
▁우 윤근
▁않 은

▁않 나?

▁위 력을
▁고 독
▁고 삼
▁고 착
▁고 렇게
▁고 인은
▁고 금리
▁상 응하는
▁조 던
▁조 모
▁조 찬
▁조 혜
▁조 명을
▁선 명
▁관 용
▁비 워
▁비 축
▁비 리에
▁있는 지는
들이 는
▁3 사
▁3 20
▁3 ·15
▁만 하면
▁모 나
▁모 았
▁소 금이
▁연 소
▁유 념
▁유 실
▁유 월
▁유 키
▁유 시민
▁미 디
▁미 행
▁되 든
▁되 려
▁저 임금
▁저 커버그
▁" 부
▁" 역
▁" 임
▁" 하지만
▁" 국가
▁서 늘
▁서 유럽
▁생 식
▁뭐 니
▁문 득
▁같 으
▁같 진
▁같 다"며
▁개 표
▁마 사
▁김 철
▁' 역
▁' 북한
▁' 200
▁원 과
▁원 년
▁원 론
▁원 심
▁원 하고
▁요 때
▁요 리는
▁요 리에
▁이제 부터
▁세 가
▁세 브란스
▁방 증
▁신 변
▁신 빙
▁신 진
▁신 탁
▁신 재생
▁분 비
▁분 출
▁분 .

까지 를
▁그런 지

▁통 로를
▁동 정
▁동 일본
▁우리 밀
▁바 를
▁바 비
▁아니 란
▁아니 요.
▁아니 다"며
▁그러 게

▁강 판
▁당 신을
▁현 주
▁현 안이
▁4 5%
▁4 000만
▁4 .5
▁4 안타
▁4 3%
▁받 거나
▁도 리가
▁반 공
▁재 팬
▁5 급
▁5 승
▁5 인
▁5 안타
▁실 무를
▁계 층이
▁성 우
▁성 을
▁성 분을
▁영 상이
▁사람 인데

▁한국 군
▁학 비를
▁후 의
▁후 에

▁노 련
▁노 사가
▁노 인은
▁노 회찬
▁스 들
▁스 와
▁알 선
▁두 근
▁감 이
▁감 점
▁감 성을
▁지금 에
▁했 냐
▁했 다면
▁했 잖아요.

▁했 어요.
▁했 으나,
▁20 만원
▁게 을
▁좋 고요.

▁추 리
▁추 행
▁생각 과
▁생각 만
▁생각 한다
▁생각 했는데

▁생각 합니다

▁못 합니다.

▁열 기를
▁따 고
▁입 김
▁입 에서
▁입 니다.

▁6 일부터
▁할 까.

▁출 격
▁과 언이
▁달 은
▁특 약
▁특 단의
▁응 한
▁응 할
▁참 사가
▁물 기
▁물 품을
▁새 만금
▁정부 안
▁들어 본
▁단 언
▁외 우
▁집 과
▁배 드
▁직 설
▁직 구를
▁문제 ”라고
▁뒤 부터
하기 엔
▁매 력이
▁매 장에
▁민 심이
▁미국 프로골프
▁삼 자
▁명 목
▁것이 라며
▁역 풍을
▁검 정을
▁가지 게
▁7 명의
▁7 개를
▁금 년
▁200 만원
▁처 우
▁처 칠
▁처 방을
▁막 바지
▁양 화
▁양 측이
▁포 석
▁데 이트
▁파 동
▁파 탄
▁파 업을
▁파 킨슨
▁간 도
▁합 치
▁합 헌
▁번 지고
▁피 하는
▁8 0년대
▁초 빙
▁초 음파
▁드 는데

▁약 탈
▁약 품
위원 들은
▁정도 만

▁필 승
▁9 0여
▁경우 도

▁심 부
▁만들 자
▁관계 로
▁임 기는
▁임 명을
▁논 산
▁너무 도
▁이번 에는

▁치 렀
▁치 밀한
▁타 선을
▁돌 풍을
▁취 항
▁채 웠다.

▁손 도
▁목 록을
▁산 스크
▁넘 기지
▁세계 일보
▁세계 랭킹
▁체 인지
▁각 국이
▁시작 

▁시작 부터
▁규 격
▁협 동
▁종 류를
▁환 매
▁벌 기
▁벌 였던
▁싶 다”며
▁싶 어요
▁누 리는
▁누 르는
▁속 한다.

▁속 도는
▁큰 술
▁사업 조정
▁사업 계획
▁표 했다.

▁표 명한
▁통해 

▁올해 에는
▁지역 주민
가지 를
▁리 허
▁지원 자
▁국가 들은
▁12 억
▁절 친
▁호 수
▁프로 에
▁충 고
▁업 소
▁업 주
▁권 성동
▁학생 도
▁얼 만큼
▁11 번
▁날 도
▁날 린
▁연구 비
▁연구 소는
▁느 린
▁창 피
▁형 은
▁첫 발을
▁돈 만
▁당시 에도
억원 이다.

▁나오 니까

▁부분 과
▁메 가
▁항 변
▁항 쟁
▁순 방을
▁말씀 

▁온 도를
▁계획 인
▁삼성 경제연구소
▁발표 도
▁발표 하신
▁오늘 이
▁오늘 부터
▁트 레
▁트 크
▁홍 종
▁사건 들이
▁길 이가
▁경기 장에서
▁진짜 ?
▁빠 짐
▁커 튼
▁글 요
▁글 자를
▁국제 중
▁국제 대회
▁국제 축구연맹
▁설명 회
▁좋아 져
▁좋아 하시는
▁나온 다는
▁예정 됐던
▁육 천
▁아닌 ,
▁( 북한
▁주장 해왔다.

▁인터 내셔널
▁정책 적
▁용 의가
▁운영 하면서
▁베 어
▁축 제는
▁진행 자
▁현대 카드
▁현대 백화점
▁디 렉
▁추진 이
▁개발 사업
▁문화 콘텐츠
▁여성 들은
▁팔 월
▁정보 의
▁그랬 다고
▁그랬 대

▁별 세
▁잠 복
▁맡 길
▁확인 했다고
▁브 레이
▁어려 서부터
▁급 물
▁보여 요.

▁라 틀
▁라 인이
▁장관 으로
▁전체 회의를
▁탈 루
▁찾아 보
▁13 일까지
(3 8)
▁18 년
▁18 일부터
▁경쟁 할
▁수준 이었다.

▁수사 하고
▁투자 자들의
연구 가
▁엄마 들
▁선거 관리
▁그때 까지
▁14 일까지
▁강조 하면서
▁죽 겠
▁극 동
▁극 작가
▁윤 종
▁나라 

▁회사 다.

▁책임 자
▁책임 감을
▁공동 체의
▁공동 성명
▁17 일까지
▁정상 은
▁존 속
▁반대 했다.

▁황 인
▁않을 까요?

시키 겠다는
▁봤 어
단체 에
▁답 은
▁싸 인
▁주민 참여예산
조사 에서
▁풀 었다.

그룹 에
▁휴 전
▁기대 해
▁기대 한다.

▁기대 한다"고
▁하루 도
▁하면 ,
▁뛰 며
▁뛰 었던
▁어렵 습니다.

▁드러 냈
▁드러 내고
▁시즌 이
▁맛있 다고
▁생활 비
▁예상 됐다.

▁읽 었
▁확대 되고
▁붙 을
▁퍼 즐
▁판단 했다”고
▁부담 스러운
▁환경 과
▁생산 된
▁생산 하고
하자 

▁유럽 을
▁공격 은
▁공격 적으로
▁방식 도
▁나가 게
▁21 일부터
▁내려 간
▁내려 갈
▁내려 앉
▁시장 에서는
▁쪼 끄
▁구조 적
▁구조 주의
▁숨 지는
▁구성 원들이
▁빼 서
▁방문 에
▁방문 은
▁서비스 의
▁제공 했다.

▁주변 은
▁감사 합니다.
▁지나 서
▁증가 율이
▁격 렬
▁격 차는
▁안전 관리
▁22 개
▁적용 하지
▁집중 돼
▁검토 하겠다”고
적이 며
▁익 명을
▁관리 들이
죠. "
▁시절 ,
▁통합 이
▁기본 계획
▁왜냐 하면

▁꾸 다.

▁50 주년
▁표현 은
▁넘어 서

▁이야기 하고
이스 라엘
▁찍 어서
▁알아 

▁계약 직
▁낙 점
▁딸 과
▁시행 할
▁개정 된
▁끓 을
▁끓 여서
▁묻 자,
▁차지 하며
▁이것 만
이에 요?

▁색 조
▁전략 적으로
▁빈 부
▁빈 소
▁공연 하는
▁독일 ,
▁3월 까지
▁대비 해야
▁을 지
▁펼 쳤
▁I B
▁티 브
▁티 비에스
산업 진흥
▁나왔 다는
▁매출 도
▁자연 환경
▁다니 면서

▁겪 으면서
▁끊 은
▁왕 릉
▁되겠 어요.

▁이전 부터
▁발전 할
00만 달러
시설 의
▁가져 가는
▁소득 은
▁중단 됐다.

▁중단 해야
▁진보 가
▁진보 의
▁대화 로
▁대화 할
▁당선 이
▁무엇 일까.

▁은행 권
▁했던 

▁숙 원
▁시스템 의
▁쓸 려
▁대책 으로
▁지속 되고
▁상품 권
▁개혁 ·개
▁노력 도
▁야당 에
▁단체 협약
▁지금까지 

▁원내대표 를
▁전시 작전
▁인도 는
▁인도 에서
통신 >은
▁어머니 와
▁2월 까지
▁고용 이
▁헌법 소
▁토론 에
▁토론 에서
▁얼굴 도
▁하시 니까

▁주목 했다.

▁주목 하는
▁먹고 살
▁과학 적으로
▁히 틀러
▁대기업 들의
▁대변 하는
▁언어 와
▁낸 드
▁구속 됐다.

10 일
▁기획 조정
▁재정 지원
▁냉 방
▁짜 는
▁국무 장관은
▁의료 진이
▁팬 택
▁팬 들을
▁안보 를
▁대법 원의
▁대법 원에
▁바뀌 면서
니깐 .

▁범죄 로
▁꺼 려
▁꺼 냈다.

▁지급 한
(7 8
▁강남 권
▁제안 은
▁시험 이
▁인상 적
▁대구 의
▁전쟁 에
▁전쟁 에서
▁미리 

▁하셨 는데
▁줘 .

▁밝혀 지지
▁60 세
▁"이 명박
▁브랜드 가
▁브랜드 의
▁청년 들이
▁빚 는
▁국립 공원
▁국립 현대
▁달러 의
▁흘 렀
▁흘 리는
▁순간 

▁배치 된
▁배치 해
▁광고 에
▁까 먹
▁슬 퍼
▁택 했다.

00만원 에
00만원 으로
▁아닙 니다.
▁원칙 이
▁출전 했다.

▁옛날 부터
▁끌어 들여
▁걱정 도
▁겨울 에는
▁독립 성을
▁자녀 들이
.5% 가
▁해석 할
▁만난 다.

▁해주 면
가족 이
▁파악 하기
▁법무 부가
통합 을
▁그러고 는
▁늘어나 면
협회 에
▁D TI
▁입학 전형
▁197 0
▁교수님 .

▁정리 하는
▁투입 할
▁투입 하는
께서 도
▁유리 하다.

▁총선 에
▁밖 을
▁시대 와
▁시대 적
▁안타 로
▁잡아 라
▁닭 발
▁바탕 이
▁지정 돼
▁제재 에
▁특수 학교
▁벌써 

▁부문 에
▁최저 생계
▁협의 할
▁“대 북
▁“대 선
▁혹시 라도
▁김정 숙
▁예방 에
.4% )
.7% 에
▁굳 건
▁개막 

▁튀 는
▁괴 로워
▁하락 으로
▁쳐 서
▁떠나 지
▁인물 은
▁인생 에서
해주 지
▁된다 라는
▁흔들 어
▁베트남 에
▁베트남 의
▁많았 지만
▁프리 즘
▁섬 세한
.1% )
▁때부터 

▁지휘 하는
▁응답 한
▁부처 가
▁비밀 을
▁비밀 리에
▁196 3년
▁전남 대
(8 1
▁배경 은
▁성격 에
▁채택 할
억달러 에
억달러 의
▁통계 에
▁빛 깔
▁국민의당 과
▁가게 를
▁name2 이가
▁충돌 을
▁고통 이
▁몰아 붙
▁놨 던
▁다가 올
▁체포 돼
▁흑 백
하나 의
▁인공 위성
▁특징 이
▁법안 심사
▁맨날 

신문 에
▁수십 만
▁연주 자
▁자동 번역
▁초대 석
▁사십 팔
▁혼란 에
▁“한국 은
▁양파 도
▁점검 해
▁의심 하고
▁체육 관
▁정치권 에서
▁보시 면은

▁45 분
▁고속 철도
플레이 오프
▁객 실
법인 세
▁쌍 용
▁분리 해
▁깜 깜
▁300 억
▁만들었 어요.

▁띄 었다.

▁국민연금 에
▁치열 하게
▁후배 들을
▁갖추 는
▁센터 는
▁반복 되는
▁멈 춘
▁무상 으로
▁살펴 볼
▁부과 하는
▁무너 질
▁보상 금을
▁끈 을
▁생겼 을
▁195 5년
▁195 0년대
▁KT 의
▁2003년 부터
▁돌파 한
▁돌파 했다.

▁이웃 을
▁선출 된
▁소녀 가
17 일
▁출입 국
▁철거 를
▁세워 야
▁구글 은
▁매입 한
▁수백 만
▁형성 된
▁김현 수는
▁하늘 에서
▁당사 자가
▁펀드 를
▁조처 는
▁유권 자들의
▁치러 질
▁오빠 는
ar d
▁어깨 에
▁끌어올 릴
▁시사 한
▁5% 를
▁받아들이 고
▁국가대표 팀
▁갈아 치
▁털어 놓았다.

▁성폭 행을
▁입시 에서
▁내정 된
▁무산 된
▁역전 승을
▁새정치민주연합 은
▁케이티 (K
▁저한테 는
▁집계 한
▁효율 적인
▁한은 의
▁품목 의
자산 관리
▁제약 사
▁무죄 가
▁출근 을
▁벨 트
▁우즈 의
▁김연 아의
▁감시 하는
▁“미 국이
▁보여주 지
(26 ·
▁부대 찌개
▁기조 에
▁현역 으로
▁파이 브
29 일
▁동맹 국
▁발행 하는
▁남녀 가
▁널 려
▁부활 을
▁못했 다"며
▁마시 구요.

▁가리 키는
▁불참 한
▁앙 라
▁60% 를
▁‘부 자
26 일
▁관중 은
▁유연 하게
▁기상 청
▁구속영 장이
▁파트너 십
프로그램 을
계열 사
▁주의 해야
31 일
▁한정 된
군사 적
하느냐 에
it y
상태 가
▁객관 적
비서 관이
비서 관을
▁90% 가
▁앨범 을
사항 이
▁한창 이다.

▁2017년 까지
▁와이 파이
▁시상 식에서
▁휴대 용
▁어우러 진
▁"어 떤
기능 을
▁벌여 온
▁(0 3
▁대한항공 은
▁오피스텔 은
▁인사청문 회를
▁누리꾼 은
▁태풍 이
▁무용 수
만9 000원
홈런 을
▁찰 스
▁둥 지를
▁자사고 ·외
▁가산 점을
▁프랑 수아
▁방통 위는
▁방통 심의
▁취급 하는
▁1·2 차
▁시나리오 를
▁윤석 민
▁컨설팅 을
▁전파 를
▁기원 전
▁기원 하는
▁동작 구
▁쓰러 져
-5 로
▁재혼 가정
▁충실 하게
▁지켜보 던
▁기운 을
▁엘리 자
▁전제 조건
▁저질 러
▁퓨 전
▁부끄 러
▁부끄 러운
▁박인 비
▁회고 했다.

▁: :
▁명백 히
▁‘2 차
▁편리 한
▁중기 중앙
▁솔로 몬
▁교황 은
▁국토교통 부
▁오리온 스
▁불필 요
▁박찬 호
▁합니다 만은

▁그쳤 던
▁냉동 실에
▁동대문 구
▁애매 한
▁버려 진
▁새겨 진
▁변동 성이
▁차분 하게
▁역설 했다.

▁백지 화
·노 무현
조약 기구
▁후유 증
라야 마
▁가벼 워
▁화두 로
▁유용 한
▁앞뒤 로
▁'박 정희
형사 립
▁차림 으로
▁마스크 를
▁행정안전 부
▁스트라이 크
르도 안
▁리조 또
▁그라 탕
▁중징 계를
▁가닥 을
▁재래 시장
▁사학 연금
▁동갑 내기
▁경제부 총리
▁광명 시
▁국민행복 기금
▁국내총생산(G DP
▁자서 전
▁당기 순이익
▁워싱턴포스트 (W
▁20~30 대
▁박사학 위를
▁방글라데 시
▁한반 도를
▁내로 라
▁머리카 락
>(C NN
▁‘종 북
▁송호 근
▁롯데백화 점은
▁템플 스테이
홀딩 스
웃음 )
▁중남 미
▁마에 하라
▁장하 나는
▁김옥 란
▁견과 류
▁송도국제 도시
(THAAD ·고
▁개연 성이
▁한목 소리로
▁여하 튼
▁막론 하고
ona l
▁<가 디언
프리미 엄
▁<시엔엔 >(CNN
▁세인트루 이스
셜록홈 즈
커뮤니 케이션
해수 욕
▁연방준비 제도
▁오리지 널
▁애널 리스트
▁마오쩌 둥
▁양해각서(MOU )를
▁ad dress
▁방불 케
▁차근 차근
▁테헤 란
▁흐지부 지
▁싱어송라이 터
▁한소 끔
▁한국야구위원회 (KB
▁표준국어 대사
.go .kr
▁미국프로골프 (
▁산스크 리트
" ,
& M
' ;
( t
( 서
( 타
( 포
) 씨
) 와의
- C
- 아
1 회
3 ,
? "
B I
D D
D S
r an
s e
t 으로
u c
· 합병
▁ 꾼
▁ 람
▁ 쩌
▁ 킬
가 ’
가 리
가 칭
감 의
강 연
개 념
갤 럽
갤 러리
겠 다"며
경 ,
고 래
고 보
곳 이다.

공 공
공 구
공 영
공 장은
관 

교 수가
구 라
권 

그 리스
금 리는
기 동
기 한
나 물을
내 서
내 용
네 상
념 이
노 예
농 도
다 발
당 

대 성
대 화를
더 블
덕 션
도 시에
득 점,
들 게
등 학생
디 트
라 서

라 시아
런 트
레 오
렸 다가
루 만
류 와
르 고

르 웨이
린 은
립 니다

마 루
만 2000원
말 까지
매 니
매 

맥 주
먼 은
메 디
멘 토
명 만
목 동
무 대에서
민 턴
바 이를
박 을
반 은
발 행
배 ,
배 출
번 주
법 

벤 츠
복 음
복 지가
비 싼
사 기
살 상
상 태를
색 인
세 력의
소 타
수 능
수 집
수 행
수 라는
수 술을
숙 박
순 히
스 토리
스 페이스
승 의
승 인
실 

실 하게
심 하게
안 나
압 이
양 ,
양 호
엘 이
여 객
연 결
연 습
오 신
오 바마
옥 션
왕 산
왼 쪽
요 소
용 한
우 승을
욱 이
운 다.

율 과
으 셔도
이 동
이 사회
이 지만

익 은
있 지
자 '
자 위
자 ’로
잔 을
재 용
재 현
전 용
절 도
정 원
정 

정 신을
제 에서
제 도의
좌 를
죄 가
즈 와
지 니
지 요?

진 도
질 하고
쪽 은
책 과
처 와
천 ,
천 명
천 은
천 을
청 산
체 조
초 의
출 혈
층 짜리
치 ,
코 틴
크 레
탑 을
터 ,
텔 링
토 론을
투 자는
트 리스
파 

팔 을
퍼 블릭
펜 던
포 의
표 ,
풍 의
프 레스
피 에
필 립
하 임
하 

하 잖아
하 듯이
한 데

합 니
했 거든요.

했 는데요.

했 다"는
행 위가
향 악
허 위
호 로
회 )
▁이 과
▁이 범
▁그 서
▁그 케
▁있 다”면서도
▁대 금
▁대 중국
▁아 웅
▁사 나
▁사 인을
▁지 를
▁지 성
▁지 표를
▁지 중해
▁하 에
▁하 더라

▁하 태경
▁한 산
▁한 씨는
▁한 도가
▁한 부모
▁한 여름
▁수 위가
▁수 법으로
▁1 ·3
▁1 학기
▁어 드
▁어 수
▁어 야
▁가 에
▁가 출
▁것 들에
▁전 동
▁전 입
▁전 역에서
▁정 쟁
▁정 제
▁정 상을
▁2 일까지
▁2 차례
▁2 명과
▁2 .7
▁2 -0으로
▁2 타점
▁보 복을
▁보 스턴
▁시 군
▁시 쯤
▁시 

▁기 법
▁기 리는
▁기 관은
▁기 관을
▁기 타를
▁거 스
▁거 치는
▁거 네요.

▁거 치면서
▁거 국내
▁“ 독
▁“ 바
▁“ 분
▁“ 태
▁“ 사회
▁“ 수사
▁“ 좋은
▁나 하고
▁나 는데

▁나 스닥
▁다 크
▁‘ 9
▁‘ 약
▁‘ 절
▁‘ 출
▁‘ 확
▁‘ 민주
▁‘ 안전
▁‘ 200
▁‘ 현대
▁‘ 청년
▁‘ 맞춤형
▁일 당
▁일 사
▁일 용
▁일 진
▁일 하게
▁일 가가
▁일 정은
▁인 플레이션
▁주 었다.

▁주 사를
▁주 려고
▁등 이었다.

▁경 차
▁중 이며,
▁중 저가
▁해 군이
▁해 나가
▁해 역에서
▁국 을
▁국 채를
▁말 투
▁말 해야
▁내 줄
▁공 휴
▁공 적인
▁공 기가
▁공 인인증
▁부 위를
▁부 주석
하고 요

▁안 마
▁안 무
▁안 하
▁안 하고
▁때 리
▁오 셔
▁오 인
▁오 죽
▁오 초
▁우 왕
▁여 중
▁여 유를
▁않 지만

▁위 기관리
▁고 걸
▁고 충
▁고 칠
▁고 리를
▁고 비를
▁상 납
▁상 추
▁상 실한
▁조 의
▁조 치는
▁의 회는
▁의 석을
▁선 착
▁선 플
▁선 으로
▁관 세를
▁비 약
▁비 현실
▁비 씨카드
▁있는 가.

▁3 7%
▁3 30
▁3 60
▁만 세
▁모 드
▁모 디
▁연 꽃
▁연 차
▁연 천
▁연 장에
▁유 병
▁유 서
▁유 수
▁유 감을
▁유 물이
▁미 친다.

▁되 려면
▁저 만
▁" 4
▁" 5
▁" 첫
▁" 다른
▁서 슴
▁서 씨는
▁그래 핀
▁최 광
▁같 지는
▁개 강
▁개 씩
▁개 체
▁마 리가
▁마 카오
▁마 지노
▁교 착
▁교 회의
▁교 회를
▁많 죠.

▁많 으니까
▁김 만
▁김 시
▁김 하진
▁' 4
▁' S
▁' 개
▁' 경
▁' 백
▁' 예
▁' 의
▁' 정치
▁' 글로벌
▁원 도
▁원 망
▁원 산
▁원 시
▁원 대의
▁세 대는
▁세 력은
▁세 리머니
▁신 월
▁신 재
▁무 도
▁무 식
▁무 에
▁통 통
▁통 화가
▁통 증이
▁동 력으로
▁동 교동
▁구 비
▁구 수한
▁우리 말로
▁바 글바
▁바 샤르
▁아니 .
▁아니 지

▁아니 다

▁아니 면은

▁그러 셨
▁그러 게요.

▁들 으셨
▁발 권
▁발 리
▁강 기
▁강 도를
▁진 통이
▁당 은
▁당 원이
▁4 점을
▁4 경기
▁불 면
▁불 빛
▁불 충
▁불 길이
▁결 심을
▁도 깨
▁도 난
▁도 맡
▁도 왔다.

▁도 중에
▁도 전이
▁도 의원
▁재 량
▁재 작년
▁재 진입
▁5 ·6
▁성 경
▁성 전
▁성 지
▁성 차별
▁영 결
▁영 부
▁영 예
▁사람 이나
▁사람 으로서
▁장 군은
▁한국 갤럽
▁학 창
▁학 원에
▁후 미
▁건 포도
▁노 장
▁박 동
▁박 형
▁남 동생
▁알 베르
▁두 번
▁두 자
▁두 터
▁회 원이
▁했 고.

▁했 었던
▁했 잖아요

▁했 으니
▁게 .

▁좋 죠

▁추 이를
▁열 렸
▁열 망
▁열 었
▁열 에
▁열 어야
▁열 렸던
