{"[PAD]":0,"[UNK]":1,"[CLS]":2,"[SEP]":3,"[MASK]":4,"\n":5,"\r":6,"!":7,"\"":8,"%":9,"&":10,"'":11,"(":12,")":13,"+":14,",":15,"-":16,".":17,"/":18,"0":19,"1":20,"2":21,"3":22,"4":23,"5":24,"6":25,"7":26,"8":27,"9":28,":":29,";":30,"<":31,"=":32,">":33,"?":34,"A":35,"B":36,"C":37,"D":38,"E":39,"F":40,"G":41,"H":42,"I":43,"J":44,"K":45,"L":46,"M":47,"N":48,"O":49,"P":50,"R":51,"S":52,"T":53,"U":54,"V":55,"W":56,"X":57,"Y":58,"[":59,"]":60,"a":61,"b":62,"c":63,"d":64,"e":65,"f":66,"g":67,"h":68,"i":69,"k":70,"l":71,"m":72,"n":73,"o":74,"p":75,"r":76,"s":77,"t":78,"u":79,"v":80,"w":81,"x":82,"y":83,"~":84,"·":85,"―":86,"‘":87,"’":88,"“":89,"”":90,"•":91,"→":92,"∼":93,"▁":94,"■":95,"▲":96,"△":97,"◆":98,"◇":99,"○":100,"中":101,"北":102,"日":103,"美":104,"가":105,"각":106,"간":107,"갈":108,"감":109,"갑":110,"값":111,"갔":112,"강":113,"갖":114,"같":115,"개":116,"객":117,"갤":118,"걔":119,"거":120,"걱":121,"건":122,"걷":123,"걸":124,"검":125,"겁":126,"것":127,"게":128,"겐":129,"겠":130,"겨":131,"격":132,"겪":133,"견":134,"결":135,"겸":136,"겹":137,"겼":138,"경":139,"계":140,"고":141,"곡":142,"곤":143,"곧":144,"골":145,"곱":146,"곳":147,"공":148,"과":149,"곽":150,"관":151,"괄":152,"광":153,"괜":154,"괴":155,"굉":156,"교":157,"구":158,"국":159,"군":160,"굳":161,"굴":162,"궁":163,"권":164,"귀":165,"규":166,"균":167,"그":168,"극":169,"근":170,"글":171,"금":172,"급":173,"긍":174,"기":175,"긴":176,"길":177,"김":178,"깊":179,"까":180,"깎":181,"깐":182,"깔":183,"깜":184,"깝":185,"깨":186,"꺼":187,"꺾":188,"께":189,"껴":190,"꼬":191,"꼭":192,"꼴":193,"꼼":194,"꼽":195,"꽃":196,"꾸":197,"꾼":198,"꿀":199,"꿈":200,"꿔":201,"뀌":202,"끄":203,"끈":204,"끊":205,"끌":206,"끓":207,"끔":208,"끝":209,"끼":210,"낌":211,"나":212,"낙":213,"난":214,"날":215,"남":216,"납":217,"낫":218,"났":219,"낭":220,"낮":221,"낳":222,"내":223,"낸":224,"낼":225,"냄":226,"냈":227,"냉":228,"냐":229,"냥":230,"너":231,"널":232,"넓":233,"넘":234,"넣":235,"네":236,"넥":237,"넷":238,"녀":239,"녁":240,"년":241,"념":242,"녕":243,"노":244,"녹":245,"논":246,"놀":247,"농":248,"높":249,"놓":250,"놔":251,"놨":252,"뇌":253,"누":254,"눈":255,"눌":256,"눠":257,"뉴":258,"느":259,"는":260,"늘":261,"능":262,"늦":263,"니":264,"닉":265,"닌":266,"닐":267,"님":268,"닙":269,"닝":270,"다":271,"닥":272,"단":273,"닫":274,"달":275,"닭":276,"담":277,"답":278,"닷":279,"당":280,"대":281,"댓":282,"더":283,"덕":284,"던":285,"덜":286,"덧":287,"덩":288,"덮":289,"데":290,"덴":291,"델":292,"도":293,"독":294,"돈":295,"돌":296,"돕":297,"동":298,"돼":299,"됐":300,"되":301,"된":302,"될":303,"됩":304,"두":305,"둑":306,"둔":307,"둘":308,"둥":309,"뒀":310,"뒤":311,"뒷":312,"드":313,"득":314,"든":315,"듣":316,"들":317,"듬":318,"듭":319,"듯":320,"등":321,"디":322,"딜":323,"딩":324,"따":325,"딱":326,"딸":327,"땅":328,"때":329,"땐":330,"떠":331,"떡":332,"떤":333,"떨":334,"떻":335,"떼":336,"또":337,"똑":338,"뚜":339,"뚝":340,"뛰":341,"뜨":342,"뜻":343,"띄":344,"띠":345,"라":346,"락":347,"란":348,"랄":349,"람":350,"랍":351,"랐":352,"랑":353,"래":354,"랙":355,"랜":356,"램":357,"랫":358,"랬":359,"랭":360,"략":361,"량":362,"러":363,"럭":364,"런":365,"럴":366,"럼":367,"럽":368,"렀":369,"렇":370,"레":371,"렉":372,"렌":373,"려":374,"력":375,"련":376,"렬":377,"렴":378,"렵":379,"렸":380,"령":381,"례":382,"로":383,"록":384,"론":385,"롤":386,"롭":387,"롯":388,"롱":389,"뢰":390,"료":391,"룡":392,"루":393,"룬":394,"룰":395,"룸":396,"룹":397,"뤄":398,"류":399,"륙":400,"률":401,"르":402,"른":403,"를":404,"름":405,"릇":406,"릉":407,"릏":408,"리":409,"릭":410,"린":411,"릴":412,"림":413,"립":414,"릿":415,"링":416,"마":417,"막":418,"만":419,"많":420,"말":421,"맙":422,"맛":423,"망":424,"맞":425,"맡":426,"매":427,"맥":428,"맨":429,"맹":430,"맺":431,"머":432,"먹":433,"먼":434,"멀":435,"멈":436,"멋":437,"멍":438,"메":439,"멕":440,"멘":441,"며":442,"면":443,"멸":444,"명":445,"몇":446,"모":447,"목":448,"몬":449,"몰":450,"몸":451,"못":452,"몽":453,"묘":454,"무":455,"묵":456,"묶":457,"문":458,"묻":459,"물":460,"뭐":461,"뭔":462,"뭘":463,"뮤":464,"므":465,"믄":466,"미":467,"민":468,"믿":469,"밀":470,"밌":471,"및":472,"밑":473,"바":474,"박":475,"밖":476,"반":477,"받":478,"발":479,"밝":480,"밟":481,"밤":482,"밥":483,"방":484,"배":485,"백":486,"밴":487,"버":488,"번":489,"벌":490,"범":491,"법":492,"벗":493,"베":494,"벤":495,"벨":496,"벼":497,"벽":498,"변":499,"별":500,"병":501,"보":502,"복":503,"볶":504,"본":505,"볼":506,"봄":507,"봅":508,"봉":509,"봐":510,"봤":511,"부":512,"북":513,"분":514,"불":515,"붕":516,"붙":517,"뷔":518,"뷰":519,"브":520,"블":521,"비":522,"빅":523,"빈":524,"빌":525,"빙":526,"빚":527,"빛":528,"빠":529,"빨":530,"빵":531,"빼":532,"뼈":533,"뽑":534,"뿌":535,"뿐":536,"쁘":537,"쁜":538,"사":539,"삭":540,"산":541,"살":542,"삶":543,"삼":544,"상":545,"새":546,"색":547,"샌":548,"생":549,"샤":550,"서":551,"석":552,"섞":553,"선":554,"설":555,"섬":556,"섭":557,"섯":558,"섰":559,"성":560,"세":561,"센":562,"셀":563,"셈":564,"셋":565,"셔":566,"션":567,"셜":568,"셨":569,"소":570,"속":571,"손":572,"솔":573,"송":574,"쇄":575,"쇠":576,"쇼":577,"수":578,"숙":579,"순":580,"술":581,"숨":582,"숲":583,"쉬":584,"쉽":585,"슈":586,"스":587,"슨":588,"슬":589,"슴":590,"습":591,"슷":592,"승":593,"시":594,"식":595,"신":596,"실":597,"싫":598,"심":599,"십":600,"싱":601,"싶":602,"싸":603,"싼":604,"쌀":605,"쌍":606,"쌓":607,"써":608,"썰":609,"썼":610,"쏘":611,"쏟":612,"쓰":613,"쓴":614,"쓸":615,"씀":616,"씨":617,"씩":618,"씬":619,"아":620,"악":621,"안":622,"앉":623,"않":624,"알":625,"암":626,"압":627,"았":628,"앙":629,"앞":630,"애":631,"액":632,"앤":633,"앨":634,"앱":635,"야":636,"약":637,"얀":638,"양":639,"얘":640,"어":641,"억":642,"언":643,"얻":644,"얼":645,"엄":646,"업":647,"없":648,"엇":649,"었":650,"엉":651,"에":652,"엑":653,"엔":654,"엘":655,"엠":656,"여":657,"역":658,"연":659,"열":660,"염":661,"엽":662,"였":663,"영":664,"옆":665,"예":666,"옛":667,"오":668,"옥":669,"온":670,"올":671,"옮":672,"옵":673,"옷":674,"와":675,"완":676,"왔":677,"왕":678,"왜":679,"외":680,"왼":681,"요":682,"욕":683,"용":684,"우":685,"욱":686,"운":687,"울":688,"움":689,"웃":690,"웅":691,"워":692,"원":693,"월":694,"웠":695,"웨":696,"위":697,"윈":698,"유":699,"육":700,"윤":701,"율":702,"융":703,"으":704,"은":705,"을":706,"음":707,"읍":708,"응":709,"의":710,"이":711,"익":712,"인":713,"일":714,"읽":715,"잃":716,"임":717,"입":718,"잇":719,"있":720,"잉":721,"잊":722,"자":723,"작":724,"잔":725,"잖":726,"잘":727,"잠":728,"잡":729,"장":730,"재":731,"쟁":732,"저":733,"적":734,"전":735,"절":736,"젊":737,"점":738,"접":739,"정":740,"제":741,"젝":742,"젠":743,"져":744,"졌":745,"조":746,"족":747,"존":748,"졸":749,"좀":750,"좁":751,"종":752,"좋":753,"좌":754,"죄":755,"죠":756,"주":757,"죽":758,"준":759,"줄":760,"중":761,"줘":762,"줬":763,"쥐":764,"즈":765,"즉":766,"즌":767,"즐":768,"즘":769,"증":770,"지":771,"직":772,"진":773,"질":774,"짐":775,"집":776,"짓":777,"징":778,"짜":779,"짝":780,"짧":781,"째":782,"쨌":783,"쩌":784,"쪼":785,"쪽":786,"쫌":787,"쫓":788,"쭉":789,"쯤":790,"찌":791,"찍":792,"차":793,"착":794,"찬":795,"찮":796,"찰":797,"참":798,"창":799,"찾":800,"채":801,"책":802,"챔":803,"챙":804,"처":805,"척":806,"천":807,"철":808,"첨":809,"첩":810,"첫":811,"청":812,"체":813,"쳐":814,"쳤":815,"초":816,"촉":817,"촌":818,"촛":819,"총":820,"촬":821,"최":822,"쵸":823,"추":824,"축":825,"춘":826,"출":827,"춤":828,"충":829,"춰":830,"췄":831,"취":832,"츠":833,"측":834,"층":835,"치":836,"칙":837,"친":838,"칠":839,"침":840,"칭":841,"카":842,"칸":843,"칼":844,"캐":845,"캠":846,"커":847,"컨":848,"컬":849,"컴":850,"컵":851,"케":852,"켓":853,"켜":854,"켰":855,"코":856,"콘":857,"콜":858,"콤":859,"콩":860,"쾌":861,"쿄":862,"쿠":863,"쿨":864,"큐":865,"크":866,"큰":867,"클":868,"큼":869,"키":870,"킨":871,"킬":872,"킹":873,"타":874,"탁":875,"탄":876,"탈":877,"탐":878,"탑":879,"탓":880,"탕":881,"태":882,"택":883,"탱":884,"터":885,"턴":886,"털":887,"테":888,"텍":889,"텐":890,"텔":891,"템":892,"토":893,"톡":894,"톤":895,"톱":896,"통":897,"퇴":898,"투":899,"튀":900,"트":901,"특":902,"튼":903,"틀":904,"티":905,"틱":906,"틴":907,"팀":908,"팅":909,"파":910,"팎":911,"판":912,"팔":913,"패":914,"팬":915,"팽":916,"퍼":917,"펀":918,"페":919,"펜":920,"펴":921,"편":922,"펼":923,"평":924,"폐":925,"포":926,"폭":927,"폰":928,"폴":929,"폼":930,"표":931,"푸":932,"풀":933,"품":934,"풍":935,"퓨":936,"프":937,"픈":938,"플":939,"피":940,"픽":941,"핀":942,"필":943,"핑":944,"하":945,"학":946,"한":947,"할":948,"함":949,"합":950,"항":951,"해":952,"핵":953,"했":954,"행":955,"향":956,"허":957,"헌":958,"험":959,"헤":960,"헬":961,"혀":962,"혁":963,"현":964,"혈":965,"혐":966,"협":967,"혔":968,"형":969,"혜":970,"호":971,"혹":972,"혼":973,"홀":974,"홈":975,"홍":976,"화":977,"확":978,"환":979,"활":980,"황":981,"회":982,"획":983,"횡":984,"효":985,"후":986,"훈":987,"훌":988,"훨":989,"훼":990,"휘":991,"휴":992,"흐":993,"흑":994,"흔":995,"흘":996,"흠":997,"흡":998,"흥":999,"희":1000,"히":1001,"힌":1002,"힐":1003,"힘":1004,"\r\n":1005,".\r\n":1006,"다.\r\n":1007,"▁이":1008,"▁그":1009,"▁있":1010,"▁대":1011,"▁아":1012,"으로":1013,"▁사":1014,"에서":1015,"▁지":1016,"▁하":1017,"▁한":1018,"▁수":1019,"▁1":1020,"▁어":1021,"▁가":1022,"했다.\r\n":1023,"▁것":1024,"▁전":1025,"▁정":1026,"▁2":1027,"▁보":1028,"▁시":1029,"▁기":1030,"▁거":1031,"▁“":1032,"▁나":1033,"▁자":1034,"▁다":1035,"▁네":1036,"▁‘":1037,"▁일":1038,"▁인":1039,"▁주":1040,"하는":1041,"▁등":1042,"▁경":1043,"▁중":1044,"▁제":1045,"▁해":1046,"▁국":1047,"요.\r\n":1048,"▁말":1049,"▁내":1050,"00":1051,"▁공":1052,"▁부":1053,"하고":1054,"▁안":1055,"▁때":1056,"▁예":1057,"▁오":1058,"?\r\n":1059,"▁우":1060,"이다.\r\n":1061,"▁여":1062,"▁않":1063,"니다.\r\n":1064,"▁없":1065,"라고":1066,"▁위":1067,"▁고":1068,"▁상":1069,"▁조":1070,"▁의":1071,"▁선":1072,"다”":1073,"▁관":1074,"▁비":1075,"▁있는":1076,"니까":1077,"들이":1078,"▁3":1079,"▁만":1080,"▁모":1081,"지만":1082,"▁소":1083,"▁연":1084,"▁있다.\r\n":1085,"▁유":1086,"▁미":1087,"▁되":1088,"고\r\n":1089,"▁저":1090,"▁\"":1091,"다는":1092,"▁서":1093,"▁생":1094,"▁뭐":1095,"▁문":1096,"▁그래":1097,"렇게":1098,"▁최":1099,"▁같":1100,"▁개":1101,"▁또":1102,"▁마":1103,"▁교":1104,"▁많":1105,"▁김":1106,"▁'":1107,"다고":1108,"는데":1109,"▁원":1110,"▁요":1111,"..":1112,"▁이제":1113,"▁세":1114,"▁방":1115,"▁신":1116,"▁무":1117,"▁분":1118,"면서":1119,"까지":1120,"▁그런":1121,"▁통":1122,"▁동":1123,"▁구":1124,"▁우리":1125,"▁바":1126,"▁아니":1127,"▁그러":1128,"▁들":1129,"▁발":1130,"▁근":1131,"▁강":1132,"▁진":1133,"▁당":1134,"▁현":1135,"▁4":1136,"다”고":1137,"▁불":1138,"▁올":1139,"▁받":1140,"▁결":1141,"▁도":1142,"▁반":1143,"▁재":1144,"▁지난":1145,"▁5":1146,"▁실":1147,"▁네.\r\n":1148,"▁계":1149,"▁성":1150,"▁영":1151,"▁사람":1152,"▁더":1153,"습니다.\r\n":1154,"▁장":1155,"▁그래서":1156,"▁한국":1157,"부터":1158,"▁학":1159,"▁후":1160,"▁건":1161,"라는":1162,"▁말했다.\r\n":1163,"▁노":1164,"었다.\r\n":1165,"▁이렇게":1166,"▁박":1167,"▁좀":1168,"적으로":1169,"에는":1170,"▁이런":1171,"▁남":1172,"▁스":1173,"▁네\r\n":1174,"▁알":1175,"▁차":1176,"에게":1177,"▁어~":1178,"▁그~":1179,"▁두":1180,"▁회":1181,"▁감":1182,"▁지금":1183,"적인":1184,"▁했":1185,"▁20":1186,"다\"":1187,"들은":1188,"▁게":1189,"이라고":1190,"▁좋":1191,"요\r\n":1192,"통령":1193,"▁때문":1194,"▁추":1195,"하게":1196,"▁생각":1197,"▁못":1198,"▁열":1199,"▁하는":1200,"▁대한":1201,"▁대통령":1202,"▁따":1203,"▁입":1204,"▁했다.\r\n":1205,"▁6":1206,"▁할":1207,"▁출":1208,"해서":1209,"▁근데":1210,"▁과":1211,"▁것으로":1212,"▁달":1213,"▁특":1214,"▁서울":1215,"▁적":1216,"▁맞":1217,"▁응":1218,"▁참":1219,"▁확":1220,"▁물":1221,"▁새":1222,"니다":1223,"▁정부":1224,"▁들어":1225,"▁음":1226,"▁단":1227,"▁외":1228,"▁평":1229,"▁집":1230,"▁잘":1231,"▁배":1232,"▁직":1233,"▁문제":1234,"▁뒤":1235,"▁작":1236,"하기":1237,"▁밝":1238,"▁설":1239,"▁매":1240,"고,":1241,"▁민":1242,"▁미국":1243,"▁앞":1244,"▁삼":1245,"▁명":1246,"들의":1247,"▁청":1248,"▁것이":1249,"▁같은":1250,"▁역":1251,"▁총":1252,"▁그렇":1253,"기를":1254,"▁북":1255,"▁너":1256,"▁검":1257,"▁10":1258,"▁가지":1259,"리고":1260,"죠.\r\n":1261,"...":1262,"▁살":1263,"▁7":1264,"▁금":1265,"▁200":1266,"▁얘":1267,"▁처":1268,"▁된":1269,"장은":1270,"▁막":1271,"잖아":1272,"▁많이":1273,"▁양":1274,"▁에":1275,"▁포":1276,"▁인제":1277,"▁법":1278,"▁데":1279,"▁대표":1280,"는데\r\n":1281,"▁사실":1282,"▁걸":1283,"▁파":1284,"▁프":1285,"▁때문에":1286,"▁행":1287,"▁중국":1288,"▁간":1289,"▁합":1290,"하지":1291,"▁번":1292,"요?\r\n":1293,"자는":1294,"▁피":1295,"()":1296,"다\"고":1297,"서\r\n":1298,"는\r\n":1299,"▁8":1300,"▁초":1301,"▁드":1302,"▁19":1303,"았다.\r\n":1304,"보다":1305,"▁의원":1306,"▁있어":1307,"▁언":1308,"▁먹":1309,"▁약":1310,"▁투":1311,"위원":1312,"됐다.\r\n":1313,"면\r\n":1314,"▁본":1315,"▁정도":1316,"한다.\r\n":1317,"▁후보":1318,"▁필":1319,"대로":1320,"▁점":1321,"▁위해":1322,"▁201":1323,"리는":1324,"▁9":1325,"니까\r\n":1326,"가\r\n":1327,"들을":1328,"면은":1329,"사를":1330,"이나":1331,"▁경우":1332,"▁높":1333,"▁심":1334,"▁운":1335,"▁일본":1336,"▁하고":1337,"▁만들":1338,"▁밝혔":1339,"▁것은":1340,"에도":1341,"▁판":1342,"▁그냥":1343,"▁관계":1344,"▁줄":1345,"▁임":1346,"다”며":1347,"장을":1348,"▁어떤":1349,"▁변":1350,"▁논":1351,"▁너무":1352,"▁밝혔다.\r\n":1353,"▁이번":1354,"▁함":1355,"데\r\n":1356,"▁국민":1357,"이라":1358,"000":1359,"▁제가":1360,"▁이상":1361,"▁지난해":1362,"▁치":1363,"▁다른":1364,"▁씨":1365,"▁타":1366,"▁북한":1367,"▁관련":1368,"▁활":1369,"▁이날":1370,"▁담":1371,"장이":1372,"”\r\n":1373,"▁하지만":1374,"▁갖":1375,"습니다":1376,"▁돌":1377,"지는":1378,"▁가능":1379,"▁교육":1380,"▁준":1381,"▁왜":1382,"도록":1383,"▁취":1384,"▁채":1385,"▁손":1386,"▁늘":1387,"▁화":1388,"▁그는":1389,"▁넣":1390,"▁하나":1391,"▁돼":1392,"하면":1393,"리를":1394,"에서는":1395,"▁목":1396,"▁사회":1397,"거든":1398,"기가":1399,"▁친":1400,"▁대해":1401,"▁산":1402,"해야":1403,"▁아이":1404,"졌다.\r\n":1405,"▁넘":1406,"기도":1407,"▁그리고":1408,"▁증":1409,"▁크":1410,"▁세계":1411,"▁다음":1412,"▁그렇게":1413,"▁이후":1414,"▁체":1415,"▁필요":1416,"▁야":1417,"▁것이다.\r\n":1418,"▁각":1419,"▁될":1420,"였다.\r\n":1421,"기에":1422,"▁가장":1423,"▁시작":1424,"▁찾":1425,"▁규":1426,"▁책":1427,"▁정치":1428,"▁협":1429,"▁애":1430,"다가":1431,"▁어떻":1432,"▁함께":1433,"▁종":1434,"▁시간":1435,"▁식":1436,"▁환":1437,"▁[":1438,"처럼":1439,"▁벌":1440,"▁내가":1441,"▁독":1442,"▁싶":1443,"▁누":1444,"▁속":1445,"으면":1446,"▁큰":1447,"▁사업":1448,"▁표":1449,"▁이어":1450,"에\r\n":1451,"▁응\r\n":1452,"▁교수":1453,"▁그거":1454,"▁버":1455,"▁이게":1456,"▁통해":1457,"▁어떻게":1458,"▁따라":1459,"성이":1460,"도\r\n":1461,"▁힘":1462,"▁올해":1463,"▁지역":1464,"▁경제":1465,"▁쓰":1466,"▁등을":1467,"▁엄":1468,"▁복":1469,"가지":1470,"▁리":1471,"▁있었":1472,"▁최근":1473,"▁지원":1474,"▁기업":1475,"”이라고":1476,"자가":1477,"▁상황":1478,"▁예.\r\n":1479,"▁국가":1480,"▁12":1481,"0년":1482,"▁절":1483,"▁승":1484,"지\r\n":1485,"▁호":1486,"▁프로":1487,"▁충":1488,"▁편":1489,"회의":1490,"▁업":1491,"▁군":1492,"▁권":1493,"▁민주":1494,"어요.\r\n":1495,"▁학생":1496,"▁얘기":1497,"▁완":1498,"▁광":1499,"▁얼":1500,"▁보고":1501,"요.":1502,"▁11":1503,"▁모두":1504,"▁어\r\n":1505,"▁날":1506,"▁예\r\n":1507,"이라는":1508,"다\r\n":1509,"▁처음":1510,"사가":1511,"되는":1512,"▁카":1513,"▁없는":1514,"▁갈":1515,"▁위한":1516,"▁자신":1517,"하면서":1518,"▁국내":1519,"지를":1520,"▁아니라":1521,"정을":1522,"만원":1523,"된다.\r\n":1524,"기업":1525,"▁질":1526,"리가":1527,"시아":1528,"▁많은":1529,"력을":1530,"▁끝":1531,"▁다시":1532,"▁허":1533,"▁한다.\r\n":1534,"▁연구":1535,"▁저는":1536,"▁경찰":1537,"▁결과":1538,"▁맛":1539,"성을":1540,"이\r\n":1541,"▁느":1542,"▁대학":1543,"▁창":1544,"▁잡":1545,"▁형":1546,"거나":1547,"▁<":1548,"▁첫":1549,"▁돈":1550,"▁되는":1551,"(1":1552,"▁아주":1553,"▁당시":1554,"억원":1555,"▁나오":1556,"▁그게":1557,"화를":1558,"▁것을":1559,"▁여러":1560,"▁부분":1561,"▁학교":1562,"▁은":1563,"(2":1564,"▁됐":1565,"하겠":1566,"▁메":1567,"▁항":1568,"사는":1569,"▁내용":1570,"▁순":1571,"▁않는":1572,"▁선생":1573,"▁말씀":1574,"▁현재":1575,"▁쪽":1576,"▁있을":1577,"▁검찰":1578,"▁계속":1579,"▁놓":1580,"▁선수":1581,"▁백":1582,"▁전문":1583,"▁이거":1584,"▁눈":1585,"▁사이":1586,"▁태":1587,"기는":1588,"▁준비":1589,"▁온":1590,"▁볼":1591,"한테":1592,"스트":1593,"▁계획":1594,"▁삼성":1595,"▁15":1596,"▁가지고":1597,"▁우리가":1598,"▁발표":1599,"학교":1600,"에서도":1601,"주의":1602,"들에게":1603,"▁중요":1604,"▁이~":1605,"명이":1606,"▁그러나":1607,"▁토":1608,"위원회":1609,"▁핵":1610,"▁오늘":1611,"▁이유":1612,"▁몰":1613,"어\r\n":1614,"),":1615,"▁트":1616,"▁30":1617,"▁홍":1618,"운데":1619,"하며":1620,"왔다.\r\n":1621,"입니다.\r\n":1622,"▁해야":1623,"▁그니까":1624,"지만,":1625,"▁동안":1626,"▁알려":1627,"가는":1628,"▁조사":1629,"상을":1630,"▁사건":1631,"했던":1632,"▁거기":1633,"시는":1634,"▁만들어":1635,"▁길":1636,"▁코":1637,"▁사용":1638,"다면":1639,"▁최고":1640,"▁좋은":1641,"▁굉":1642,"▁정말":1643,"▁농":1644,"이고":1645,"이는":1646,"▁관계자는":1647,"▁경기":1648,"▁및":1649,"▁굉장":1650,"▁병":1651,"▁진짜":1652,"▁빠":1653,"▁커":1654,"▁폭":1655,"▁글":1656,"▁평가":1657,"▁난":1658,"▁가운데":1659,"부는":1660,"▁여기":1661,"나라":1662,"▁접":1663,"▁굉장히":1664,"▁저희":1665,"씨는":1666,"▁월":1667,"▁것도":1668,"니까?\r\n":1669,"이었다.\r\n":1670,"▁감독":1671,"이었":1672,"▁네.":1673,"▁이야":1674,"▁국제":1675,"▁요구":1676,"다.":1677,"xx":1678,"▁대해서":1679,"▁천":1680,"기로":1681,"▁년":1682,"▁설명":1683,"▁해서":1684,"▁선생님":1685,"에선":1686,"▁있다는":1687,"▁그럼":1688,"▁측":1689,"▁철":1690,"은\r\n":1691,"자를":1692,"하다.\r\n":1693,"▁대상":1694,"▁거야":1695,"▁좋아":1696,"자의":1697,"▁특히":1698,"▁나온":1699,"▁받아":1700,"레이":1701,"’을":1702,"인이":1703,"교육":1704,"▁지적":1705,"▁곳":1706,"안을":1707,"▁예정":1708,"▁로":1709,"▁국회":1710,"▁수도":1711,"▁보면":1712,"▁있습니다.\r\n":1713,"▁맞아":1714,"▁육":1715,"더라":1716,"시간":1717,"▁아닌":1718,"▁(":1719,"▁그러니까":1720,"▁기록":1721,"▁주장":1722,"▁새로":1723,"지고":1724,"▁인터":1725,"▁정책":1726,"▁금융":1727,"▁용":1728,"▁같이":1729,"면은\r\n":1730,"들도":1731,"▁운영":1732,"▁않았":1733,"으며":1734,"▁떨":1735,"▁베":1736,"▁축":1737,"어서":1738,"▁와":1739,"▁뭐~":1740,"▁조금":1741,"▁진행":1742,"▁현대":1743,"▁면":1744,"▁디":1745,"▁참여":1746,"▁향":1747,"▁추진":1748,"▁피해":1749,"▁그런데":1750,"▁포함":1751,"▁개발":1752,"▁이미":1753,"▁않은":1754,"▁결정":1755,"장의":1756,"▁그것":1757,"▁보인":1758,"▁사람이":1759,"0%":1760,"▁과정":1761,"비스":1762,"▁일부":1763,"명을":1764,"▁문화":1765,"센터":1766,"▁여성":1767,"렸다.\r\n":1768,"▁마음":1769,"와대":1770,"원이":1771,"밖에":1772,"▁100":1773,"▁팔":1774,"▁정보":1775,"▁그랬":1776,"▁별":1777,"▁직접":1778,"▁떠":1779,"▁탄":1780,"다\"며":1781,"습니다\r\n":1782,"▁나는":1783,"▁잠":1784,"력이":1785,"▁갖고":1786,"▁자기":1787,"▁이용":1788,"의를":1789,"▁기준":1790,"▁맡":1791,"어나":1792,"▁돌아":1793,"▁확인":1794,"▁몇":1795,"대표":1796,"제로":1797,"▁브":1798,"느냐":1799,"▁모든":1800,"▁모르":1801,"\"\r\n":1802,"죠\r\n":1803,"이라며":1804,"▁어려":1805,"장에서":1806,"도를":1807,"▁급":1808,"▁범":1809,"▁분석":1810,"▁보여":1811,"▁바로":1812,"▁라":1813,"▁장관":1814,"▁것”이라고":1815,"▁않고":1816,"▁공개":1817,"▁전체":1818,"누리":1819,"20":1820,"▁갔":1821,"케이":1822,"동을":1823,"하고\r\n":1824,"려고":1825,"지.\r\n":1826,"▁효":1827,"르면":1828,"▁아\r\n":1829,"▁탈":1830,"▁열린":1831,"▁골":1832,"났다.\r\n":1833,"▁찾아":1834,"금을":1835,"▁13":1836,"▁팀":1837,"▁아무":1838,"은행":1839,"▁때문이다.\r\n":1840,"▁낮":1841,"▁이에":1842,"(3":1843,"머니":1844,"▁18":1845,"▁떨어":1846,"▁있다”고":1847,"어.\r\n":1848,"’를":1849,"▁기술":1850,"▁16":1851,"▁생각을":1852,"회를":1853,"▁청와대":1854,"▁이를":1855,"들과":1856,"정부":1857,"▁십":1858,"▁아직":1859,"▁민주당":1860,"대를":1861,"▁경쟁":1862,"거든요.\r\n":1863,"장에":1864,"▁얼마":1865,"▁최대":1866,"▁수준":1867,"▁음\r\n":1868,"▁나타":1869,"▁개인":1870,"위를":1871,"▁먼":1872,"8년":1873,"▁내년":1874,"▁수사":1875,"▁터":1876,"▁투자":1877,"▁그러면":1878,")는":1879,"연구":1880,"되고":1881,"▁혼":1882,"▁가족":1883,"2년":1884,"▁비판":1885,"▁봐":1886,"\"이라고":1887,"▁엄마":1888,"▁선거":1889,"▁왔":1890,"▁외교":1891,"누리당":1892,"구요.\r\n":1893,"▁그때":1894,"지가":1895,"▁상태":1896,"▁약간":1897,"원을":1898,"▁관심":1899,"▁압":1900,"▁영화":1901,")의":1902,"▁14":1903,"▁둘":1904,"▁요즘":1905,"▁위원":1906,"▁국정":1907,"▁뜻":1908,"me":1909,"▁결국":1910,"▁모습":1911,"식을":1912,"▁뉴":1913,"▁강조":1914,"▁있다고":1915,"▁외국":1916,"인데":1917,"▁머":1918,"▁때문에\r\n":1919,"▁친구":1920,"▁죽":1921,"▁극":1922,"랜드":1923,"▁소비":1924,"근혜":1925,"▁시민":1926,"▁기자":1927,"잖아요.\r\n":1928,"주는":1929,"치를":1930,"▁규모":1931,"5년":1932,"’는":1933,"리아":1934,"▁대선":1935,"▁거예":1936,"▁올라":1937,"na":1938,"▁없이":1939,"겠습니다.\r\n":1940,"▁윤":1941,"▁다양":1942,"▁이름":1943,"동안":1944,"▁송":1945,"7년":1946,"▁나라":1947,"▁회사":1948,"에서\r\n":1949,"이가":1950,"▁책임":1951,"료를":1952,"▁등의":1953,"원은":1954,"▁마련":1955,"▁몸":1956,"▁만나":1957,"▁폐":1958,"▁혐":1959,"▁K":1960,"▁전국":1961,"▁대통령은":1962,"했다고":1963,"▁위해서":1964,"▁노동":1965,"▁키":1966,"사회":1967,"제를":1968,"▁대통령이":1969,"▁패":1970,"도가":1971,"▁그걸":1972,"점을":1973,"▁있으":1974,"사업":1975,"▁공동":1976,"▁새누리당":1977,"더라고":1978,"▁정부가":1979,"▁자체":1980,"▁있고":1981,"▁같애":1982,"▁등이":1983,"▁없다.\r\n":1984,"하고,":1985,"▁17":1986,"▁25":1987,"▁쉽":1988,"▁정상":1989,"겨레":1990,"▁된다.\r\n":1991,"▁상당":1992,"▁△":1993,"▁존":1994,"▁반대":1995,"▁A":1996,"개월":1997,"▁출신":1998,"▁황":1999,"을\r\n":2000,"▁있었다.\r\n":2001,"▁인사":2002,"▁오후":2003,"▁영향":2004,"▁물론":2005,"▁않을":2006,"▁앞으로":2007,"▁na":2008,"▁방송":2009,"전을":2010,"시키":2011,"▁name":2012,"▁봤":2013,"▁거의":2014,"▁지난달":2015,"업체":2016,"▁우려":2017,"단체":2018,"▁하지":2019,"지만\r\n":2020,"죠?\r\n":2021,"▁답":2022,"3년":2023,"권을":2024,"명의":2025,")를":2026,"▁밀":2027,"▁새로운":2028,"서는":2029,"한국":2030,"▁지지":2031,"▁먼저":2032,"1년":2033,"▁싸":2034,"그램":2035,"▁어느":2036,"▁인정":2037,"▁다음에":2038,")을":2039,"▁주민":2040,"▁논란":2041,"▁침":2042,"조사":2043,"▁풀":2044,"▁보도":2045,"▁언론":2046,"그룹":2047,"▁보인다.\r\n":2048,"4년":2049,"더니":2050,"▁테":2051,"▁휴":2052,")가":2053,"기관":2054,"▁전망":2055,"▁따르면":2056,"▁특별":2057,"▁199":2058,"합니다.\r\n":2059,"▁러":2060,"▁자유":2061,"▁평균":2062,"(4":2063,"민주":2064,"부를":2065,"▁으":2066,"원의":2067,"한겨레":2068,"▁크게":2069,"▁기대":2070,")이":2071,"▁“이":2072,"▁하루":2073,"▁하면":2074,"▁한번":2075,"▁받은":2076,"9년":2077,"▁희":2078,"▁됐다.\r\n":2079,"문을":2080,"어야":2081,"▁일반":2082,"▁강화":2083,"하기로":2084,"마트":2085,"▁문제가":2086,"부가":2087,"▁중심":2088,"▁의미":2089,"▁얻":2090,")에":2091,"▁예산":2092,"드는":2093,"시고":2094,"▁빨":2095,"(5":2096,"▁말이":2097,"▁만에":2098,"▁뛰":2099,"▁되게":2100,"▁추가":2101,"인은":2102,"면서\r\n":2103,"▁어렵":2104,"▁해외":2105,"니까.\r\n":2106,"▁전문가":2107,"▁않아":2108,"▁판매":2109,"▁귀":2110,"▁서울시":2111,"▁어디":2112,"▁S":2113,"부분":2114,"▁일이":2115,"▁분야":2116,"▁드러":2117,"시면":2118,"▁가격":2119,"▁들어가":2120,"▁의견":2121,"▁방법":2122,"▁발생":2123,"지도":2124,"문화":2125,"▁때는":2126,"냈다.\r\n":2127,"▁얘기를":2128,"▁합의":2129,"▁않았다.\r\n":2130,"▁아~":2131,"▁역사":2132,"▁의원은":2133,"달러":2134,"자인":2135,"르는":2136,"▁헌":2137,"▁부산":2138,"지막":2139,"전히":2140,"▁퇴":2141,"▁xx":2142,"마다":2143,"자로":2144,"경제":2145,"이지":2146,"▁사람들이":2147,"▁받고":2148,"▁L":2149,"서를":2150,"으나":2151,"▁제품":2152,"▁해결":2153,"▁박근혜":2154,"수를":2155,"▁시즌":2156,"▁작품":2157,"자들이":2158,"▁긴":2159,"림픽":2160,"▁딱":2161,")은":2162,"0.":2163,"도로":2164,"▁맛있":2165,"▁생활":2166,"▁활동":2167,"리에":2168,"스로":2169,"▁성공":2170,"▁직원":2171,"▁힘들":2172,"사의":2173,"업을":2174,"잖아.\r\n":2175,"▁예상":2176,"▁역할":2177,"▁페":2178,"▁기간":2179,"치는":2180,"▁참석":2181,"▁음.\r\n":2182,"▁마지막":2183,"수가":2184,"▁읽":2185,"정보":2186,"▁없어":2187,"▁확대":2188,"▁중요한":2189,"6년":2190,"▁가능성이":2191,"학생":2192,"▁사진":2193,"▁붙":2194,"▁퍼":2195,"▁무슨":2196,"▁판단":2197,"▁변호":2198,"▁있도록":2199,"▁논의":2200,"전에":2201,"▁수가":2202,"▁울":2203,"인의":2204,"▁부담":2205,"▁가지고\r\n":2206,"스를":2207,"▁플":2208,"▁넣어":2209,"▁이뤄":2210,"▁환경":2211,"▁듣":2212,"”이라며":2213,"▁생산":2214,"롯데":2215,"▁악":2216,"▁사고":2217,"▁자신의":2218,"하자":2219,"▁겁":2220,"▁없었":2221,"▁유럽":2222,"▁대통령의":2223,"▁지방":2224,"▁공격":2225,"▁요렇게":2226,"▁알려졌다.\r\n":2227,"▁역시":2228,"▁효과":2229,"정이":2230,"▁프로그램":2231,"▁방식":2232,"▁만큼":2233,"▁홈":2234,"▁대부분":2235,"▁주요":2236,"▁다양한":2237,"▁겨":2238,"계를":2239,"시에":2240,"▁같아":2241,"▁전했다.\r\n":2242,"▁삶":2243,"물을":2244,"▁이러":2245,"▁나가":2246,"니다\r\n":2247,"▁영국":2248,"▁높은":2249,"▁21":2250,"▁내려":2251,"▁언니":2252,"▁시장":2253,"▁우승":2254,"▁이제\r\n":2255,"▁에~":2256,"로\r\n":2257,"과의":2258,"▁때\r\n":2259,"▁쪼":2260,"▁우리나라":2261,"▁기존":2262,"▁구조":2263,"5%":2264,"구나":2265,"▁있는데":2266,"하려":2267,"▁거죠.\r\n":2268,"▁숨":2269,"동차":2270,"하다":2271,"▁의혹":2272,"습니까?\r\n":2273,"▁구성":2274,"▁교수는":2275,"▁놀":2276,"▁빼":2277,"선을":2278,"▁방문":2279,"▁혐의":2280,"개발":2281,"리그":2282,"▁전에":2283,"▁서비스":2284,"▁핵심":2285,"▁건강":2286,"▁오전":2287,"▁제공":2288,"▁말을":2289,"▁되고":2290,"▁이해":2291,"▁아까":2292,"랑스":2293,"▁아마":2294,"▁주변":2295,"▁끌":2296,"▁나와":2297,"▁제대로":2298,"무원":2299,"경기":2300,"▁일단":2301,"▁경영":2302,"▁감사":2303,"▁앞서":2304,"▁씨는":2305,"▁도입":2306,"되지":2307,"는다.\r\n":2308,"▁지나":2309,"▁어린":2310,"▁달라":2311,"▁고려":2312,"인을":2313,"파트":2314,"▁하고\r\n":2315,"’이":2316,"스템":2317,"▁24":2318,"▁C":2319,"▁레":2320,"▁작년":2321,"▁석":2322,"대에":2323,"▁있다":2324,"▁활용":2325,"▁증가":2326,"▁업체":2327,"▁격":2328,"▁찬":2329,"▁정부는":2330,"▁살아":2331,"▁통일":2332,"▁보내":2333,"▁미래":2334,"▁안전":2335,"상이":2336,"▁만든":2337,"▁인터넷":2338,"▁꼭":2339,"▁사무":2340,"▁22":2341,"▁그래도":2342,"▁성장":2343,"▁문제를":2344,"▁나온다.\r\n":2345,"km":2346,"화가":2347,"▁상대":2348,"▁적용":2349,"▁건설":2350,"▁지도":2351,"▁집중":2352,"’의":2353,"대학":2354,"정치":2355,"▁있고\r\n":2356,"▁유지":2357,"’\r\n":2358,"▁대신":2359,"▁롯데":2360,"▁검토":2361,"정책":2362,"▁깨":2363,"▁젊":2364,"▁괜":2365,"▁등에":2366,"적이":2367,"연합":2368,"지역":2369,"▁한편":2370,"▁여자":2371,"▁비롯":2372,"인가":2373,"▁익":2374,"▁관리":2375,"씨가":2376,"죠.":2377,"▁시절":2378,"▁통합":2379,"▁사실은":2380,"이트":2381,"▁한다는":2382,"습니다.":2383,"▁[한겨레":2384,"(6":2385,"장과":2386,"▁그의":2387,"세를":2388,"▁기본":2389,"▁각각":2390,"▁예정이다.\r\n":2391,"세요.\r\n":2392,"▁재판":2393,"▁거예요.\r\n":2394,"년간":2395,"▁보수":2396,"▁왜냐":2397,"▁목표":2398,"▁꾸":2399,"어난":2400,"▁50":2401,"▁대표는":2402,"▁녹":2403,"▁대회":2404,"▁표현":2405,"▁적극":2406,"▁클":2407,"▁조선":2408,"▁흔":2409,"라며":2410,"▁27":2411,"고.\r\n":2412,"▁넘어":2413,"▁[한겨레]":2414,"▁중앙":2415,"▁움":2416,"한다는":2417,"▁일을":2418,"▁이야기":2419,"이스":2420,"▁찍":2421,"▁우선":2422,"▁현실":2423,"▁갑":2424,"▁캐":2425,"원에서":2426,"▁나서":2427,"쳤다.\r\n":2428,"▁23":2429,"▁경험":2430,"▁뭐\r\n":2431,"▁신청":2432,"▁알아":2433,"▁28":2434,"▁설명했다.\r\n":2435,"▁꿈":2436,"▁한다”고":2437,"▁밥":2438,"▁확보":2439,"▁능":2440,"▁뿐":2441,"▁자리":2442,"잖아\r\n":2443,"기술":2444,"▁과거":2445,"▁계약":2446,"대는":2447,"들에":2448,"▁그래서\r\n":2449,"▁그리":2450,"▁예.":2451,"’에":2452,"지에":2453,"▁가서":2454,"▁밤":2455,"니다.":2456,"당이":2457,"럼프":2458,"▁정도로":2459,"▁배우":2460,"관이":2461,"▁저희가":2462,"겠다는":2463,"하던":2464,"▁저기":2465,"▁업무":2466,"▁질문":2467,"▁졸":2468,"▁내놓":2469,"▁비슷":2470,"원에":2471,"▁낙":2472,"훈련":2473,"▁원내":2474,"▁도움":2475,"▁워":2476,"▁등으로":2477,"▁써":2478,"와의":2479,"히려":2480,"▁실제로":2481,"정한":2482,"▁있게":2483,"▁선택":2484,"아\r\n":2485,"▁딸":2486,"▁시행":2487,"▁번째":2488,"감을":2489,"했고,":2490,"▁받았":2491,"▁그동안":2492,"▁26":2493,"다가\r\n":2494,"▁방침":2495,"▁가까":2496,"▁조직":2497,"▁산업":2498,"했지만":2499,"▁가는":2500,"▁분위":2501,"▁정부의":2502,"▁인천":2503,"▁놓고":2504,"▁제작":2505,"는데,":2506,"▁6월":2507,"▁듯":2508,"▁개정":2509,"▁뭔":2510,"▁옛":2511,"시장":2512,"▁끓":2513,"바마":2514,"했다는":2515,"나는":2516,"▁해당":2517,"▁견":2518,"▁묻":2519,"▁차지":2520,"▁됩":2521,"▁이것":2522,"▁행사":2523,"▁움직":2524,"대가":2525,"이에":2526,"▁정권":2527,"▁계획이다.\r\n":2528,"를\r\n":2529,"▁과정에서":2530,"▁개선":2531,"▁4월":2532,"▁5월":2533,"▁색":2534,"▁대응":2535,"▁생각이":2536,"▁괜찮":2537,"▁전략":2538,"▁반면":2539,"▁이사":2540,"▁오히려":2541,"▁있는데\r\n":2542,"▁설치":2543,"▁빈":2544,"스는":2545,"▁공연":2546,"▁잘못":2547,"'을":2548,"▁제기":2549,"인트":2550,"▁아시아":2551,"▁아파트":2552,"▁독일":2553,"▁술":2554,"▁그건":2555,"▁있기":2556,"▁엄청":2557,"▁해도":2558,"소년":2559,"▁3월":2560,"▁풍":2561,"▁주는":2562,"▁두고":2563,"▁국민의":2564,"▁혹":2565,"▁얼마나":2566,"▁쫌":2567,"보다는":2568,"지지":2569,"▁대비":2570,"등학교":2571,"▁아버":2572,"▁수출":2573,"회가":2574,"▁국방":2575,"▁징":2576,"섰다.\r\n":2577,"전자":2578,"▁남북":2579,"두고":2580,"이를":2581,"로부터":2582,"장으로":2583,"▁요청":2584,"방송":2585,"▁사실상":2586,"▁돈을":2587,"▁보이":2588,"▁또는":2589,"▁해서\r\n":2590,"▁여론":2591,"▁을":2592,"▁발언":2593,"가지고":2594,"▁고민":2595,"▁저~":2596,"·1":2597,"’로":2598,"▁펼":2599,"관은":2600,"라이":2601,"비를":2602,"▁부족":2603,"▁관광":2604,"▁프랑스":2605,"리지":2606,"▁사랑":2607,"”라고":2608,"▁I":2609,"학과":2610,"▁벌어":2611,"▁벗":2612,"국이":2613,"중에":2614,"▁요리":2615,"▁7월":2616,"▁9월":2617,"TV":2618,"위에":2619,"▁교과":2620,"▁러시아":2621,"▁티":2622,"▁가입":2623,"산업":2624,"▁스스로":2625,"해서\r\n":2626,"▁젊은":2627,"가가":2628,"어를":2629,"진다.\r\n":2630,"▁스타":2631,"▁엘":2632,"▁서로":2633,"▁옮":2634,"▁인간":2635,"▁부모":2636,"▁나왔":2637,"▁오는":2638,"▁40":2639,"▁즐":2640,"▁남자":2641,"▁1년":2642,"▁기억":2643,"▁매출":2644,"▁비교":2645,"▁2008년":2646,"인지":2647,"▁12월":2648,"보고":2649,"선거":2650,"▁사는":2651,"▁자연":2652,"▁내부":2653,"로벌":2654,"▁주택":2655,"201":2656,"▁많아":2657,"학년":2658,"▁다니":2659,"▁빨리":2660,"▁중소":2661,"▁필요한":2662,"▁인터뷰":2663,"국의":2664,"명박":2665,"▁것\"이라고":2666,"▁받는":2667,"▁뽑":2668,"▁안에":2669,"행을":2670,"▁오바마":2671,"▁알고":2672,"▁관련해":2673,"가를":2674,"율이":2675,"제가":2676,"하도록":2677,"▁오래":2678,"대의":2679,"일부터":2680,"재인":2681,"▁콘":2682,"라도":2683,"▁이는":2684,"▁있다\"고":2685,"▁북한의":2686,"▁합니다.\r\n":2687,"▁겪":2688,"▁맨":2689,"▁실제":2690,"▁착":2691,"▁케이":2692,"까요?\r\n":2693,"▁그럴":2694,"▁통과":2695,"▁주시":2696,"▁제일":2697,"▁선발":2698,"거리":2699,"▁있던":2700,"▁끊":2701,"구를":2702,"장,":2703,"으며,":2704,"스타":2705,"'는":2706,"▁이른":2707,"▁상승":2708,"▁발견":2709,"▁목소":2710,"스가":2711,"▁구체":2712,"▁왕":2713,"▁요거":2714,"▁틀":2715,"▁공공":2716,"▁복지":2717,"▁정신":2718,"사일":2719,"▁공무원":2720,"▁회의":2721,"▁싶은":2722,"만큼":2723,"▁이십":2724,"▁있다”며":2725,"으로\r\n":2726,"▁사례":2727,"▁있어요.\r\n":2728,"▁봉":2729,"▁웃":2730,"▁하게":2731,"회담":2732,"▁원래":2733,"▁열어":2734,"회사":2735,"▁29":2736,"▁욕":2737,"금융":2738,"되면":2739,"▁유명":2740,"더라도":2741,"관리":2742,"했다”고":2743,"▁비용":2744,"▁되겠":2745,"▁위험":2746,"▁쓴":2747,"▁시간이":2748,"위는":2749,"▁대형":2750,"▁공정":2751,"▁민간":2752,"▁되면":2753,"없이":2754,"이기":2755,"▁결혼":2756,"▁훨":2757,"▁선정":2758,"▁총리":2759,"▁8월":2760,"”고":2761,"▁보는":2762,"▁공식":2763,"▁받았다.\r\n":2764,"▁꼽":2765,"▁믿":2766,"랐다.\r\n":2767,"▁우리는":2768,"과학":2769,"대회":2770,"▁이전":2771,"개를":2772,"관계":2773,"▁따른":2774,"▁감독은":2775,"'를":2776,"▁발전":2777,"▁느낌":2778,"▁내용을":2779,"▁거야.\r\n":2780,"▁걱":2781,"지원":2782,"▁소속":2783,"▁잇":2784,"정은":2785,"▁다르":2786,"▁도시":2787,"▁가능성":2788,"라인":2789,"▁트럼프":2790,"▁모르겠":2791,"▁못한":2792,"▁훨씬":2793,"▁1월":2794,"▁수밖에":2795,"00만":2796,"▁품":2797,"시설":2798,"▁기능":2799,"▁연결":2800,"▁사람은":2801,"▁차례":2802,"▁높아":2803,"▁대상으로":2804,"▁가져":2805,"▁공부":2806,"▁소득":2807,"복지":2808,"▁중단":2809,"▁진출":2810,"▁달리":2811,"▁진보":2812,")과":2813,"m2":2814,"주시":2815,"▁대화":2816,"▁전혀":2817,"▁줄어":2818,"임을":2819,"▁10월":2820,"▁처리":2821,"▁운동":2822,"▁땅":2823,"위가":2824,"’가":2825,"▁0.":2826,"▁반영":2827,"▁스마트":2828,"님이":2829,"자들은":2830,"▁공급":2831,"▁영향을":2832,"안이":2833,"음을":2834,"▁제시":2835,"▁제외":2836,"▁198":2837,"▁옆":2838,"▁당선":2839,"▁갈등":2840,"자기":2841,"자들의":2842,"혁신":2843,"▁하겠":2844,"▁무엇":2845,"대한":2846,"▁그대로":2847,"▁미국의":2848,"▁은행":2849,"▁깊":2850,"식이":2851,"▁되지":2852,"▁했던":2853,"▁음악":2854,"▁있지":2855,"▁거부":2856,"▁협력":2857,"자리":2858,"까.\r\n":2859,"’(":2860,"▁똑":2861,"▁숙":2862,"일까지":2863,"점이":2864,"▁1만":2865,")와":2866,"공사":2867,"▁시스템":2868,"▁쓸":2869,"국민":2870,"▁대책":2871,"▁지속":2872,"▁경기도":2873,"▁상품":2874,"▁썰":2875,"반도":2876,"▁수입":2877,"▁개혁":2878,"물이":2879,"에스":2880,"▁필요하":2881,"▁충분":2882,"▁걔":2883,"▁좌":2884,"▁노력":2885,"▁종합":2886,".3":2887,"▁쉬":2888,"드컵":2889,"사진":2890,"야\r\n":2891,"▁바람":2892,"▁늦":2893,"▁정당":2894,"▁고객":2895,"분이":2896,"7%":2897,"▁사태":2898,"▁보통":2899,"▁거래":2900,"▁불법":2901,"는지":2902,"소를":2903,"▁이렇게\r\n":2904,"▁야당":2905,"50":2906,"▁흐":2907,"소득":2908,"▁자료":2909,"▁제출":2910,"▁단체":2911,"▁뜨":2912,"▁잔":2913,"▁캠":2914,"너지":2915,"량을":2916,"▁소개":2917,"▁최종":2918,"▁방향":2919,"▁지금까지":2920,"▁원내대표":2921,"요?":2922,"▁블":2923,"치가":2924,"▁전시":2925,"▁인도":2926,"▁여야":2927,"▁아니냐":2928,"▁반발":2929,"▁설립":2930,"▁옷":2931,"고를":2932,"▁나도":2933,"고요.\r\n":2934,"운드":2935,"19":2936,"▁역할을":2937,"▁○":2938,"▁납":2939,"통신":2940,"’으로":2941,"만\r\n":2942,"포츠":2943,"▁오른":2944,"다”는":2945,"▁엔":2946,"▁헤":2947,"▁제주":2948,"▁올림픽":2949,"었던":2950,"이란":2951,"▁이천":2952,"▁어머니":2953,"▁2월":2954,"▁고용":2955,"▁불가":2956,"4%":2957,"했을":2958,"하기도":2959,"▁한다고":2960,"▁자동차":2961,"▁성과":2962,"▁헌법":2963,"▁셈":2964,"연금":2965,"▁한나라":2966,"▁실시":2967,"▁토론":2968,"네\r\n":2969,"▁받을":2970,"▁본격":2971,"▁얼굴":2972,"단을":2973,"생활":2974,"운동":2975,"치고":2976,"▁하시":2977,"사로":2978,"▁주목":2979,"▁제한":2980,"▁좋겠":2981,"▁2009년":2982,"▁중에":2983,"30":2984,"어도":2985,"▁먹고":2986,"·2":2987,"부에":2988,"▁전화":2989,"▁보호":2990,"▁2010년":2991,"▁선언":2992,"▁글로벌":2993,"▁있지만":2994,"▁하면서":2995,"▁만드는":2996,"▁저도":2997,"▁어~\r\n":2998,"▁혼자":2999,"▁M":3000,"어요\r\n":3001,"▁사망":3002,"▁수석":3003,"▁지금은":3004,"▁과학":3005,"▁LG":3006,"스럽":3007,"▁이건":3008,"▁F":3009,"▁히":3010,"▁예를":3011,"▁남아":3012,"▁니":3013,"경찰":3014,"▁그가":3015,"▁대기업":3016,"감이":3017,"서울":3018,"0년대":3019,"’라는":3020,"▁암":3021,"수록":3022,"▁던":3023,"부의":3024,"우리":3025,"▁대변":3026,"▁대출":3027,"▁주로":3028,"▁참가":3029,"▁행정":3030,"▁언어":3031,"▁뿌":3032,"▁싫":3033,"야.\r\n":3034,"▁하기":3035,"▁시각":3036,"▁분명":3037,"▁그~\r\n":3038,"더라고\r\n":3039,"▁졸업":3040,"▁낸":3041,"▁2007년":3042,"▁누구":3043,"▁칠":3044,"수는":3045,"자와":3046,"▁2년":3047,"▁구속":3048,"로는":3049,"사에":3050,"▁전환":3051,"▁사람들":3052,"구가":3053,"세계":3054,"인데\r\n":3055,"▁지하":3056,"10":3057,"▁판결":3058,"▁11월":3059,"명은":3060,"였던":3061,"주택":3062,"▁이명박":3063,"▁예술":3064,"▁적이":3065,"▁양념":3066,"상에":3067,"▁이들은":3068,"▁지켜":3069,"▁수익":3070,"들이\r\n":3071,"▁노래":3072,"▁앞두고":3073,"1%":3074,"▁촉":3075,"나\r\n":3076,"스크":3077,"▁기획":3078,"▁인권":3079,"▁재정":3080,"▁후보는":3081,"▁취업":3082,"북한":3083,"▁거는":3084,"▁불과":3085,"▁쉽게":3086,"원으로":3087,"하거나":3088,"디어":3089,"중앙":3090,"▁모습을":3091,"▁냉":3092,"▁짜":3093,"▁아니다.\r\n":3094,"▁국무":3095,"▁최소":3096,"▁근무":3097,"▁담당":3098,"▁주장했다.\r\n":3099,"▁밑":3100,"구\r\n":3101,"▁쏟":3102,"▁푸":3103,"국은":3104,"▁N":3105,"노동":3106,"실을":3107,"▁반응":3108,"▁그렇죠.\r\n":3109,"▁변화":3110,"▁빌":3111,"▁이하":3112,"▁나왔다.\r\n":3113,"▁의료":3114,"▁이동":3115,"▁전달":3116,"▁대한민":3117,"▁입장":3118,"▁망":3119,"▁이걸":3120,"▁강조했다.\r\n":3121,"▁컨":3122,"▁아프":3123,"▁팬":3124,"▁제도":3125,"▁한국의":3126,"▁어려운":3127,".6":3128,"▁훈련":3129,"환경":3130,"▁장애":3131,"▁청소년":3132,"▁G":3133,"내는":3134,"프로":3135,"▁문재인":3136,"▁2012년":3137,"가지고\r\n":3138,"▁상당히":3139,"라마":3140,"▁있는\r\n":3141,"▁군사":3142,"관을":3143,"▁안보":3144,"▁대법":3145,"▁거쳐":3146,"▁바뀌":3147,"▁곧":3148,"니깐":3149,"적을":3150,"▁이끌":3151,"▁약속":3152,"▁검찰은":3153,"네요.\r\n":3154,"▁아빠":3155,"▁끼":3156,"▁썼":3157,"거래":3158,"트를":3159,"▁더욱":3160,"▁뭘":3161,"겼다.\r\n":3162,"동산":3163,"스러":3164,"▁각종":3165,"심을":3166,"▁범죄":3167,"보는":3168,"▁아니면":3169,"▁여기에":3170,"▁관심을":3171,"▁어린이":3172,"▁전통":3173,"▁보도했다.\r\n":3174,"갔다.\r\n":3175,"약을":3176,"▁1000":3177,"▁가진":3178,"▁여전히":3179,"▁어어\r\n":3180,"▁건물":3181,"▁누가":3182,"▁꺼":3183,"르고":3184,"지로":3185,"차를":3186,"▁중인":3187,"▁축구":3188,"회에서":3189,"▁그림":3190,"▁지급":3191,"▁유엔":3192,"▁작업":3193,"▁작은":3194,")로":3195,"▁궁":3196,"량이":3197,"보험":3198,"▁챙":3199,"게\r\n":3200,"▁주고":3201,"라고\r\n":3202,"2%":3203,"▁그룹":3204,"▁가정":3205,"▁공간":3206,"▁관한":3207,"▁게\r\n":3208,"▁확정":3209,"(7":3210,"분을":3211,"▁단계":3212,"▁2011년":3213,"▁탄핵":3214,"▁칼":3215,"려는":3216,"▁것처럼":3217,"▁주도":3218,"’은":3219,"기의":3220,"월호":3221,"▁고위":3222,"시켜":3223,"▁강남":3224,"▁못했다.\r\n":3225,"▁컴":3226,"▁제안":3227,"▁조성":3228,"▁느끼":3229,"▁솔":3230,"▁앉":3231,"▁매우":3232,"▁실패":3233,"▁언제":3234,"으니까\r\n":3235,"▁강력":3236,".8":3237,".9":3238,"하신":3239,"▁거\r\n":3240,"▁당연":3241,"▁형태":3242,"▁시험":3243,"▁인수":3244,"▁똑같":3245,"도시":3246,"명으로":3247,"카드":3248,"▁바꾸":3249,"이어":3250,"▁하는데\r\n":3251,"▁여행":3252,"▁들었":3253,"규모":3254,"금이":3255,"으면서":3256,"▁인상":3257,"▁최초":3258,"▁행복":3259,"▁희망":3260,"▁한나라당":3261,"▁B":3262,"▁억":3263,"회는":3264,"▁영어":3265,"▁투표":3266,"▁압박":3267,"▁중심으로":3268,"든지":3269,"▁대구":3270,"▁되는데\r\n":3271,"▁점을":3272,"▁중소기업":3273,"선수":3274,"▁전쟁":3275,"리스":3276,"우는":3277,"▁미리":3278,"▁현장":3279,"▁나타났다.\r\n":3280,"격을":3281,"구요\r\n":3282,"▁보험":3283,"▁회복":3284,"(약":3285,"▁P":3286,"▁덕":3287,"▁즉":3288,"▁하셨":3289,"▁북한이":3290,"▁이유로":3291,"▁줘":3292,"▁아침":3293,"▁작가":3294,"▁밝혀":3295,"▁없다”고":3296,"▁회장":3297,"▁나오는":3298,"▁여러분":3299,"▁있겠":3300,"▁에스":3301,"하겠다는":3302,"▁됩니다.\r\n":3303,"차례":3304,"하다는":3305,"▁이루":3306,"▁비해":3307,"▁신고":3308,"▁60":3309,"▁잃":3310,"어?\r\n":3311,"중국":3312,"▁\"이":3313,"▁브랜드":3314,"▁나중에":3315,"▁아니라\r\n":3316,"경을":3317,"사와":3318,"▁한다":3319,")에서":3320,"네.\r\n":3321,"는데요.\r\n":3322,"리로":3323,"하라":3324,"▁교통":3325,"▁문제는":3326,"▁것이라는":3327,"대전":3328,"▁남편":3329,"(S":3330,"▁청년":3331,"▁사실을":3332,"▁처음으로":3333,"▁쇼":3334,"주고":3335,"▁때도":3336,"▁않다.\r\n":3337,"▁방안을":3338,"▁통화":3339,"▁명이":3340,"▁겁니다.\r\n":3341,"▁볶":3342,"율은":3343,"▁“지":3344,"▁원을":3345,"▁외국인":3346,"(현":3347,"▁짓":3348,"리기":3349,"일보":3350,"▁국회의":3351,")씨는":3352,"도는":3353,"반기":3354,"응\r\n":3355,"▁서울대":3356,"▁타고":3357,"▁대해서는":3358,"▁뉴욕":3359,"요일":3360,"▁나선":3361,"▁등장":3362,"▁않겠":3363,"▁상대로":3364,"▁장기":3365,"▁지적했다.\r\n":3366,"▁스마트폰":3367,"▁루":3368,"▁빚":3369,"▁의원이":3370,"▁항상":3371,"재를":3372,"▁전해":3373,"▁국립":3374,"▁의무":3375,"▁열리는":3376,"무현":3377,"한다고":3378,"▁정확":3379,"00여":3380,"▁후보가":3381,"▁이번에":3382,"▁곤":3383,"한다":3384,"▁아아\r\n":3385,"▁가야":3386,"▁뭔가":3387,"▁감소":3388,"거든요\r\n":3389,"▁거기서":3390,"▁이야기를":3391,"회견":3392,"▁달러":3393,"▁음식":3394,"씨의":3395,"▁자기가":3396,"▁영업":3397,"▁필요가":3398,"▁상황에서":3399,"▁흘":3400,"▁기다":3401,"▁연속":3402,"▁건축":3403,"▁아들":3404,"▁등록":3405,"▁순간":3406,"▁혐의로":3407,"▁멀":3408,"▁다.\r\n":3409,"대\r\n":3410,"▁스트":3411,"▁배치":3412,"▁사업을":3413,"▁식으로":3414,"▁광고":3415,"▁그것도":3416,"부모":3417,"이자":3418,"▁대북":3419,"▁불안":3420,"▁사람들은":3421,"▁노조":3422,"▁15일":3423,")'":3424,"며,":3425,"위로":3426,"하시":3427,"하지만":3428,"▁3년":3429,"▁까":3430,"▁슬":3431,"스터":3432,"▁소송":3433,"▁되고\r\n":3434,"▁뭐냐":3435,"▁그냥\r\n":3436,"으로는":3437,"▁“(":3438,"▁택":3439,"스의":3440,"▁보유":3441,"▁기초":3442,"▁안정":3443,"▁방안":3444,"▁들여":3445,"▁거야\r\n":3446,"▁기관":3447,"▁회장은":3448,"하다고":3449,"▁이달":3450,"▁부동산":3451,"▁집에":3452,"▁결과를":3453,"▁나머":3454,"00만원":3455,"▁평화":3456,"▁치료":3457,"▁규정":3458,"▁갑자기":3459,"(C":3460,"▁아닙":3461,"▁아.\r\n":3462,"▁위반":3463,"▁심각":3464,"▁씨가":3465,"▁소비자":3466,"려면":3467,"문이":3468,"▁원칙":3469,"▁출전":3470,"▁SK":3471,"▁깔":3472,"▁아예":3473,"▁31":3474,"▁개최":3475,"▁언급":3476,"▁절반":3477,"▁광주":3478,"▁옛날":3479,"▁쏟아":3480,"5000":3481,"리카":3482,"만이":3483,"사고":3484,"품을":3485,"▁수술":3486,"▁완전히":3487,"다.”\r\n":3488,"성과":3489,"▁재산":3490,"▁했는데\r\n":3491,"▁기자회견":3492,"심히":3493,"▁사라":3494,"▁“그":3495,"▁다만":3496,"▁국토":3497,"▁불러":3498,"’고":3499,"▁시설":3500,"성화":3501,"오는":3502,"▁5일":3503,"▁맞는":3504,"▁2013년":3505,"▁정치적":3506,"▁흥":3507,"▁수는":3508,"▁못하고":3509,"▁중국의":3510,"▁말씀드":3511,"▁쪼끔":3512,"▁혜":3513,"▁의사":3514,"▁경찰은":3515,"▁끌어":3516,"▁염":3517,"▁탓":3518,"무리":3519,"▁경남":3520,"▁모델":3521,"▁늘어":3522,"▁덧":3523,"되면서":3524,"안전":3525,"에요.\r\n":3526,"▁보니까":3527,"▁메이":3528,"국제":3529,"▁전자":3530,"▁많다.\r\n":3531,"▁동아":3532,"▁11일":3533,"▁걱정":3534,"드시":3535,"레스":3536,"지의":3537,"▁나올":3538,"▁신뢰":3539,"면서도":3540,"▁6일":3541,"▁둘러":3542,"▁논란이":3543,"▁겨울":3544,"▁쌓":3545,"철수":3546,"▁가르":3547,"▁가치":3548,"▁조건":3549,"▁생각해":3550,"▁출연":3551,"▁있어야":3552,"다고\r\n":3553,"단이":3554,"평가":3555,"▁금지":3556,"▁같애요.\r\n":3557,"계가":3558,"일이":3559,"퓨터":3560,"▁부인":3561,"▁없다는":3562,"▁드라마":3563,"▁독립":3564,"▁상황이":3565,"▁비슷한":3566,"규직":3567,"있는":3568,"▁거기에":3569,"▁중간":3570,"잖아요\r\n":3571,"▁몰라":3572,"▁의견을":3573,"사에서":3574,"역을":3575,"인들이":3576,"▁자녀":3577,"▁부회":3578,"▁사회적":3579,".5%":3580,"투자":3581,"▁별로":3582,"▁16일":3583,"▁혁신":3584,"국가":3585,"법을":3586,"포인트":3587,"▁시도":3588,"▁경우가":3589,"▁27일":3590,"병원":3591,"셔도":3592,"▁해석":3593,"▁소통":3594,"에는\r\n":3595,"본부":3596,"▁그쵸":3597,"▁하는데":3598,"▁만약":3599,"▁재미":3600,"▁맞춰":3601,"\"이라며":3602,"대책":3603,"▁1일":3604,"▁것이라고":3605,"▁만난":3606,")\r\n":3607,"했고":3608,"▁부정":3609,"▁들고":3610,"▁계열":3611,"▁출마":3612,"▁맛이":3613,"세가":3614,"조선":3615,"▁보기":3616,"▁세월호":3617,"▁분이":3618,"▁존재":3619,"더니\r\n":3620,"이터":3621,"▁없을":3622,"▁바꿔":3623,"▁바이":3624,"▁쓰는":3625,"▁월드컵":3626,"롭게":3627,"▁남성":3628,"▁끝나":3629,"받은":3630,"인으로":3631,"▁어제":3632,"▁미술":3633,"▁그렇습니다.\r\n":3634,"▁7일":3635,"▁카드":3636,"▁셈이다.\r\n":3637,"기구":3638,"▁어쨌":3639,"▁처벌":3640,"연구소":3641,"▁뇌":3642,"▁쿠":3643,"으니까":3644,"▁2차":3645,"▁동시에":3646,"분의":3647,"율을":3648,"▁지키":3649,"▁해주":3650,"▁마찬":3651,"▁있어서":3652,"▁절대":3653,"▁봄":3654,"가량":3655,"▁것”이라며":3656,"▁없었다.\r\n":3657,"▁있었던":3658,"▁자주":3659,"▁저녁":3660,"▁분들이":3661,"▁인제\r\n":3662,"▁그거는":3663,"▁나오고":3664,"▁이름을":3665,"~2":3666,"’,":3667,"▁넓":3668,"▁맥":3669,"건설":3670,"▁지시":3671,"▁10일":3672,"▁맺":3673,"로,":3674,"지면서":3675,"▁사상":3676,"▁신문":3677,"▁강원":3678,"▁할머니":3679,"▁시간을":3680,"▁측은":3681,"▁22일":3682,"아야":3683,"움을":3684,"의회":3685,"장관":3686,"해도":3687,"▁전날":3688,"▁기소":3689,"▁근로":3690,"▁먹는":3691,"▁변호사":3692,"가루":3693,"의\r\n":3694,"펀드":3695,"▁일정":3696,"▁좀\r\n":3697,"▁10년":3698,"▁12일":3699,"▁슈":3700,"별로":3701,"가족":3702,"로운":3703,"번째":3704,"서관":3705,"전이":3706,"▁교사":3707,"▁파악":3708,"▁빠져":3709,"▁28일":3710,"(I":3711,"점으로":3712,"▁한화":3713,"▁모양":3714,"▁20일":3715,"▁9일":3716,"▁힘을":3717,"률이":3718,"웠다.\r\n":3719,"▁이케":3720,"▁기념":3721,"▁또\r\n":3722,"▁허용":3723,"문학":3724,"▁삼십":3725,"▁그렇죠\r\n":3726,"▁섞":3727,"들\r\n":3728,"주일":3729,"▁열심히":3730,"▁행동":3731,"▁완성":3732,"▁연장":3733,"▁근까":3734,"▁추천":3735,"▁법무":3736,"▁8일":3737,"▁채용":3738,"▁그거를":3739,"▁베이":3740,"▁13일":3741,"▁14일":3742,"▁교과서":3743,"단의":3744,"통합":3745,"▁어.\r\n":3746,"▁것과":3747,"▁비중":3748,"▁문학":3749,"▁그러고":3750,"▁대표팀":3751,"▁부분이":3752,"▁이거는":3753,"▁대한민국":3754,"들한테":3755,"수석":3756,"았던":3757,"이면":3758,"▁유치":3759,"▁물어":3760,"시키는":3761,"\"고":3762,"▁줬":3763,"▁직후":3764,"단은":3765,"안보":3766,"▁3일":3767,"▁올려":3768,"▁스포츠":3769,"▁뛰어":3770,"수로":3771,"올림픽":3772,"▁이곳":3773,"▁조정":3774,"▁넣으":3775,"거든요?\r\n":3776,"▁든":3777,"수사":3778,"스(":3779,"스코":3780,"▁전기":3781,"▁소설":3782,"▁들어서":3783,"▁먹을":3784,"▁병원":3785,"▁25일":3786,"어요":3787,"▁아래":3788,"▁미사일":3789,"▁현지":3790,"▁입장을":3791,"에다":3792,"자,":3793,"▁나섰다.\r\n":3794,"▁선보":3795,"▁관련된":3796,"▁늘어나":3797,"▁자신이":3798,"▁디자인":3799,"▁덧붙":3800,"조건":3801,"▁보니":3802,"▁분양":3803,"구의":3804,"조정":3805,"짜리":3806,"차가":3807,"▁시청":3808,"▁안녕":3809,"▁화장":3810,"▁밖에":3811,"상의":3812,"세대":3813,"협회":3814,"▁것에":3815,"까지는":3816,"▁재료":3817,"▁보면,":3818,"▁도움이":3819,"▁D":3820,"당은":3821,"린다.\r\n":3822,"▁근거":3823,"다른":3824,"아무":3825,"▁넘는":3826,"▁않는다.\r\n":3827,"▁비롯해":3828,"리의":3829,"▁두산":3830,"▁따로":3831,"▁포기":3832,"▁사실이":3833,"▁속에":3834,"교육청":3835,"▁등은":3836,"▁입학":3837,"▁앞에":3838,"▁그렇지":3839,"▁197":3840,"▁취임":3841,"▁교수님":3842,"▁사퇴":3843,"▁정리":3844,"▁말고":3845,"▁되어":3846,"▁했는데":3847,"(19":3848,"억원을":3849,"▁어쨌든":3850,"▁수요":3851,"▁확산":3852,"▁검사":3853,"▁투입":3854,")도":3855,"▁뒷":3856,"▁혈":3857,"명에":3858,"프트":3859,"한다”고":3860,"▁이들":3861,"▁가고":3862,"▁5년":3863,"▁자체가":3864,"비가":3865,"순실":3866,"자에":3867,"▁내세":3868,"▁여름":3869,"▁컴퓨터":3870,"께서":3871,"장님":3872,"종의":3873,"▁기름":3874,"▁유리":3875,"▁총선":3876,"하겠다고":3877,"대강":3878,"성장":3879,"▁않으면":3880,"▁이상의":3881,"▁26일":3882,"▁■":3883,"▁밖":3884,"▁짧":3885,"수도":3886,"일본":3887,"▁있으면":3888,"▁개입":3889,"▁못하는":3890,"▁상황을":3891,"▁사이에":3892,"▁접근":3893,"▁17일":3894,"도에":3895,"명,":3896,"▁대중":3897,"▁사과":3898,"▁2014년":3899,"이라도":3900,"개의":3901,"까?\r\n":3902,"나요?\r\n":3903,"항공":3904,"▁자꾸":3905,"▁고추":3906,"▁노무현":3907,"▁21일":3908,"▁충분히":3909,"수의":3910,"▁이래":3911,"▁자료를":3912,"▁선진":3913,"▁반드시":3914,"▁활동을":3915,"▁돼요.\r\n":3916,"▁는":3917,"▁죄":3918,"도의":3919,"에만":3920,"진을":3921,"▁한반도":3922,"하겠다”고":3923,"▁내용이":3924,"”라며":3925,"원,":3926,"▁시대":3927,"▁인근":3928,"▁안타":3929,"▁마무리":3930,"▁통신":3931,"▁차량":3932,"▁증거":3933,"’이라는":3934,"개혁":3935,"등급":3936,"어요?\r\n":3937,"피언":3938,"▁선고":3939,"▁규제":3940,"▁항공":3941,"▁여기서":3942,"▁왜냐면":3943,"▁류":3944,"전문":3945,"▁나눠":3946,"▁책임을":3947,"▁불구":3948,"▁출범":3949,"▁잡아":3950,"성에":3951,"증을":3952,"▁생각하는":3953,"▁가능한":3954,"▁쪽은":3955,"\"라고":3956,"▁둔":3957,"조차":3958,"했습니다.\r\n":3959,"▁아베":3960,"▁자리를":3961,"▁조사를":3962,"▁비행":3963,"▁바라":3964,"▁매년":3965,"▁쪽으로":3966,"▁마찬가지":3967,"기고":3968,"챔피언":3969,"▁2일":3970,"▁유일":3971,"▁김치":3972,"▁차이가":3973,"▁회담":3974,"▁닭":3975,"군요.\r\n":3976,"놓고":3977,"안에":3978,"이션":3979,"텐츠":3980,"▁1위":3981,"▁나이":3982,"▁위협":3983,"▁도전":3984,"다\"는":3985,"▁말씀을":3986,"·중":3987,"계의":3988,"리트":3989,"면을":3990,"전에서":3991,"▁주식":3992,"▁대표가":3993,"▁덜":3994,"하셨":3995,"▁보였다.\r\n":3996,"000만":3997,"000만원":3998,"▁메시":3999,"▁30일":4000,"▁주인":4001,"▁일본의":4002,"▁홍보":4003,"▁최고의":4004,"▁아닌가":4005,"▁듣고":4006,"▁긍":4007,"부와":4008,"이익":4009,"▁보장":4010,"▁자격":4011,"▁사람을":4012,"▁특검":4013,"▁집에서":4014,"▁밝힌":4015,"▁2006년":4016,"▁24일":4017,"'의":4018,"▁TV":4019,"계획":4020,"▁바탕":4021,"▁4일":4022,"▁밝히":4023,"▁매일":4024,"▁시작했다.\r\n":4025,"하려는":4026,"12":4027,"아이":4028,"▁대체":4029,"▁지정":4030,"▁일어나":4031,"▁제재":4032,"▁단일":4033,"▁기준으로":4034,".5":4035,"BS":4036,"경영":4037,"기와":4038,"세요\r\n":4039,"▁게임":4040,"▁못해":4041,"▁준비를":4042,"▁레이":4043,"대에서":4044,"해진":4045,"▁나무":4046,"▁특수":4047,"▁살짝":4048,"▁친박":4049,"▁벌써":4050,"▁폐지":4051,"기록":4052,"시킨":4053,"실험":4054,"폭력":4055,"▁그치":4056,"▁자율":4057,"▁속에서":4058,"▁골프":4059,"▁18일":4060,"관광":4061,"장인":4062,"점에서":4063,"▁있고,":4064,"▁연간":4065,"▁음~":4066,"▁19일":4067,"▁임명":4068,"▁왔다.\r\n":4069,"단에":4070,"론을":4071,"어요.":4072,"트남":4073,"▁이와":4074,"▁단순":4075,"▁규모의":4076,"▁나머지":4077,"자금":4078,"지면":4079,"체육":4080,"으로부터":4081,"▁비상":4082,"상은":4083,"성은":4084,"텔레":4085,"협력":4086,"▁그만":4087,"▁보면\r\n":4088,"▁와서":4089,"▁울산":4090,"(K":4091,"권의":4092,"나무":4093,"야구":4094,"재판":4095,"▁마을":4096,"▁출시":4097,"▁법률":4098,"▁23일":4099,"▁덧붙였다.\r\n":4100,"서비스":4101,"셔야":4102,"해온":4103,"▁부문":4104,"▁구축":4105,"▁올랐다.\r\n":4106,"▁도로":4107,"▁발표했다.\r\n":4108,"cm":4109,"▁E":4110,"르게":4111,"회에":4112,"▁한다\"고":4113,"▁최저":4114,"▁같아요.\r\n":4115,"'이":4116,"▁액":4117,"번에":4118,"없는":4119,"▁고교":4120,"▁개념":4121,"▁동의":4122,"▁노인":4123,"▁추정":4124,"▁관심이":4125,".3%":4126,"야?\r\n":4127,"▁보이는":4128,"▁위안":4129,"▁만한":4130,"▁문을":4131,"▁확실":4132,"▁취소":4133,"▁협의":4134,"▁뜻을":4135,"과는":4136,"조를":4137,"조합":4138,"▁주말":4139,"▁말하는":4140,"▁지금\r\n":4141,"▁출발":4142,"겠다":4143,"의원":4144,"정당":4145,"▁“대":4146,"▁에너지":4147,"▁커피":4148,"▁장관은":4149,"▁쉽지":4150,"데.\r\n":4151,"해를":4152,"▁1억":4153,"▁것.\r\n":4154,"▁기반":4155,"▁전문가들은":4156,"▁혹시":4157,"겠다고":4158,"미국":4159,"시켰":4160,"자에게":4161,"▁안철수":4162,"▁김정":4163,"▁간단":4164,"▁온라인":4165,"▁통한":4166,"▁차별":4167,"▁창업":4168,"▁평가를":4169,"▁방식으로":4170,"'에":4171,"BC":4172,"가고":4173,"릏게":4174,"분기":4175,"▁예방":4176,"▁위에":4177,"▁뒤에":4178,"▁측면":4179,"▁안녕하":4180,".4%":4181,"0여":4182,"11":4183,"’에서":4184,"일을":4185,"▁새정치":4186,"▁돌려":4187,"▁방침이다.\r\n":4188,"까\r\n":4189,"받는":4190,"후보":4191,"▁자산":4192,"▁정보를":4193,"▁혜택":4194,".7%":4195,"제는":4196,"티브":4197,"했으나":4198,"▁1차":4199,"▁응.\r\n":4200,"아무개":4201,"▁뮤":4202,"▁공천":4203,"▁신경":4204,"▁무기":4205,"▁그러면서":4206,"▁강한":4207,"▁2015년":4208,"▁뉴스":4209,"▁굴":4210,"▁싱":4211,"페인":4212,"학을":4213,"▁발표한":4214,"이었던":4215,"er":4216,"▁굳":4217,"▁득":4218,"디오":4219,"▁개막":4220,"▁그러니까\r\n":4221,"▁도와":4222,"▁협상":4223,"거운":4224,"▁없다고":4225,"▁집행":4226,"▁명예":4227,"▁심리":4228,"(현지":4229,"▁벤":4230,"리즈":4231,"승을":4232,"시고\r\n":4233,"신을":4234,"▁가슴":4235,"▁때까지":4236,"▁연기":4237,"다음":4238,"▁같습니다.\r\n":4239,"▁국정원":4240,"▁29일":4241,"라면":4242,"▁대규모":4243,"▁보건":4244,"▁일자리":4245,"▁김영":4246,"▁앞에서":4247,"민주당":4248,"▁삭":4249,"▁튀":4250,"권이":4251,"실에서":4252,"주년":4253,"▁수상":4254,"▁보니까\r\n":4255,"▁당국":4256,"▁올리":4257,"▁따라서":4258,"▁걷":4259,"▁겸":4260,"▁괴":4261,"소가":4262,"형을":4263,"▁이재":4264,"▁개헌":4265,"▁아니고":4266,"▁평소":4267,"▁권력":4268,"▁테러":4269,"▁아버지":4270,".6%":4271,"▁런":4272,"▁휘":4273,"▁하락":4274,"▁수업":4275,"▁공약":4276,"▁마이":4277,"는데.\r\n":4278,"▁재밌":4279,"▁더불":4280,"▁된다고":4281,"▁쳐":4282,"센트":4283,"▁아내":4284,"▁마늘":4285,"▁책을":4286,"▁프로젝":4287,"자치":4288,"진이":4289,"▁받지":4290,"▁생각하":4291,"▁떠나":4292,"노조":4293,"▁자살":4294,"▁안팎":4295,"▁냄":4296,"▁탐":4297,"금은":4298,"위의":4299,"준다.\r\n":4300,"▁기부":4301,"▁거를":4302,"▁제목":4303,"▁고기":4304,"▁구매":4305,"▁받아들":4306,"▁하겠습니다.\r\n":4307,"다”라고":4308,"▁운전":4309,"▁비롯한":4310,"계약":4311,"당을":4312,"▁사전":4313,"▁인물":4314,"▁인생":4315,"▁중이다.\r\n":4316,"▁유통":4317,"▁통해서":4318,"▁아니고\r\n":4319,"▁집단":4320,"▁명의":4321,"▁높이":4322,"▁낮은":4323,"축구":4324,"▁불편":4325,"▁성적":4326,"'로":4327,"40":4328,"▁낳":4329,"주를":4330,"▁인기":4331,"▁시작한":4332,"▁꾸준":4333,"▁케":4334,"기간":4335,"니아":4336,"서의":4337,"처를":4338,"▁‘이":4339,"안은":4340,"위기":4341,"해주":4342,"했다":4343,"▁원전":4344,"▁된다":4345,"▁텐":4346,"▁챔피언":4347,"데요.\r\n":4348,"영화":4349,"했다\"고":4350,"▁회원":4351,"▁정상회담":4352,"▁옮겨":4353,"▁분명히":4354,"▁있습니다\r\n":4355,"▁관객":4356,"▁교체":4357,"▁실험":4358,"▁총리는":4359,"▁넣고":4360,"▁힘든":4361,"▁호텔":4362,"▁돌아가":4363,"▁떨어진":4364,"▁옥":4365,"마을":4366,"만을":4367,"스탄":4368,"우고":4369,"▁이제는":4370,"▁신용":4371,"▁진술":4372,"▁쓰고":4373,"▁길을":4374,"▁포함해":4375,"▁갔다":4376,"▁흔들":4377,"감독":4378,"연맹":4379,"장도":4380,"적이고":4381,"▁전면":4382,"▁전반":4383,"▁오늘은":4384,"래도":4385,"하다”고":4386,"했다”며":4387,"▁지구":4388,"▁지배":4389,"▁수원":4390,"▁어우":4391,"▁인식":4392,"▁소금":4393,"▁학부모":4394,"▁특정":4395,"▁것은\r\n":4396,"▁잠깐":4397,"▁꽃":4398,"고기":4399,"군은":4400,"씨를":4401,"▁이들이":4402,"▁아.":4403,"▁가면":4404,"▁2005년":4405,"▁베트남":4406,"▁찬성":4407,"▁더불어":4408,"안타":4409,"어가":4410,"해양":4411,"▁하이":4412,"▁제조":4413,"▁많았":4414,"▁프리":4415,"▁점에서":4416,"▁―":4417,"시를":4418,"으면\r\n":4419,"인과":4420,"전쟁":4421,"지?\r\n":4422,"▁이틀":4423,"▁아름":4424,"▁거론":4425,"▁최순실":4426,"▁늘어난":4427,"A)":4428,"▁섬":4429,"▁경선":4430,"▁근데\r\n":4431,"▁걸로":4432,"▁버스":4433,"▁수도권":4434,"▁벗어나":4435,".1%":4436,"건을":4437,"렀다.\r\n":4438,"수한":4439,"▁내는":4440,"▁없다":4441,"▁연락":4442,"▁발사":4443,"▁문제에":4444,"▁앉아":4445,"명과":4446,"시대":4447,"정에":4448,"▁때부터":4449,"▁여부를":4450,"▁알았":4451,"하게\r\n":4452,"▁대통령과":4453,"▁현대차":4454,"▁가까운":4455,"▁이른바":4456,"대.\r\n":4457,"으니":4458,"▁일으":4459,"▁등에서":4460,"▁상담":4461,"▁소리":4462,"▁매각":4463,"▁찾는":4464,"▁여론조사":4465,"만의":4466,"시민":4467,"이던":4468,"▁이란":4469,"▁대전":4470,"▁일주일":4471,"▁내고":4472,"▁때마다":4473,"▁했습니다.\r\n":4474,"▁홀":4475,"로를":4476,"어진":4477,"예술":4478,"지방":4479,"으로써":4480,"▁지휘":4481,"▁국어":4482,"▁발굴":4483,"▁사람의":4484,"▁역대":4485,"▁지적이":4486,"▁폴":4487,"개국":4488,"메달":4489,"▁4년":4490,"▁물을":4491,"▁환자":4492,"도,":4493,"만에":4494,"었습니다.\r\n":4495,"▁개편":4496,"▁한국에":4497,"▁남은":4498,"▁응답":4499,"▁손을":4500,"▁지원을":4501,".9%":4502,"'가":4503,"구는":4504,"동의":4505,"이드":4506,"한\r\n":4507,"▁구입":4508,"▁철저":4509,"▁희생":4510,"▁당연히":4511,"▁◇":4512,"▁균":4513,"▁콩":4514,"같이":4515,"공항":4516,"자동차":4517,"▁시위":4518,"▁공직":4519,"▁부처":4520,"▁무료":4521,"▁강제":4522,"▁이유는":4523,"▁브라":4524,"진은":4525,"▁비난":4526,"▁싶어":4527,"▁삼성전자":4528,"▁봐야":4529,"▁긴급":4530,"▁색깔":4531,"▁메이저":4532,"0만":4533,"보면":4534,"수수":4535,"점은":4536,"▁어어":4537,"▁기회를":4538,"▁비밀":4539,"▁과정을":4540,"▁들어간":4541,"▁중국이":4542,"▁196":4543,"▁가능성을":4544,"▁체험":4545,"▁권한":4546,"▁핵실험":4547,"▁정책을":4548,"▁마음이":4549,"▁▲":4550,"호를":4551,"▁수비":4552,"▁전남":4553,"▁공항":4554,"▁불가능":4555,"(8":4556,")보다":4557,"-1":4558,"▁◆":4559,"력은":4560,"시가":4561,"에이":4562,"지법":4563,"촬영":4564,"▁사장":4565,"▁위기":4566,"▁배경":4567,"▁먹었":4568,"▁담은":4569,"▁분위기":4570,"▁촉구":4571,"▁낼":4572,"▁라고":4573,"▁수용":4574,"▁담아":4575,"기지":4576,"당한":4577,"발전":4578,"범죄":4579,"▁거듭":4580,"▁세종":4581,"▁성격":4582,"▁성향":4583,"▁된다는":4584,"▁끝에":4585,"▁인터뷰에서":4586,"▁돕":4587,"되어":4588,"물관":4589,"주로":4590,"케팅":4591,"▁2만":4592,"▁오십":4593,"▁마치":4594,"▁그러면은":4595,"▁회장이":4596,"▁본인":4597,"▁교육을":4598,"▁길이":4599,"▁구체적인":4600,"▁궁금":4601,"내고":4602,"장애":4603,"증권":4604,"▁이르":4605,"▁초등학교":4606,"▁채택":4607,"▁형사":4608,"▁계획을":4609,"▁사건을":4610,"▁글을":4611,"▁답변":4612,"스러운":4613,"▁/":4614,"▁꼬":4615,"▁센":4616,"나?\r\n":4617,"점에":4618,"▁이익":4619,"으로,":4620,"▁나아":4621,"▁다섯":4622,"▁연극":4623,"▁하는\r\n":4624,"▁끝난":4625,"▁값":4626,"러스":4627,"이지만":4628,"▁이탈":4629,"▁전공":4630,"▁내일":4631,"▁외부":4632,"위원장":4633,"▁승리":4634,"끼리":4635,"액은":4636,"▁대우":4637,"▁전력":4638,"▁“국":4639,"▁자금":4640,"▁10%":4641,"▁누리":4642,".2%":4643,"▁흡":4644,"라\r\n":4645,"억달러":4646,"직을":4647,"▁아동":4648,"▁전용":4649,"▁통계":4650,"▁지금도":4651,"다\"면서":4652,"▁하나의":4653,"▁눈에":4654,"▁삼성전":4655,"▁마음을":4656,"연구원":4657,"▁결국은":4658,"▁머리":4659,"▁관광객":4660,"kg":4661,"▁땐":4662,"▁빛":4663,"미술":4664,"자\r\n":4665,"적이다.\r\n":4666,"질을":4667,"▁대로":4668,"▁그래?\r\n":4669,"▁심사":4670,"자들":4671,"체를":4672,"▁없고":4673,"▁신규":4674,"▁반기":4675,"▁초반":4676,"▁같애.\r\n":4677,"▁국민의당":4678,"(M":4679,"다운":4680,"부장":4681,"지검":4682,"▁3개":4683,"▁모아":4684,"▁도발":4685,"▁경우는":4686,"▁돈이":4687,"▁이유가":4688,"▁쪼금":4689,"▁며":4690,"▁봅":4691,"▁냈다.\r\n":4692,"제도":4693,"지,":4694,"지컬":4695,"▁하다":4696,"▁하니까\r\n":4697,"▁전북":4698,"▁타이":4699,"▁코스":4700,"▁벽":4701,"▁털":4702,"가의":4703,"▁가게":4704,"▁전부":4705,"▁거는\r\n":4706,"▁걸쳐":4707,"in":4708,"게요.\r\n":4709,"군의":4710,"보를":4711,"신이":4712,"여서":4713,"위터":4714,"체가":4715,"화에":4716,"▁사장은":4717,"▁\"그":4718,"▁우리의":4719,"▁바다":4720,"▁한국은":4721,"▁20%":4722,"▁적은":4723,"▁청문":4724,"▁종목":4725,"▁완전":4726,"▁name2":4727,"18":4728,"▁뚜":4729,"시즌":4730,"주가":4731,"▁바른":4732,"▁재벌":4733,"▁열고":4734,"▁활성화":4735,"▁충돌":4736,"국을":4737,"정희":4738,"▁모임":4739,"▁드리":4740,"▁씨의":4741,"세로":4742,"세요":4743,"실에":4744,"업계":4745,"했기":4746,"▁사법":4747,"▁1조":4748,"▁고통":4749,"다”\r\n":4750,"▁소유":4751,"▁연대":4752,"▁좋을":4753,"▁뒤집":4754,"▁본인이":4755,"▁올해는":4756,"▁왼":4757,"▁첨":4758,"단계":4759,"비아":4760,"웨이":4761,"함을":4762,"▁있죠.\r\n":4763,"▁소위":4764,"▁원하는":4765,"▁넘게":4766,"▁애플":4767,"▁가까이":4768,"(A":4769,"200":4770,"무성":4771,"받고":4772,"▁아는":4773,"▁지상":4774,"▁수정":4775,"▁것들이":4776,"▁거리":4777,"▁경북":4778,"▁학습":4779,"들은\r\n":4780,"▁들어오":4781,"▁좋아하는":4782,"▁피해를":4783,"▁비판했다.\r\n":4784,"▁홈런":4785,"게임":4786,"▁아시":4787,"▁작업을":4788,"▁체결":4789,"▁리더":4790,"▁라이":4791,"화된":4792,"▁그를":4793,"▁하면\r\n":4794,"▁부드":4795,"▁영상":4796,"▁머물":4797,"▁적극적으로":4798,"on":4799,"구조":4800,"세기":4801,"정규직":4802,"▁이승":4803,"▁예비":4804,"▁그렇죠":4805,"▁임금":4806,"▁몰아":4807,"▁xxx":4808,"▁서비스를":4809,"▁혹은":4810,".8%":4811,"류를":4812,"아시아":4813,"청은":4814,"총리":4815,"▁나누":4816,"▁자본":4817,"▁50%":4818,"▁실질":4819,"▁바탕으로":4820,"▁꾸준히":4821,"것도":4822,"활동":4823,"▁원자":4824,"▁동생":4825,"▁당장":4826,"▁감안":4827,"▁했지만":4828,"▁설계":4829,"▁임시":4830,"▁주인공":4831,"IA":4832,"관에서":4833,"말로":4834,"표를":4835,"해왔다.\r\n":4836,"▁경고":4837,"▁상임":4838,"▁조합":4839,"▁했을":4840,"▁적지":4841,"▁번역":4842,"▁트위터":4843,"▁홍콩":4844,"▁향후":4845,"▁포함한":4846,"▁으음":4847,"▁효과가":4848,"선이":4849,"심이":4850,"싱턴":4851,"지털":4852,"훼손":4853,"▁차원에서":4854,"▁다음에\r\n":4855,"재로":4856,"지사":4857,"▁정의":4858,"▁자\r\n":4859,"▁위치":4860,"▁대변인은":4861,"or":4862,"▁놨":4863,"교통":4864,"당의":4865,"에다가":4866,"인권":4867,"▁그린":4868,"▁보면은":4869,"▁다가":4870,"▁상징":4871,"▁선두":4872,"까지\r\n":4873,"적으로는":4874,"▁우려가":4875,"▁휴대전":4876,"만으로":4877,"분에":4878,"서가":4879,"이랑":4880,"직원":4881,"해\r\n":4882,"▁나갈":4883,"▁제2":4884,"▁고등학교":4885,"▁결정을":4886,"▁설탕":4887,"▁대해선":4888,"▁피해자":4889,"▁그것이":4890,"▁쌀":4891,"기획":4892,"습니까.\r\n":4893,"▁대단":4894,"▁지식":4895,"▁한미":4896,"▁많았다.\r\n":4897,"▁직업":4898,"▁70":4899,"▁체포":4900,"▁충남":4901,"▁맞아.\r\n":4902,"▁기록했다.\r\n":4903,"▁위원장은":4904,"▁줄어들":4905,"60":4906,"▁짐":4907,"란드":4908,"성의":4909,"여야":4910,"위권":4911,"져야":4912,"지게":4913,"▁1인":4914,"▁공유":4915,"▁관측":4916,"▁도착":4917,"▁장면":4918,"▁후반":4919,"▁과연":4920,"▁설득":4921,"▁에이":4922,"▁이거를":4923,"▁대해서도":4924,"▁전해졌다.\r\n":4925,"▁U":4926,"▁흑":4927,"겠다”고":4928,"지기":4929,"하나":4930,"▁아우":4931,"▁노력을":4932,"▁새벽":4933,"000여":4934,"▁복귀":4935,"▁완화":4936,"▁느껴":4937,"▁잇따":4938,"(이":4939,"▁냈":4940,"▁콜":4941,"▁촬영":4942,"명한":4943,"버스":4944,"액을":4945,"었는데\r\n":4946,"우스":4947,"전거":4948,"했는데":4949,"▁물러":4950,"▁창출":4951,"▁움직임":4952,"▁솔직":4953,"(F":4954,"(N":4955,"15":4956,"▁•":4957,"▁잊":4958,"라엘":4959,"아버":4960,"전략":4961,"했지만,":4962,"▁자원":4963,"▁또한":4964,"▁민족":4965,"만원을":4966,"(20":4967,"▁능력":4968,"·미":4969,"가.\r\n":4970,"개로":4971,"슬람":4972,"▁인공":4973,"▁주문":4974,"▁경기를":4975,"▁비싸":4976,"▁특징":4977,"▁청구":4978,"▁법인":4979,"▁데다":4980,"▁업계":4981,"▁감사합니다.\r\n":4982,"▁반기문":4983,"같은":4984,"지구":4985,"▁부상":4986,"▁선물":4987,"▁무조건":4988,"▁법안":4989,"▁민주주의":4990,"▁기술을":4991,"▁엄마가":4992,"▁위해서\r\n":4993,"▁캠프":4994,"달라":4995,"정의":4996,"▁수행":4997,"▁다녀":4998,"▁연습":4999,"▁2004년":5000,"▁후보를":5001,"▁북한은":5002,"~3":5003,"워크":5004,"재단":5005,"촛불":5006,"히는":5007,"▁연출":5008,"▁세력":5009,"▁무역":5010,"▁500":5011,"▁출석":5012,"▁얘기가":5013,"▁야권":5014,"▁학생들이":5015,"▁플레이":5016,"▁사무총":5017,"▁맨날":5018,"▁냄새":5019,"드를":5020,"라운드":5021,"바이":5022,"신문":5023,"질이":5024,"▁공감":5025,"▁구간":5026,"▁추석":5027,"▁논문":5028,"스럽게":5029,"▁횡":5030,"자원":5031,"▁그다음":5032,"▁수십":5033,"▁2위":5034,"▁거짓":5035,"▁때가":5036,"▁연설":5037,"▁늘었다.\r\n":5038,"▁기업의":5039,"▁혐의를":5040,"군이":5041,"▁선임":5042,"▁32":5043,"▁38":5044,"▁만족":5045,"▁연주":5046,"▁생기":5047,"▁점점":5048,"회의에서":5049,"▁카메":5050,"한겨레>":5051,"▁펼쳐":5052,"(L":5053,"식품":5054,"자유":5055,"▁자동":5056,"▁검색":5057,"▁10여":5058,"▁애초":5059,"▁풀어":5060,"되기":5061,"률은":5062,"어로":5063,"▁한글":5064,"하는데":5065,"▁되기":5066,"▁김대":5067,"▁무서":5068,"▁계산":5069,"▁초대":5070,"▁선생님이":5071,"시고요.\r\n":5072,"▁계약을":5073,"'은":5074,"▁좁":5075,"▁펴":5076,"시스템":5077,"식으로":5078,"프라":5079,"▁사십":5080,"▁“우":5081,"▁‘대":5082,"▁안에서":5083,"▁강의":5084,"▁것이\r\n":5085,"▁홈페":5086,"▁만약에":5087,"무역":5088,"법이":5089,"서에":5090,"십니까?\r\n":5091,"이며":5092,"축은행":5093,"▁전투":5094,"▁보낸":5095,"▁일은":5096,"▁해요.\r\n":5097,"▁영역":5098,"▁그것을":5099,"▁흐름":5100,"▁긍정":5101,"방을":5102,"서도":5103,"▁아아":5104,"▁마케팅":5105,"▁혼란":5106,"▁콘텐츠":5107,"목을":5108,"▁이스":5109,"▁수수":5110,"▁“내":5111,"▁조언":5112,"▁올린":5113,"▁폭력":5114,"▁프로젝트":5115,"▁샌":5116,"공원":5117,"구역":5118,"기름":5119,"절한":5120,"행이":5121,"▁이르는":5122,"▁수능":5123,"▁“사":5124,"▁“한국":5125,"하는\r\n":5126,"▁관람":5127,"▁4대강":5128,"부터는":5129,"▁양파":5130,"▁호소":5131,"▁아직도":5132,"▁극복":5133,"▁장애인":5134,"▁넥":5135,"길을":5136,"보호":5137,"세요?\r\n":5138,"줘야":5139,"▁있다\"며":5140,"▁가구":5141,"▁정규":5142,"▁없다”며":5143,"▁결승":5144,"▁그렇죠.":5145,"▁점검":5146,"▁결과가":5147,"▁갤":5148,"▁꺾":5149,"▁쏘":5150,"장\r\n":5151,"타임":5152,"▁전형":5153,"▁예측":5154,"▁35":5155,"▁모른":5156,"▁처음이다.\r\n":5157,")으로":5158,"▁-":5159,"자들을":5160,"하시는":5161,"▁어울":5162,"▁중학교":5163,"▁예예":5164,"▁의심":5165,"▁입고":5166,"▁서울중앙":5167,"▁살고":5168,"▁투수":5169,"▁체육":5170,"▁체제":5171,"▁항의":5172,"▁최고위원":5173,"▁대해서\r\n":5174,"▁천안":5175,"▁이용해":5176,"25":5177,"·사진":5178,"▁낫":5179,"▁섭":5180,"주기":5181,"▁전화를":5182,"▁기여":5183,"▁오르":5184,"▁동료":5185,"▁합격":5186,"▁의미가":5187,"’와":5188,"▁T":5189,"마저":5190,"마는\r\n":5191,"봐야":5192,"스와":5193,"자도":5194,"재가":5195,"항을":5196,"▁그니까\r\n":5197,"▁등도":5198,"▁부탁":5199,"▁연계":5200,"▁동반":5201,"▁동영":5202,"▁현금":5203,"위원회는":5204,"▁30%":5205,"▁탈북":5206,"'고":5207,"16":5208,"다’는":5209,"비는":5210,"전형":5211,"지와":5212,"해,":5213,"▁이내":5214,"▁수사를":5215,"▁거라고":5216,"▁않도록":5217,"▁모여":5218,"▁현행":5219,"▁대표적인":5220,"▁정치권":5221,"▁여기다":5222,"▁접촉":5223,"~\r\n":5224,"릭터":5225,"무를":5226,"쪽에":5227,"▁보시":5228,"▁일자":5229,"▁오랜":5230,"▁33":5231,"▁동원":5232,"▁45":5233,"▁한국이":5234,"▁단독":5235,"▁높다.\r\n":5236,"▁검찰이":5237,"▁폭발":5238,"▁위해서는":5239,"▁아니냐는":5240,"▁났":5241,"공단":5242,"사인":5243,"▁대결":5244,"▁뭐가":5245,"▁김성":5246,"▁경우에는":5247,"▁묘":5248,"기,":5249,"화점":5250,"▁이릏게":5251,"▁있지만,":5252,"▁전부터":5253,"▁않으":5254,"▁고속":5255,"▁작성":5256,"▁중국은":5257,"▁멋":5258,"▁묶":5259,"바로":5260,"부(":5261,"었을":5262,"이기도":5263,"플레이":5264,"▁일어":5265,"▁인구":5266,"▁초기":5267,"▁경우도":5268,"▁나타나":5269,"▁사진을":5270,"▁효과를":5271,"2)":5272,"·일":5273,"’라고":5274,"▁0":5275,"▁객":5276,"▁멸":5277,"▁밴":5278,"▁습":5279,"다시":5280,"지에서":5281,"평화":5282,"▁시키":5283,"▁제거":5284,"▁되는데":5285,"▁사람도":5286,"▁같은데\r\n":5287,"▁초청":5288,"▁후보의":5289,"▁만들고":5290,"▁절차":5291,"▁예상된다.\r\n":5292,"▁도움을":5293,"▁美":5294,"려야":5295,"류가":5296,"비에스":5297,"시킬":5298,"용을":5299,"타를":5300,"▁그만큼":5301,"▁하자":5302,"▁‘공":5303,"▁않게":5304,"▁조작":5305,"▁비서":5306,"▁진영":5307,"▁4개":5308,"▁북한에":5309,"▁힘이":5310,"▁은퇴":5311,"▁쪽에":5312,"▁아무래도":5313,"▁키워":5314,"▁뮤지컬":5315,"'\r\n":5316,"▁헬":5317,"바일":5318,"사,":5319,"어서\r\n":5320,"예요.\r\n":5321,"▁아하":5322,"▁세상":5323,"▁바닥":5324,"▁했다고":5325,"▁6개월":5326,"▁파견":5327,"▁임대":5328,"▁편의":5329,"▁경찰이":5330,"▁육십":5331,"▁캐릭터":5332,"골프":5333,"문제":5334,"실이":5335,"▁아닐":5336,"▁중에서":5337,"▁공화":5338,"▁상관":5339,"▁무시":5340,"▁성남":5341,"▁담배":5342,"▁사건이":5343,"▁곳곳":5344,"▁베이징":5345,"▁이스라엘":5346,"TA":5347,"법인":5348,"사들이":5349,"줬다.\r\n":5350,"하이":5351,"▁이슈":5352,"▁거에":5353,"▁“아":5354,"▁나쁜":5355,"▁제1":5356,"▁때는\r\n":5357,"▁서민":5358,"▁김종":5359,"▁입주":5360,"▁사회의":5361,"▁질문에":5362,">는":5363,"’과":5364,"리면":5365,"조원":5366,"하려고":5367,"▁한다”며":5368,"▁“현":5369,"▁다\r\n":5370,"▁일제":5371,"▁말한다.\r\n":5372,"▁소식":5373,"▁사이트":5374,"▁떠올":5375,"▁전망이다.\r\n":5376,"ww":5377,"▁쌍":5378,"든가":5379,"액이":5380,"이다":5381,"찌개":5382,"투표":5383,"했다가":5384,"▁분리":5385,"▁부분에":5386,"인데,":5387,"이에요.\r\n":5388,"▁옆에":5389,"▁지하철":5390,"▁곡":5391,"▁깜":5392,"▁가치를":5393,"▁정체":5394,"▁기회가":5395,"▁말한":5396,"▁의식":5397,"▁선배":5398,"▁300":5399,"▁김정은":5400,"▁결의":5401,"▁건데\r\n":5402,"▁박사":5403,"▁만들었":5404,"▁관계를":5405,"▁삶을":5406,"(·":5407,"·이":5408,"▁띄":5409,"관의":5410,"입니다.":5411,"▁해소":5412,"▁부여":5413,"▁고향":5414,"▁국민연금":5415,"▁치열":5416,"회의를":5417,"▁대학생":5418,"▁면접":5419,"▁상대적으로":5420,"▁흔히":5421,"▁둘러싼":5422,"'으로":5423,"냐\r\n":5424,"생산":5425,"종합":5426,"증이":5427,"치지":5428,"화학":5429,"▁이들의":5430,"▁“박":5431,"▁없습니다.\r\n":5432,"▁생긴":5433,"▁근본":5434,"▁진입":5435,"▁2000년":5436,"▁부분은":5437,"▁국회에서":5438,"▁자리에서":5439,"가로":5440,"받을":5441,"이닝":5442,"지자":5443,"청이":5444,"▁시리아":5445,"▁주석":5446,"▁공장":5447,"▁연말":5448,"▁장학":5449,"▁후배":5450,"▁스님":5451,"▁대통령을":5452,"▁금메달":5453,"▁갖추":5454,"▁야구":5455,"▁맛을":5456,"▁“이번":5457,"▁발생한":5458,"▁프로그램을":5459,"▁런던":5460,"3)":5461,"▁라는":5462,"▁센터":5463,"과\r\n":5464,"뿐만":5465,"재는":5466,"제품":5467,"호는":5468,"▁보이고":5469,"▁모집":5470,"▁소환":5471,"▁도쿄":5472,"▁반복":5473,"▁채권":5474,"▁산하":5475,"▁name1":5476,"▁특별한":5477,"▁똑같은":5478,"▁최초로":5479,"▁에스케이":5480,"▁멈":5481,"▁쭉":5482,"음이":5483,"▁말도":5484,"▁통제":5485,"▁현장에서":5486,"▁점이":5487,"▁맡고":5488,"CC":5489,"’도":5490,"▁보다":5491,"▁기회":5492,"▁고소":5493,"▁3만":5494,"▁그래\r\n":5495,"000원":5496,"▁이상이":5497,"▁아이들이":5498,"▁크다.\r\n":5499,"▁지역에":5500,"▁워싱턴":5501,"▁줘야":5502,"an":5503,"렸던":5504,"주에":5505,"▁이슬람":5506,"▁것들을":5507,"▁보면은\r\n":5508,"▁‘사":5509,"▁인한":5510,"▁여섯":5511,"▁없애":5512,"▁있는지":5513,"▁같다.\r\n":5514,"▁김기":5515,"▁계기로":5516,"▁했다는":5517,"▁입을":5518,"▁포인트":5519,"▁돼요\r\n":5520,"▁철학":5521,"▁맞아요.\r\n":5522,"▁방법을":5523,"'라는":5524,"가구":5525,"됐던":5526,"셔서":5527,"▁사드":5528,"▁인하":5529,"▁주최":5530,"▁말까지":5531,"▁조치":5532,"▁회장의":5533,"▁의원의":5534,"▁변화를":5535,"▁않을까":5536,"▁추가로":5537,"▁의혹을":5538,"고는":5539,"소에서":5540,"▁지분":5541,"▁상반기":5542,"▁미군":5543,"▁무상":5544,"▁분들":5545,"▁동네":5546,"▁구단":5547,"▁실천":5548,"▁한국인":5549,"▁추구":5550,"▁들어가는":5551,"▁단속":5552,"▁미국은":5553,"▁살펴":5554,"▁리그":5555,"▁몰랐":5556,"▁퍼센트":5557,"▁대법원":5558,"사건":5559,"시각":5560,"층의":5561,"▁“한":5562,"▁부과":5563,"▁연봉":5564,"▁원으로":5565,"▁신설":5566,"▁후원":5567,"▁미국과":5568,"▁하나는":5569,"▁돼야":5570,"▁애니":5571,"▁예산을":5572,"▁느낌이":5573,"▁강력한":5574,"▁홈페이지":5575,"다며":5576,"임금":5577,"입니다\r\n":5578,"조사를":5579,"한다면":5580,"▁아쉬":5581,"▁하면서\r\n":5582,"▁자세":5583,"▁무너":5584,"▁실무":5585,"▁한국을":5586,"▁평창":5587,"▁잡고":5588,"▁내용의":5589,"▁말씀하신":5590,"▁놓은":5591,"▁운영하는":5592,"▁깊은":5593,"▁탑":5594,"▁획":5595,"다니":5596,"률을":5597,"받아":5598,"부산":5599,"▁하신":5600,"▁보상":5601,"▁“당":5602,"▁고양":5603,"▁의사를":5604,"▁들어갔":5605,"이라면":5606,"▁채널":5607,"▁축소":5608,"▁디지털":5609,"▁기자회견을":5610,"시켰다.\r\n":5611,"▁W":5612,"▁끄":5613,"▁척":5614,"든지\r\n":5615,"론이":5616,"리오":5617,"진의":5618,"트로":5619,"▁하면은":5620,"▁하시는":5621,"▁자전거":5622,"▁다들":5623,"▁예전":5624,"▁유사":5625,"▁개방":5626,"▁그러면\r\n":5627,"▁출판":5628,"▁평생":5629,"▁2002년":5630,"▁국민들이":5631,"▁갖고\r\n":5632,"▁거야?\r\n":5633,"▁아무리":5634,"▁제품을":5635,"▁징역":5636,"▁심각한":5637,"-2":5638,"과정":5639,"라.\r\n":5640,"시험":5641,"워서":5642,"집을":5643,"▁아르":5644,"▁전년":5645,"▁분류":5646,"▁202":5647,"▁생각합니다.\r\n":5648,"▁직장":5649,"▁있어.\r\n":5650,"▁관련한":5651,"▁증언":5652,"▁지역의":5653,"▁수준으로":5654,"▁끈":5655,"▁묵":5656,"▁훌":5657,"씨와":5658,"으시":5659,"▁대폭":5660,"▁아유":5661,"▁“공":5662,"▁나한테":5663,"▁일종의":5664,"▁인력":5665,"▁36":5666,"▁되면\r\n":5667,"▁저지":5668,"▁생겼":5669,"▁불리":5670,"▁감염":5671,"▁못할":5672,"▁변경":5673,"▁취재":5674,"▁체계":5675,"▁올라가":5676,"도와":5677,"유의":5678,"트워크":5679,"▁하던":5680,"▁다루":5681,"▁등과":5682,"▁안내":5683,"▁34":5684,"▁연예":5685,"▁아니었":5686,"▁매달":5687,"▁195":5688,"▁사회가":5689,"▁기업이":5690,"▁부분을":5691,"▁맡은":5692,"▁분석했다.\r\n":5693,"▁열린다.\r\n":5694,"▁최대한":5695,"더라고요.\r\n":5696,"▁유명한":5697,".4":5698,"”며":5699,"검찰":5700,"데?\r\n":5701,"동에":5702,"므로":5703,"예산":5704,"원과":5705,"화의":5706,"▁하고,":5707,"▁“최":5708,"▁‘아":5709,"▁통보":5710,"▁동물":5711,"▁5개":5712,"잖아요?\r\n":5713,"▁대표의":5714,"▁합병":5715,"▁상황에":5716,"▁빠른":5717,"▁용산":5718,"▁모르는":5719,"▁존중":5720,"하려면":5721,"▁싫어":5722,"D)":5723,"”(":5724,"▁\r\n":5725,"관에":5726,"나가":5727,"들로":5728,"용차":5729,"정상":5730,"▁이때":5731,"▁“북한":5732,"▁공사":5733,"▁없다\"고":5734,"▁미디어":5735,"▁세금":5736,"▁세상을":5737,"▁재개":5738,"▁영양":5739,"▁총리가":5740,"▁법정":5741,"▁데뷔":5742,"▁KT":5743,"▁왜냐하면":5744,"▁이루어":5745,"14":5746,"PG":5747,"▁中":5748,"▁밟":5749,"▁촛불":5750,"간의":5751,"급을":5752,"봤다.\r\n":5753,"의료":5754,"하면\r\n":5755,"해보":5756,"해요.\r\n":5757,"호가":5758,"화로":5759,"▁지낸":5760,"▁수시":5761,"▁어머":5762,"▁유출":5763,"▁실종":5764,"▁했었":5765,"▁잘라":5766,"▁간부":5767,"▁표시":5768,"▁<한겨레>":5769,"▁선수들이":5770,"▁드러났다.\r\n":5771,"▁긴장":5772,"▁이른다.\r\n":5773,"▁흘러":5774,"▁눌":5775,"공업":5776,"해가":5777,"▁있다면":5778,"▁일찍":5779,"▁구제":5780,"▁당내":5781,"▁당초":5782,"▁차이":5783,"▁떠오":5784,"▁보여주는":5785,"(G":5786,"감한":5787,"듯이":5788,"만은":5789,"메이션":5790,"사무":5791,"시코":5792,"책을":5793,"▁나를":5794,"▁생존":5795,"▁생태":5796,"▁앞둔":5797,"▁2003년":5798,"▁정도의":5799,"▁돌파":5800,"▁애들":5801,"▁애들이":5802,"▁질문을":5803,"억원의":5804,"▁그쵸.\r\n":5805,"▁이탈리아":5806,".2":5807,"▁쫓":5808,"▁컬":5809,"돼야":5810,"만명":5811,"화는":5812,"▁시원":5813,"▁일상":5814,"▁요새":5815,"적으로\r\n":5816,"▁생각하고":5817,"▁걸어":5818,"▁봉사":5819,"re":5820,"·보":5821,"▁놔":5822,"▁맹":5823,"많은":5824,"쪽으로":5825,"▁이웃":5826,"▁고맙":5827,"▁선출":5828,"▁비정규직":5829,"▁실현":5830,"▁노출":5831,"▁외환":5832,"▁배제":5833,"▁이상을":5834,"▁활약":5835,"▁충격":5836,"▁카페":5837,"하면서도":5838,"▁대상이":5839,"▁답했다.\r\n":5840,"▁원내대표는":5841,"▁쇼핑":5842,"▁불구하고":5843,"13":5844,"▁닫":5845,"움이":5846,"▁소녀":5847,"▁차단":5848,"▁집권":5849,"▁총장":5850,"▁타임":5851,"▁돼.\r\n":5852,"▁교수가":5853,"▁메르":5854,"▁알려진":5855,"▁100%":5856,"▁어려워":5857,"▁페이스":5858,"▁그리고\r\n":5859,"▁뜨거운":5860,"▁앨":5861,"다라고":5862,"산물":5863,"지어":5864,"▁거지":5865,"▁유족":5866,"▁\"(":5867,"▁강경":5868,"▁올랐":5869,"▁달려":5870,"▁달성":5871,"▁응응\r\n":5872,"▁정부에":5873,"....\r\n":5874,"▁막기":5875,"▁경찰에":5876,"▁장관이":5877,"▁상태다.\r\n":5878,"▁상태에서":5879,"▁이러한":5880,"17":5881,"▁덮":5882,"건축":5883,"니스":5884,"다라는":5885,"량은":5886,"오픈":5887,"▁다소":5888,"▁조심":5889,"▁소방":5890,"▁입장에서":5891,"▁출입":5892,"▁식품":5893,"▁철거":5894,"정부가":5895,"▁의견이":5896,"▁방법이":5897,"▁“지난":5898,"▁깎":5899,"노총":5900,"대출":5901,"란히":5902,"멕시코":5903,"삼성":5904,"이고,":5905,"▁있잖아요.\r\n":5906,"▁대처":5907,"▁가을":5908,"▁시달":5909,"▁나이가":5910,"▁주지":5911,"▁공무":5912,"▁우주":5913,"▁여의":5914,"▁만났":5915,"▁세워":5916,"▁아니겠":5917,"▁들었다.\r\n":5918,"▁물리":5919,"▁직전":5920,"▁미국이":5921,"▁걸려":5922,"▁있어요\r\n":5923,"▁있어서\r\n":5924,"거든.\r\n":5925,"▁그랬더니":5926,"▁터뜨":5927,"▁부담을":5928,"▁엘지":5929,"▁이천십":5930,"▁아프리카":5931,"EO":5932,"·고":5933,"리스트":5934,"만은\r\n":5935,"인도":5936,"인다.\r\n":5937,"▁대화를":5938,"▁어른":5939,"▁내내":5940,"▁요게":5941,"▁구글":5942,"▁반박":5943,"▁알겠":5944,"▁좋지":5945,"▁할인":5946,"▁달에":5947,"이나\r\n":5948,"▁누군":5949,"▁이게\r\n":5950,"더라구요.\r\n":5951,"▁향해":5952,"▁공공기관":5953,"▁위안부":5954,"가?\r\n":5955,"소송":5956,"연대":5957,"하여":5958,"▁그분":5959,"▁정비":5960,"▁정해":5961,"▁2개":5962,"▁시장은":5963,"▁나설":5964,"▁우수":5965,"▁정부와":5966,"▁매입":5967,"위원장은":5968,"▁일본이":5969,"(18":5970,"▁요구하는":5971,"▁급증":5972,"▁물론이고":5973,"▁으응\r\n":5974,"▁징계":5975,"3%":5976,"년에":5977,"동이":5978,"미사일":5979,"법에":5980,"▁그까":5981,"▁그쳤다.\r\n":5982,"▁거고\r\n":5983,"▁주거":5984,"▁부실":5985,"▁여당":5986,"▁3차":5987,"▁김태":5988,"▁그러다":5989,"▁올렸다.\r\n":5990,"▁물에":5991,"▁종로":5992,"▁자신을":5993,"▁창조":5994,"▁꿈을":5995,"1)":5996,"▁뼈":5997,"부,":5998,"소는":5999,"이사":6000,"인들의":6001,"으로서":6002,"▁수백":6003,"▁시기":6004,"▁시켜":6005,"▁유력":6006,"▁한국에서":6007,"▁검증":6008,"▁초등":6009,"▁종교":6010,"▁얘기다.\r\n":6011,"▁형성":6012,"다.\"\r\n":6013,"▁줄어든":6014,"▁31일":6015,"·경":6016,"▁셋":6017,"▁쟁":6018,"간에":6019,"령을":6020,"치게":6021,"하라고":6022,"▁나름":6023,"▁자치":6024,"▁내야":6025,"▁부장":6026,"▁의결":6027,"▁의해":6028,"▁연방":6029,"▁유도":6030,"▁같다”고":6031,"▁김현":6032,"▁강하게":6033,"▁점도":6034,"▁친환경":6035,"거나\r\n":6036,"▁몸을":6037,"▁워낙":6038,"▁목소리가":6039,"▁카메라":6040,"▁샤":6041,"나마":6042,"선은":6043,"협정":6044,"힌다.\r\n":6045,"▁하늘":6046,"▁한-":6047,"▁정기":6048,"▁보관":6049,"▁인용":6050,"▁해보":6051,"▁없어요.\r\n":6052,"▁위로":6053,"▁되니까\r\n":6054,"▁그래야":6055,"▁당사":6056,"▁현상":6057,"▁20여":6058,"▁집을":6059,"▁문제로":6060,"▁북핵":6061,"▁태양":6062,"▁감독의":6063,"▁브리":6064,"▁민주당은":6065,"▁가격이":6066,"으나,":6067,"▁맛있는":6068,"(E":6069,"(전":6070,"▁숲":6071,"고속":6072,"나.\r\n":6073,"판을":6074,"행정":6075,"▁이처럼":6076,"▁보안":6077,"▁기울":6078,"▁네네\r\n":6079,"▁고발":6080,"▁일본은":6081,"▁갖춘":6082,"▁싶었":6083,"▁감독이":6084,"구나.\r\n":6085,"▁목소리":6086,"가요?\r\n":6087,"마자":6088,"선의":6089,"연을":6090,"주)":6091,"테이":6092,"통일":6093,"화하는":6094,"▁보조":6095,"▁기아":6096,"▁나가는":6097,"▁않고\r\n":6098,"▁김씨는":6099,"()을":6100,"시각)":6101,"”...":6102,"▁댓":6103,"▁펀드":6104,"소비":6105,"했으며,":6106,"▁가로":6107,"▁해양":6108,"▁공부를":6109,"는데도":6110,"▁재무":6111,"▁사람들의":6112,"▁학술":6113,"▁맞서":6114,"▁참기름":6115,"▁법적":6116,"▁파괴":6117,"▁프로야구":6118,"▁여러가지":6119,"위원회가":6120,"▁곳은":6121,"▁탄생":6122,"▁침해":6123,"▁이것도":6124,"▁발언을":6125,"▁제외한":6126,"▁봅니다.\r\n":6127,".7":6128,"▁앱":6129,"놓은":6130,"되자":6131,"부로":6132,"분간":6133,"자회담":6134,"▁하며":6135,"▁보면서":6136,"▁해명":6137,"▁비리":6138,"▁김무성":6139,"▁아니야":6140,"▁했어요.\r\n":6141,"▁금방":6142,"▁막\r\n":6143,"▁간호":6144,"▁필수":6145,"▁복잡":6146,"▁백악":6147,"▁받아야":6148,"▁떨어져":6149,"▁잘못된":6150,"▁브라질":6151,"ti":6152,"▁겹":6153,"▁떼":6154,"갖고":6155,"공동":6156,"력과":6157,"사도":6158,"스에":6159,"행한":6160,"▁이념":6161,"▁거주":6162,"▁국세":6163,"▁공모":6164,"▁않습니까?\r\n":6165,"▁개성":6166,"▁원의":6167,"▁분노":6168,"▁알겠습니다.\r\n":6169,"에게는":6170,"▁집회":6171,"▁간의":6172,"▁먹어":6173,"▁임원":6174,"▁늘고":6175,"▁시작된":6176,"▁몰려":6177,"▁알려져":6178,"▁팔십":6179,"▁낮아":6180,"▁풀이":6181,"▁주변에":6182,"▁재판부는":6183,"▁며칠":6184,"▁낭":6185,"▁춘":6186,"었다고":6187,"이어서":6188,"▁대리":6189,"▁가득":6190,"▁“전":6191,"▁주장을":6192,"▁조처":6193,"▁유권":6194,"▁최다":6195,"▁열었다.\r\n":6196,"요.”\r\n":6197,"▁농업":6198,"▁차지했다.\r\n":6199,"▁불가피":6200,"▁통화에서":6201,"▁국회의원":6202,"텔레콤":6203,"(9":6204,"NS":6205,"▁훼손":6206,"기금":6207,"기준":6208,"선에":6209,"엑스":6210,"자.\r\n":6211,"재정":6212,"층이":6213,"혔다.\r\n":6214,"▁이정":6215,"▁그녀":6216,"▁하여":6217,"▁어.":6218,"▁“우리":6219,"▁국물":6220,"▁고령":6221,"▁39":6222,"▁과도":6223,"▁명확":6224,"▁합류":6225,"거든\r\n":6226,"▁있으니까\r\n":6227,"▁기능을":6228,"22":6229,"▁엠":6230,"내기":6231,"용이":6232,"중한":6233,"▁시장이":6234,"▁내리":6235,"▁조기":6236,"▁세대":6237,"▁근처":6238,"▁변화가":6239,"▁지역에서":6240,"▁용인":6241,"▁맡아":6242,"민주연합":6243,"▁드러나":6244,"▁작품을":6245,"▁챙겨":6246,"’이라고":6247,"▁들이":6248,"고가":6249,"로서":6250,"유를":6251,"▁그\r\n":6252,"▁가수":6253,"▁일각":6254,"▁그래가지고":6255,"▁개별":6256,"▁48":6257,"▁반도":6258,"▁박정희":6259,"▁역사를":6260,"▁얘기도":6261,"▁치러":6262,"▁시간에":6263,"▁최근에":6264,"▁요구했다.\r\n":6265,"▁그다음에":6266,"▁김대중":6267,"건이":6268,"나다":6269,"진흥":6270,"피아":6271,"▁거죠\r\n":6272,"▁말은":6273,"▁모바일":6274,"▁건너":6275,"▁집어":6276,"▁금리":6277,"▁법조":6278,"▁빠진":6279,"▁측근":6280,"▁귀국":6281,"▁썰어":6282,"▁늦게":6283,"▁거짓말":6284,"·3":6285,"기자":6286,"드리":6287,"래식":6288,"량의":6289,"영업":6290,"유럽":6291,"이고\r\n":6292,"자료":6293,"코리아":6294,"피스":6295,"해지":6296,"▁하반기":6297,"▁다행":6298,"▁주시면":6299,"▁중동":6300,"▁제가\r\n":6301,"▁오\r\n":6302,"▁37":6303,"▁새우":6304,"▁단지":6305,"▁세계적인":6306,"▁됐습니다.\r\n":6307,"▁선수가":6308,"▁30분":6309,"▁외교부":6310,"▁아~\r\n":6311,"▁성과를":6312,"·김":6313,"▁엉":6314,"박물관":6315,"산이":6316,"세는":6317,"전의":6318,"책임":6319,"▁이행":6320,"▁사교육":6321,"▁하다.\r\n":6322,"▁것입니다.\r\n":6323,"▁인해":6324,"00억":6325,"▁부르":6326,"▁부채":6327,"▁예고":6328,"▁발의":6329,"▁과제":6330,"▁배려":6331,"▁교육감":6332,"▁목적":6333,"▁창의":6334,"▁조금씩":6335,"▁퇴직":6336,"▁겨냥":6337,"▁경험이":6338,"▁내놓은":6339,"과학기술":6340,"▁페이스북":6341,"▁빅":6342,"▁융":6343,"러운":6344,"받았다.\r\n":6345,"설을":6346,"에.\r\n":6347,"장(":6348,"토리":6349,"했어요.\r\n":6350,"화와":6351,"▁시범":6352,"▁자랑":6353,"▁오빠":6354,"▁우울":6355,"▁영입":6356,"()의":6357,"▁후보자는":6358,"▁논쟁":6359,"▁채소":6360,"▁이후에":6361,"▁식물":6362,"▁눈을":6363,"▁폐쇄":6364,"▁같애\r\n":6365,"▁밀어":6366,"▁의혹이":6367,"▁동아일보":6368,"▁댓글":6369,".0%":6370,"ar":6371,"생을":6372,"시의":6373,"오프":6374,"운영":6375,"자이":6376,"집트":6377,"▁1시간":6378,"▁어깨":6379,"▁것\"이라며":6380,"▁일하는":6381,"▁없고\r\n":6382,"▁고급":6383,"▁분쟁":6384,"▁것이란":6385,"▁2000":6386,"▁행위":6387,"▁담긴":6388,"▁모습이":6389,"▁업무를":6390,"▁이끌어":6391,"▁솔직히":6392,"▁쥐":6393,"겠다.\r\n":6394,"석을":6395,"소속":6396,"소에":6397,"식에":6398,"야말로":6399,"진보":6400,"▁있느냐":6401,"▁지자":6402,"▁2억":6403,"▁“중":6404,"▁일방":6405,"▁내지":6406,"▁고등":6407,"▁의뢰":6408,"▁소년":6409,"▁소형":6410,"▁\"지":6411,"▁건립":6412,"▁알게":6413,"▁에어":6414,"▁운동을":6415,"▁사업에":6416,"▁학교에":6417,"▁100만":6418,"▁잠시":6419,").\r\n":6420,"냐?\r\n":6421,"스티":6422,"연패":6423,"웨어":6424,"타민":6425,"현대":6426,"▁이대":6427,"▁거죠?\r\n":6428,"▁인기를":6429,"▁3개월":6430,"▁생겨":6431,"▁스피":6432,"▁달라고":6433,"▁적발":6434,"▁물이":6435,"▁외에":6436,"▁70%":6437,"▁파트":6438,"위원회를":6439,"▁빠르게":6440,"▁확인됐다.\r\n":6441,"▁가능성도":6442,"▁반응을":6443,"▁곤충":6444,"대문":6445,"됐다는":6446,"들어":6447,"만간":6448,"올해":6449,"해졌":6450,"▁하니까":6451,"▁1,":6452,"▁시장을":6453,"▁자극":6454,"▁자리에":6455,"▁‘고":6456,"▁인재":6457,"▁내에":6458,"▁상상":6459,"▁의존":6460,"▁요기":6461,"▁불을":6462,"▁계시":6463,"▁20대":6464,"▁맞추":6465,"▁응원":6466,"▁참고":6467,"▁행사를":6468,"위원은":6469,"▁독자":6470,"▁둘이":6471,"▁분야에서":6472,"▁참석한":6473,"▁목표로":6474,"▁스타일":6475,"▁택시":6476,"▁끌어올":6477,"▁애니메이션":6478,"▁팽":6479,"▁멕시코":6480,"계에":6481,"랫동안":6482,"만한":6483,"모델":6484,"비에":6485,"혁명":6486,"▁하면은\r\n":6487,"▁시사":6488,"▁‘비":6489,"▁부부":6490,"▁서초":6491,"▁바란":6492,"▁5%":6493,"▁작용":6494,"▁검찰에":6495,"▁받아들이":6496,"▁지방선거":6497,"▁우승을":6498,"▁꺼내":6499,"▁원자력":6500,"'(":6501,"'이라는":6502,"▁O":6503,"나물":6504,"됐다고":6505,"리핀":6506,"연이":6507,"제의":6508,"▁수학":6509,"▁일도":6510,"▁주차":6511,"▁진정":6512,"▁따뜻":6513,"▁데는":6514,"▁드시":6515,"▁다음달":6516,"▁식당":6517,"▁참여하는":6518,"▁시민단체":6519,"▁의미를":6520,"▁삶의":6521,"▁더불어민주당":6522,"▁엇":6523,"복을":6524,"브리":6525,"산을":6526,"세에":6527,"외교":6528,"전은":6529,"조직":6530,"처분":6531,"▁있거든요.\r\n":6532,"▁한일":6533,"▁시장의":6534,"▁인턴":6535,"▁제3":6536,"▁선박":6537,"▁방어":6538,"▁한국과":6539,"▁확장":6540,"▁국가가":6541,"▁국가대표":6542,"▁갈아":6543,"▁KIA":6544,"구나\r\n":6545,"경기에서":6546,"▁국방부":6547,"▁대책을":6548,"자치단체":6549,"▁떡":6550,"▁칭":6551,"늦게":6552,"수에":6553,"어머니":6554,"▁대목":6555,"▁“김":6556,"▁개봉":6557,"▁무리":6558,"▁불리는":6559,"▁맞춤":6560,"▁들어갈":6561,"▁총괄":6562,"▁10시":6563,"▁투자를":6564,"▁복원":6565,"▁끝까지":6566,"▁말씀이":6567,"시키고":6568,"▁능력을":6569,"▁지속적으로":6570,"▁털어":6571,"가에":6572,"수원":6573,"▁대답":6574,"▁대사":6575,"▁사립":6576,"▁“‘":6577,"▁공통":6578,"▁고문":6579,"▁실업":6580,"▁성폭":6581,"▁감정":6582,"▁65":6583,"▁줄었다.\r\n":6584,"▁화려":6585,"▁크리스":6586,"▁승진":6587,"▁경찰청":6588,"▁중요하":6589,"▁극단":6590,"▁생활을":6591,"▁부족한":6592,"▁목소리를":6593,"▁구체적으로":6594,"▁굳이":6595,"▁휴대전화":6596,"~4":6597,"경쟁":6598,"대,":6599,"서트":6600,"선언":6601,"스,":6602,"시티":6603,"의가":6604,"이버":6605,"인터":6606,"하실":6607,"▁가서\r\n":6608,"▁거지\r\n":6609,"▁자식":6610,"▁개의":6611,"▁같은데":6612,"잖아요":6613,"▁심판":6614,"▁국민이":6615,"000억원":6616,"▁사회에":6617,"▁벌이고":6618,"▁지적도":6619,"▁방향으로":6620,"▁소송을":6621,"▁으음\r\n":6622,"(T":6623,"23":6624,"24":6625,"C)":6626,"▁탁":6627,"공개":6628,"금리":6629,"들이다.\r\n":6630,"리며":6631,"박근혜":6632,"생이":6633,"신의":6634,"자고":6635,"주민":6636,"처리":6637,"치로":6638,"포를":6639,"▁그르":6640,"▁시는":6641,"▁‘제":6642,"▁오랫동안":6643,"▁의지를":6644,"▁20년":6645,"▁앞세":6646,"▁드릴":6647,"▁만들었다.\r\n":6648,"▁줄이":6649,"▁이번에는":6650,"▁학교에서":6651,"(25":6652,"▁패션":6653,"▁옷을":6654,"▁곧바로":6655,"▁바른정당":6656,"',":6657,"·기":6658,"건강":6659,"내가":6660,"었고,":6661,"유가":6662,"키스탄":6663,"▁사안":6664,"▁보이지":6665,"▁내다":6666,"▁고구":6667,"▁요런":6668,"▁진실":6669,"▁좋았":6670,"▁입시":6671,"▁경제적":6672,"▁충북":6673,"▁처음에":6674,"▁이뤄진":6675,"▁경험을":6676,"▁술을":6677,"▁기억이":6678,"▁시스템을":6679,"▁블랙":6680,"▁최소한":6681,"·여":6682,"▁빵":6683,"구에":6684,"스포츠":6685,"인에":6686,"인들은":6687,"판에":6688,"한다\"고":6689,"▁“오":6690,"▁인사를":6691,"▁공을":6692,"▁조각":6693,"▁연금":6694,"▁연합":6695,"▁김상":6696,"▁구분":6697,"▁남한":6698,"▁스페인":6699,"▁차관":6700,"▁서울시는":6701,"▁심지어":6702,"▁관계가":6703,"000억":6704,"▁종류":6705,"▁버락":6706,"▁민주화":6707,"▁악화":6708,"▁석유":6709,"▁본격적으로":6710,"▁메이저리그":6711,"(W":6712,"al":6713,"골을":6714,"니어":6715,"매매":6716,"면에":6717,"와는":6718,"퍼스":6719,"호텔":6720,"▁있다\r\n":6721,"▁하실":6722,"▁가동":6723,"▁주력":6724,"▁유행":6725,"▁무대":6726,"▁46":6727,"▁받게":6728,"▁결합":6729,"▁합리":6730,"▁갖다":6731,"▁넣는":6732,"▁찾은":6733,"▁쓰읍":6734,"▁국내외":6735,"▁결과,":6736,"▁준비해":6737,"▁기록을":6738,"▁어려울":6739,"▁비판이":6740,"▁상당한":6741,"▁얻어":6742,"▁부담이":6743,"▁뽑아":6744,"▁탓에":6745,"▁천안함":6746,".”\r\n":6747,"27":6748,"▁붕":6749,"놨다.\r\n":6750,"리어":6751,"모를":6752,"봉사":6753,"성,":6754,"약품":6755,"해.\r\n":6756,"형이":6757,"▁네네":6758,"▁마친":6759,"▁무관":6760,"▁동남":6761,"▁40%":6762,"부터\r\n":6763,"▁입은":6764,"▁특허":6765,"▁집안":6766,"▁미국에":6767,"▁데이":6768,"▁넘겨":6769,"▁보고서":6770,"▁갈수록":6771,"▁내용은":6772,"▁평가했다.\r\n":6773,"▁FTA":6774,"▁볶아":6775,"▁깔끔":6776,"▁혜택을":6777,"4)":6778,"80":6779,"▁앤":6780,"국에":6781,"특별":6782,"파크":6783,"평균":6784,"협의회":6785,"에서의":6786,"▁어떠":6787,"▁가계":6788,"▁보냈":6789,"▁“정":6790,"▁내정":6791,"▁부품":6792,"▁상호":6793,"▁무산":6794,"▁현장에":6795,"▁좋다.\r\n":6796,"▁역전":6797,"▁인제~":6798,"▁번도":6799,"▁정도는":6800,"▁준다.\r\n":6801,"▁손해":6802,"▁화가":6803,"▁하나도":6804,"▁버섯":6805,"▁학생이":6806,"▁부모님":6807,"선수권":6808,"▁김정일":6809,"8)":6810,"▁르":6811,"검사":6812,"과를":6813,"디아":6814,"로스":6815,"생명":6816,"쇼핑":6817,"습니까\r\n":6818,"월드컵":6819,"졌던":6820,"통상":6821,"팀은":6822,"▁이들을":6823,"▁2배":6824,"▁제도를":6825,"▁해고":6826,"▁내린":6827,"▁부서":6828,"▁상위":6829,"▁상장":6830,"▁원이":6831,"▁발휘":6832,"▁진상":6833,"▁그렇다고":6834,"▁활발":6835,"▁이유를":6836,"▁경기에서":6837,"▁팀이":6838,"▁경쟁력을":6839,"▁듣는":6840,"▁다니는":6841,"▁새정치민주연합":6842,"(P":6843,"-0":6844,"간담":6845,"공간":6846,"교수":6847,"기만":6848,"무기":6849,"법은":6850,"소로":6851,"제한":6852,"태를":6853,"트가":6854,"활동을":6855,"▁가끔":6856,"▁기계":6857,"▁오픈":6858,"...\r\n":6859,"▁동북":6860,"▁당일":6861,"▁차를":6862,"▁회의를":6863,"▁달아":6864,"▁그렇지.\r\n":6865,"▁양국":6866,"▁피아":6867,"▁경우,":6868,"▁씨를":6869,"▁둘째":6870,"▁봤을":6871,"▁비교적":6872,"▁즉각":6873,"▁뇌물":6874,"▁깜짝":6875,"EC":6876,"까지만":6877,"드가":6878,"체의":6879,"황을":6880,"▁그려":6881,"▁보완":6882,"▁‘한":6883,"▁경비":6884,"▁여권":6885,"▁조절":6886,"▁연령":6887,"▁불거":6888,"▁타격":6889,"▁하나가":6890,"▁협조":6891,"▁학교를":6892,"▁곳이":6893,"▁뭐~\r\n":6894,"▁요즘은":6895,"▁나라가":6896,"▁방침을":6897,"▁케이티":6898,"▁바람직":6899,"▁형태로":6900,"co":6901,"네시아":6902,"달아":6903,"마는":6904,"죠?":6905,"차피":6906,"▁사찰":6907,"▁수천":6908,"▁일관":6909,"▁부당":6910,"▁부진":6911,"▁비대":6912,"▁비율":6913,"▁저한테":6914,"▁최우":6915,"▁개통":6916,"▁신속":6917,"▁무게":6918,"▁그런\r\n":6919,"▁도심":6920,"▁6개":6921,"▁6·2":6922,"▁서울의":6923,"▁2001년":6924,"▁법원":6925,"▁먹어야":6926,"▁이번이":6927,"▁취약":6928,"▁하나로":6929,"▁대학에":6930,"▁유일한":6931,"▁확실히":6932,"9)":6933,"▁北":6934,"관계를":6935,"나이":6936,"당에":6937,"렸을":6938,"상품":6939,"진핑":6940,"▁그날":6941,"▁시내":6942,"▁경향":6943,"▁말하자":6944,"▁조치를":6945,"▁통상":6946,"▁동참":6947,"▁학원":6948,"▁입법":6949,"▁집계":6950,"▁의원님":6951,"▁후보자":6952,"▁승객":6953,"▁태도를":6954,"▁준비가":6955,"하며,":6956,"▁분석이":6957,"▁효율":6958,"▁짧은":6959,"\"라며":6960,"대통령":6961,"도에서":6962,"뒀다.\r\n":6963,"라크":6964,"만달러":6965,"▁이집트":6966,"▁한은":6967,"▁보였":6968,"▁시·":6969,"▁‘201":6970,"▁여성이":6971,"▁소화":6972,"▁많지":6973,"▁진단":6974,"▁중국에":6975,"▁합동":6976,"▁90":6977,"▁운용":6978,"▁절차를":6979,"▁질병":6980,"▁기록한":6981,"▁미래를":6982,"수도권":6983,"▁횡령":6984,"70":6985,"8%":6986,"냐고":6987,"대교":6988,"러리":6989,"었다는":6990,"트는":6991,"파이":6992,"▁이씨는":6993,"▁전세":6994,"▁없지":6995,"▁위기를":6996,"▁조항":6997,"▁비율이":6998,"▁무장":6999,"▁진료":7000,"▁받으":7001,"▁노사":7002,"▁남겨":7003,"▁맞은":7004,"▁들어와":7005,"▁음.":7006,"▁배출":7007,"▁그렇지\r\n":7008,"▁막을":7009,"▁편안":7010,"▁월급":7011,"▁100여":7012,"▁아무것도":7013,"▁숨진":7014,"▁듯한":7015,"▁품목":7016,"▁뿌리":7017,"▁화장품":7018,"T)":7019,"▁,":7020,"실로":7021,"앞으로":7022,"자산":7023,"자들에게":7024,"차는":7025,"해왔":7026,"▁시장에":7027,"▁일대":7028,"▁제약":7029,"▁오리":7030,"▁조만간":7031,"▁뭐라고":7032,"▁요걸":7033,"▁세운":7034,"▁무죄":7035,"▁계좌":7036,"▁했다”고":7037,"▁출근":7038,"▁적어도":7039,"▁살해":7040,"▁갖춰":7041,"▁목숨":7042,"▁승부":7043,"▁학생들은":7044,"▁국내에서":7045,"(200":7046,"▁신청을":7047,"▁견줘":7048,"▁무엇보다":7049,"st":7050,"▁R":7051,"▁꼼":7052,"▁벨":7053,"달라고":7054,"리게":7055,"비전":7056,"었지만":7057,"함이":7058,"▁정규직":7059,"▁시장에서":7060,"▁주세요.\r\n":7061,"▁공산":7062,"▁우즈":7063,"▁관여":7064,"▁김연":7065,"▁신분":7066,"▁무려":7067,"▁강요":7068,"▁감시":7069,"▁감축":7070,"▁명절":7071,"▁드는":7072,"▁필리핀":7073,"▁9시":7074,"▁커지고":7075,"▁맞아\r\n":7076,"▁참여한":7077,"▁왔다":7078,"▁거예요\r\n":7079,"▁패배":7080,"▁가격을":7081,"▁붙잡":7082,"▁놀라":7083,"▁사례가":7084,"▁비용을":7085,"▁정확한":7086,"▁계열사":7087,"▁슈퍼":7088,"▁리더십":7089,"(한국":7090,"35":7091,"스토":7092,"원순":7093,"제에":7094,"하자는":7095,"협의":7096,"화문":7097,"▁전직":7098,"▁보존":7099,"▁시인":7100,"▁주제로":7101,"▁말할":7102,"▁내가\r\n":7103,"▁문자":7104,"▁원에":7105,"▁방위":7106,"▁그러한":7107,"▁사람들을":7108,"▁그렇지만":7109,"▁있어\r\n":7110,"▁임기":7111,"▁늘려":7112,"▁사회를":7113,"▁아이들":7114,"▁승리를":7115,"▁완벽":7116,"▁곳에":7117,"▁반대하는":7118,"▁변호사는":7119,"▁구성된":7120,"▁얼굴을":7121,"▁아닙니다.\r\n":7122,"▁아름다운":7123,"·4":7124,"구백":7125,"신은":7126,"중인":7127,"▁이기":7128,"▁대안":7129,"▁지지를":7130,"▁한때":7131,"▁한마":7132,"▁보지":7133,"▁“미":7134,"▁일곱":7135,"▁소리를":7136,"▁한국어":7137,"▁데이터":7138,"▁대표와":7139,"▁걸린":7140,"거든?\r\n":7141,"▁누구나":7142,"▁상황이다.\r\n":7143,"하면서\r\n":7144,"▁150":7145,"▁진짜\r\n":7146,"▁육성":7147,"더라도\r\n":7148,"▁어려움을":7149,"▁보여주":7150,"▁활용해":7151,"▁녹색":7152,"▁득점":7153,"▁프리미":7154,"▁왼쪽":7155,"9%":7156,"·전":7157,"▁H":7158,"각을":7159,"협상":7160,"▁있으며,":7161,"▁대거":7162,"▁대기":7163,"▁경계":7164,"▁부사":7165,"▁미안":7166,"▁원인":7167,"▁신랑":7168,"▁현상이":7169,"▁44":7170,"▁박영":7171,"▁포항":7172,"▁투쟁":7173,"▁정도가":7174,"▁얘기하는":7175,"(26":7176,"▁사용하는":7177,"▁진짜?\r\n":7178,"▁그것은":7179,"▁잠재":7180,"▁탈당":7181,"▁탈출":7182,"▁죽음":7183,"▁어디서":7184,"▁있는데요.\r\n":7185,"▁클린":7186,"▁엄청난":7187,"▁벤처":7188,"▁t":7189,"경이":7190,"국인":7191,"대사":7192,"대체":7193,"력에":7194,"립니다.\r\n":7195,"비용":7196,"자본":7197,"장에게":7198,"▁이모":7199,"▁지출":7200,"▁수립":7201,"▁‘스":7202,"▁주관":7203,"▁말로":7204,"▁부대":7205,"▁물가":7206,"▁그렇다면":7207,"▁의원을":7208,"▁너무나":7209,"▁민주통합":7210,"▁검찰의":7211,"▁천구백":7212,"▁몸에":7213,"▁밀려":7214,"▁얻은":7215,"▁차지하는":7216,"▁괜찮아":7217,"▁요거를":7218,"▁깊이":7219,"▁반도체":7220,"P)":7221,"▁빙":7222,"건의":7223,"네요":7224,"럭시":7225,"베이":7226,"사회의":7227,"언론":7228,"었어요.\r\n":7229,"지대":7230,"한다”며":7231,"▁있지만\r\n":7232,"▁대개":7233,"▁대립":7234,"▁한·미":7235,"▁어쩌":7236,"▁것인가":7237,"▁기조":7238,"▁해체":7239,"▁오징":7240,"▁않습니다.\r\n":7241,"▁비싼":7242,"▁유승":7243,"▁\"아":7244,"▁들려":7245,"▁대통령에게":7246,"▁앞장":7247,"▁중국을":7248,"()를":7249,"▁손으로":7250,"▁증권":7251,"▁환영":7252,"▁절감":7253,"▁결과에":7254,"▁난민":7255,"▁마음에":7256,"▁찾아가":7257,"▁규모가":7258,"▁이름이":7259,"▁논란을":7260,"▁전망된다.\r\n":7261,"▁기획재":7262,"▁빌려":7263,"▁강원도":7264,".0":7265,"단지":7266,"라리":7267,"방이":7268,"색을":7269,"서로":7270,"수와":7271,"습니까":7272,"연히":7273,"하다가":7274,"해주는":7275,"▁수많은":7276,"▁가시":7277,"▁보고\r\n":7278,"▁나의":7279,"▁없기":7280,"▁의한":7281,"▁비박":7282,"▁비율은":7283,"▁비타민":7284,"▁모범":7285,"▁교류":7286,"▁구상":7287,"▁구십":7288,"▁우리도":7289,"▁그러는":7290,"▁현역":7291,"▁실적":7292,"▁스키":7293,"▁입증":7294,"▁출간":7295,"▁새롭게":7296,"▁평양":7297,"▁파이":7298,"▁협상을":7299,"▁사이버":7300,"▁30여":7301,"▁개인정보":7302,"▁대부분의":7303,"▁걔네":7304,"▁최초의":7305,"▁비행기":7306,"(U":7307,"”는":7308,"계는":7309,"라톤":7310,"비서관":7311,"사람":7312,"▁수단":7313,"▁거지.\r\n":7314,"▁해군":7315,"▁소스":7316,"▁소프트":7317,"▁연세대":7318,"▁생명":7319,"▁김동":7320,"▁무소속":7321,"▁아니에":7322,"▁명을":7323,"▁초과":7324,"▁국민들의":7325,"▁충청":7326,"▁학생들의":7327,"▁백화점":7328,"▁묻는":7329,"▁본격적인":7330,"▁덕분에":7331,"▁아침에":7332,"▁스트레스":7333,"▁보유한":7334,"▁1인당":7335,"29":7336,"6%":7337,"▁찌":7338,"권에":7339,"됐고,":7340,"드라":7341,"망을":7342,"소리":7343,"식은":7344,"씨에게":7345,"어버":7346,"언더":7347,"치료":7348,"투어":7349,"팀이":7350,"했는데\r\n":7351,"▁이럴":7352,"▁수집":7353,"▁자문":7354,"▁최악":7355,"▁동맹":7356,"▁받는다.\r\n":7357,"▁성적을":7358,"▁추산":7359,"▁엄격":7360,"▁지원하는":7361,"▁농민":7362,"▁그랬더니\r\n":7363,"▁아무도":7364,"▁공격을":7365,"▁괜찮은":7366,"▁겪고":7367,"▁케이블":7368,"▁갈등을":7369,"▁납품":7370,"▁썼다.\r\n":7371,"▁멀리":7372,"▁브리핑":7373,"개가":7374,"대상":7375,"위에서":7376,"하우":7377,"▁아들이":7378,"▁지내":7379,"▁가해":7380,"▁시리즈":7381,"▁“여":7382,"▁말해":7383,"▁내에서":7384,"▁공기업":7385,"▁부작":7386,"▁안돼":7387,"▁조지":7388,"▁3분의":7389,"▁서양":7390,"▁마치고":7391,"▁신한":7392,"▁동일":7393,"▁아니라고":7394,"▁스위":7395,"▁응응":7396,"하기는":7397,"▁피의":7398,"▁손에":7399,"▁돼지고":7400,"▁11시":7401,"▁잡은":7402,"▁눈이":7403,"▁수준의":7404,"▁키우":7405,"▁고려해":7406,"대학원":7407,"▁목표를":7408,"▁가능성은":7409,"▁시각)":7410,"▁국무총리":7411,"▁바이오":7412,"en":7413,"▁쇠":7414,"가격":7415,"겠다\"고":7416,"고요\r\n":7417,"교과":7418,"구청":7419,"도미사일":7420,"우드":7421,"학자":7422,"해졌다.\r\n":7423,"호선":7424,"▁있습니다":7425,"▁전교":7426,"▁정식":7427,"▁기각":7428,"▁‘정":7429,"▁주가":7430,"▁등급":7431,"▁중도":7432,"▁제정":7433,"▁위기에":7434,"▁뭐야":7435,"▁학문":7436,"▁출산":7437,"▁문제의":7438,"▁법을":7439,"▁북한을":7440,"▁돼\r\n":7441,"▁넘어서":7442,"▁이어질":7443,"▁호남":7444,"(10":7445,"▁사이에서":7446,"▁로스":7447,"▁기준을":7448,"▁비판을":7449,"그룹은":7450,"▁분위기를":7451,"▁분위기가":7452,"▁이것이":7453,"▁요거는":7454,"▁인도네시아":7455,"니깐\r\n":7456,"(O":7457,")’":7458,"▁혀":7459,"들었다.\r\n":7460,"부에서":7461,"정수석":7462,"터리":7463,"포르":7464,"▁그나마":7465,"▁있잖아.\r\n":7466,"▁1위를":7467,"▁어?\r\n":7468,"▁기분":7469,"▁“어":7470,"▁말라":7471,"▁상무":7472,"▁30년":7473,"▁들면":7474,"▁발행":7475,"▁남녀":7476,"▁입장이":7477,"▁투명":7478,"▁후보로":7479,"▁호주":7480,"▁쪽이":7481,"센터에서":7482,"▁여성의":7483,"▁뛰어난":7484,"28":7485,"▁널":7486,"고에":7487,"라스":7488,"러워":7489,"보가":7490,"보니":7491,"었는데":7492,"으신":7493,"입니다":7494,"평양":7495,"▁가깝":7496,"▁시가":7497,"▁주한":7498,"▁부추":7499,"▁의회":7500,"▁서류":7501,"▁무대에":7502,"▁동양":7503,"▁지난주":7504,"▁5만":7505,"▁장악":7506,"▁알리":7507,"▁추락":7508,"▁추적":7509,"▁맞지":7510,"▁에\r\n":7511,"▁요구를":7512,"▁확인할":7513,"▁어렵다.\r\n":7514,"▁읽어":7515,"▁방문해":7516,"▁제공하는":7517,"▁써야":7518,"▁안타까":7519,"7)":7520,"~5":7521,"▁힐":7522,"결정":7523,"니스트":7524,"물로":7525,"사랑":7526,"수산":7527,"실은":7528,"월드":7529,"저축은행":7530,"점,":7531,"친다.\r\n":7532,"▁있으며":7533,"▁있음을":7534,"▁전인":7535,"▁시급":7536,"▁네네.\r\n":7537,"▁경기가":7538,"▁부활":7539,"▁강행":7540,"▁55":7541,"▁남쪽":7542,"▁두려":7543,"▁미국에서":7544,"▁양성":7545,"▁행정부":7546,"▁가능하다.\r\n":7547,"▁화학":7548,"▁돼서":7549,"▁크림":7550,"▁찾을":7551,"▁편집":7552,"▁연구를":7553,"하겠다\"고":7554,"▁조사한":7555,"▁봐\r\n":7556,"인데요.\r\n":7557,"▁구조조정":7558,"▁끓여":7559,"▁잇따라":7560,"기’":7561,"농구":7562,"박한":7563,"준비":7564,"지수":7565,"크로":7566,"해질":7567,"화할":7568,"▁한참":7569,"▁수치":7570,"▁1심":7571,"▁가난":7572,"▁가이드":7573,"▁정무":7574,"▁보좌":7575,"▁‘마":7576,"▁‘신":7577,"▁없어\r\n":7578,"▁저소득":7579,"▁세상에":7580,"▁방식을":7581,"▁못했":7582,"▁양반":7583,"▁본회의":7584,"▁승인":7585,"▁폭탄":7586,"▁아무런":7587,"▁십오":7588,"▁표현을":7589,"▁벌어진":7590,"▁제주도":7591,"▁메시지를":7592,"'에서":7593,"▁랭":7594,"▁싼":7595,"▁춤":7596,"구로":7597,"력으로":7598,"분석":7599,"액의":7600,"음악":7601,"일에":7602,"청문":7603,"▁이벤":7604,"▁하려고":7605,"▁한꺼":7606,"▁다진":7607,"▁일이다.\r\n":7608,"▁중순":7609,"▁상영":7610,"▁소장":7611,"▁최선을":7612,"▁설문":7613,"▁명품":7614,"▁된다”고":7615,"▁먹으면":7616,"▁2016년":7617,"▁보고서를":7618,"▁끝났":7619,"▁창작":7620,"▁접수":7621,"▁기자간담":7622,"▁1998년":7623,"▁보내는":7624,"▁젊은이":7625,"▁뿌려":7626,"▁영업이익":7627,"▁새정치연합":7628,"▁청문회":7629,"▁서울중앙지검":7630,"▁기획재정부":7631,"(B":7632,"S)":7633,"▁덩":7634,"뉴스":7635,"례를":7636,"르지":7637,"미가":7638,"미를":7639,"션을":7640,"시마":7641,"어져":7642,"여자":7643,"역사":7644,"운동을":7645,"이야":7646,"이며,":7647,"중공업":7648,"지요.\r\n":7649,"하다\"고":7650,"▁이로":7651,"▁이전에":7652,"▁대외":7653,"▁수험":7654,"▁공포":7655,"▁예약":7656,"▁3대":7657,"▁만드":7658,"▁유전":7659,"▁마시":7660,"▁방한":7661,"▁박지원":7662,"▁추모":7663,"▁10만":7664,"▁얘가":7665,"▁80":7666,"▁치료를":7667,"▁갖게":7668,"▁왜곡":7669,"(29":7670,"느냐.\r\n":7671,"▁공개한":7672,"은행은":7673,"▁새누리당은":7674,"▁능력이":7675,"▁방향을":7676,"▁헌법재판":7677,"▁단일화":7678,"▁지상파":7679,".k":7680,"5)":7681,"경은":7682,"다’고":7683,"담당":7684,"담을":7685,"래\r\n":7686,"받았":7687,"발을":7688,"부문":7689,"청에":7690,"트리":7691,"▁이종":7692,"▁지가":7693,"▁하더라도":7694,"▁기사":7695,"▁“가":7696,"▁“기":7697,"▁중구":7698,"▁해.\r\n":7699,"▁\"한국":7700,"▁통해서\r\n":7701,"▁49":7702,"▁400":7703,"▁두드":7704,"▁했고,":7705,"하기가":7706,"▁총수":7707,"▁살려":7708,"▁합의를":7709,"▁환자가":7710,"▁허위":7711,"▁항소":7712,"▁곳에서":7713,"▁이미지를":7714,"▁있으니까":7715,"▁기간에":7716,"▁한편,":7717,"▁꼽힌다.\r\n":7718,"▁훈련을":7719,"▁수요가":7720,"(현지시각)":7721,"▁첨단":7722,">은":7723,"겠지만":7724,"국대":7725,"민석":7726,"원들이":7727,"참여":7728,"크를":7729,"해지는":7730,"화하고":7731,"▁한강":7732,"▁한두":7733,"▁어차피":7734,"▁가리":7735,"▁것보다":7736,"▁시에":7737,"▁나면":7738,"▁내렸다.\r\n":7739,"▁없지만":7740,"▁만남":7741,"▁유니":7742,"▁동부":7743,"▁불참":7744,"▁적응":7745,"▁얘길":7746,"▁중국과":7747,"▁세계에서":7748,"▁종료":7749,"▁얘기는":7750,"▁팀의":7751,"▁터키":7752,"▁윤리":7753,"▁맛있게":7754,"▁넣어주":7755,"▁검토하고":7756,"▁기본적으로":7757,"▁비중이":7758,"▁한꺼번에":7759,"II":7760,"·정":7761,"▁멘":7762,"▁웨":7763,"▁잉":7764,"냐면":7765,"등록":7766,"버그":7767,"트의":7768,"합니다\r\n":7769,"해져":7770,"▁사령":7771,"▁“고":7772,"▁‘전":7773,"▁인프라":7774,"▁중반":7775,"▁만났다.\r\n":7776,"▁\"북한":7777,"▁뭐라":7778,"▁김모":7779,"▁세우":7780,"▁결론":7781,"▁도요":7782,"▁회사는":7783,"▁투어":7784,"▁아이를":7785,"▁완공":7786,"▁눈길을":7787,"▁공개했다.\r\n":7788,"▁팀을":7789,"▁침몰":7790,"▁분야의":7791,"▁익숙":7792,"▁녹음":7793,"▁착수":7794,"▁칠십":7795,"▁일자리를":7796,"-3":7797,"21":7798,"88":7799,"▁앙":7800,"▁핀":7801,"냐.\r\n":7802,"드로":7803,"망이":7804,"비로":7805,"실한":7806,"심의":7807,"에너지":7808,"주주":7809,"측은":7810,"함으로써":7811,"해지고":7812,"행위":7813,"▁이랬":7814,"▁하다가":7815,"▁수업을":7816,"▁시진핑":7817,"▁다이":7818,"▁일정을":7819,"▁상처":7820,"▁의도":7821,"▁모으":7822,"▁47":7823,"▁도덕":7824,"▁영화를":7825,"▁총장은":7826,"▁그렇습니다\r\n":7827,"▁검은":7828,"▁줄여":7829,"▁취득":7830,"▁넣을":7831,"▁벌인":7832,"▁벌였다.\r\n":7833,"(23":7834,"▁국제사회":7835,"▁주장하는":7836,"▁KB":7837,"▁지지율":7838,"▁얻을":7839,"▁드러난":7840,"▁적극적인":7841,"▁캐나다":7842,"▁류현":7843,"▁부드럽":7844,"▁공화당":7845,"▁엇갈":7846,"~6":7847,"가락":7848,"나게":7849,"널드":7850,"니터":7851,"동조합":7852,"면이":7853,"미디어":7854,"세의":7855,"시오":7856,"심사":7857,"자료를":7858,"카오":7859,"했는데,":7860,"▁가스":7861,"▁가치가":7862,"▁전후":7863,"▁기대를":7864,"▁저렇게":7865,"▁세부":7866,"▁불이":7867,"▁성인":7868,"▁60%":7869,"▁참모":7870,"▁들어온":7871,"▁10개":7872,"▁살인":7873,"▁된장":7874,"▁갖는":7875,"▁왜?\r\n":7876,"▁시작해":7877,"▁복합":7878,"▁국가의":7879,"▁모두가":7880,"▁당시에":7881,"▁토마":7882,"▁코리아":7883,"▁철회":7884,"▁않았던":7885,"▁피해가":7886,"▁떠난":7887,"▁출신인":7888,"▁끌고":7889,"▁클래식":7890,"▁들여다":7891,"체육관광":7892,"대화":7893,"려\r\n":7894,"메일":7895,"석이":7896,"정도":7897,"클럽":7898,"하라는":7899,"▁그릇":7900,"▁아웃":7901,"▁사장이":7902,"▁것만":7903,"▁“수":7904,"▁‘부":7905,"▁모자":7906,"▁연휴":7907,"▁교환":7908,"▁방지":7909,"까지도":7910,"▁43":7911,"▁반찬":7912,"▁재능":7913,"▁계신":7914,"▁들어갔다.\r\n":7915,"▁매체":7916,"잖아요.":7917,"▁8시":7918,"▁194":7919,"▁점유":7920,"▁시작으로":7921,"▁광역":7922,"▁있을지":7923,"▁설명을":7924,"▁향이":7925,"▁팔아":7926,"▁탈락":7927,"▁회사의":7928,"▁몸이":7929,"▁노동자":7930,"▁어린이집":7931,"▁강남구":7932,"▁스트레":7933,"▁선진국":7934,"▁넥센":7935,"26":7936,"가스":7937,"기사":7938,"느라":7939,"데,":7940,"든가\r\n":7941,"랑\r\n":7942,"민족":7943,"아가":7944,"어는":7945,"종을":7946,"췄다.\r\n":7947,"학회":7948,"▁사흘":7949,"▁“일":7950,"▁주재":7951,"▁주주":7952,"▁주장이":7953,"▁해\r\n":7954,"▁말고\r\n":7955,"▁관중":7956,"▁마침":7957,"▁마포":7958,"▁현직":7959,"▁계기가":7960,"▁회사가":7961,"▁지금의":7962,"▁달래":7963,"▁배운":7964,"▁일본에":7965,"▁관계자":7966,"▁타자":7967,"▁넣고\r\n":7968,"▁정치를":7969,"▁쓰지":7970,"▁권리":7971,"▁처음에는":7972,"(28":7973,"▁사이의":7974,"▁국회에":7975,"▁개인적으로":7976,"▁압도":7977,"▁압수수":7978,"▁뜻이다.\r\n":7979,"▁친구들이":7980,"▁싸움":7981,"시고요\r\n":7982,"▁힘들어":7983,"▁찍어":7984,"▁IT":7985,"▁총리의":7986,"▁쉬운":7987,"▁수술을":7988,"▁기자회견에서":7989,"▁말씀드린":7990,"▁유승민":7991,"언더파":7992,"로의":7993,"만5000":7994,"셔널":7995,"시청":7996,"였습니다.\r\n":7997,"으론":7998,"▁이외":7999,"▁하도":8000,"▁어떡":8001,"▁전당":8002,"▁2시":8003,"▁2시간":8004,"▁보도록":8005,"▁시집":8006,"▁“유":8007,"▁‘인":8008,"▁해상":8009,"00원":8010,"▁오염":8011,"▁소재":8012,"▁생강":8013,"▁바꾼":8014,"▁아니라는":8015,"▁게다가":8016,"▁생각은":8017,"▁간에":8018,"▁합쳐":8019,"▁논리":8020,"▁정치인":8021,"▁편성":8022,"▁사건의":8023,"▁이야기가":8024,"▁내년부터":8025,"▁위원장":8026,"▁폐기":8027,"▁밀가루":8028,"▁전망이":8029,"▁가격은":8030,"▁기존의":8031,"▁고민을":8032,"▁바람에":8033,"▁양념을":8034,"▁늘어날":8035,"▁균형":8036,"▁섭취":8037,"▁한마디":8038,"▁클린턴":8039,"\"는":8040,"▁훈":8041,"값이":8042,"교사":8043,"금으로":8044,"기념":8045,"기\r\n":8046,"나와":8047,"이죠.\r\n":8048,"작을":8049,"제와":8050,"▁정작":8051,"▁선호":8052,"▁3년간":8053,"▁모은":8054,"▁유연":8055,"▁마주":8056,"▁김용":8057,"▁원유":8058,"▁세금을":8059,"▁반성":8060,"▁재단":8061,"▁재직":8062,"▁게시":8063,"해서는":8064,"▁음식을":8065,"▁청주":8066,"▁파는":8067,"▁의원들이":8068,"에도\r\n":8069,"▁표준":8070,"▁학생들":8071,"▁결과는":8072,"▁그게\r\n":8073,"▁30대":8074,"▁이용할":8075,"▁떨어지는":8076,"▁KBS":8077,"사업을":8078,"▁대형마트":8079,"▁필요하다고":8080,"▁정확히":8081,"▁옛날에":8082,"▁풀이된다.\r\n":8083,".1":8084,"▁린":8085,"▁펜":8086,"간다.\r\n":8087,"덜란드":8088,"상으로":8089,"통을":8090,"합니다.":8091,"화한":8092,"▁이주":8093,"▁한달":8094,"▁수주":8095,"▁보일":8096,"▁기상":8097,"▁나서\r\n":8098,"▁주고\r\n":8099,"▁중에는":8100,"다”면서":8101,"▁저렴":8102,"▁원장은":8103,"▁건의":8104,"▁생각도":8105,"▁6년":8106,"▁뒤늦게":8107,"▁살았":8108,"()이":8109,"▁약을":8110,"▁하지만\r\n":8111,"▁늘리":8112,"▁아이디어":8113,"▁표결":8114,"▁기업들이":8115,"▁처음부터":8116,"▁나오지":8117,"▁사건은":8118,"▁앞으로도":8119,"▁지지율이":8120,"▁없었던":8121,"▁있는데,":8122,"▁구속영":8123,"▁보건복지":8124,"(R":8125,"6)":8126,"90":8127,"▁몽":8128,"▁짝":8129,"국회":8130,"대학교":8131,"셔서\r\n":8132,"이상":8133,"청와대":8134,"치의":8135,"▁이민":8136,"▁하도록":8137,"▁전에\r\n":8138,"▁나섰":8139,"▁다리":8140,"▁해킹":8141,"▁공략":8142,"▁오면":8143,"▁조용":8144,"▁발달":8145,"▁강정":8146,"▁차로":8147,"▁추세":8148,"▁앞선":8149,"▁명시":8150,"▁데려":8151,"▁본부":8152,"▁이상으로":8153,"▁애가":8154,"▁사업은":8155,"▁끝내":8156,"▁사건에":8157,"▁과정에":8158,"▁별도로":8159,"▁낮추":8160,"▁청와대는":8161,"▁수준이다.\r\n":8162,"▁전망했다.\r\n":8163,"▁파트너":8164,"▁J":8165,"▁뚝":8166,"국장":8167,"독교":8168,"력도":8169,"력의":8170,"머리":8171,"산에":8172,"살을":8173,"스키":8174,"창조":8175,"채를":8176,"층에":8177,"치며":8178,"통은":8179,"▁이르면":8180,"▁이같이":8181,"▁하거나":8182,"▁시골":8183,"▁시대를":8184,"▁자존":8185,"▁‘미":8186,"▁‘오":8187,"▁비례":8188,"▁미만":8189,"▁저는\r\n":8190,"▁마감":8191,"▁김재":8192,"▁'아":8193,"▁신인":8194,"▁동기":8195,"▁당국은":8196,"▁올리는":8197,"▁성명을":8198,"▁10대":8199,"▁파리":8200,"▁운행":8201,"▁임신":8202,"▁임직원":8203,"▁찾기":8204,"▁[수도권":8205,"▁날씨":8206,"(15":8207,"▁태어난":8208,"▁이~\r\n":8209,"▁(주)":8210,"더라고.\r\n":8211,"▁출신의":8212,"·18":8213,"프로그램":8214,"▁받아들여":8215,"mm":8216,"~201":8217,"~19":8218,"감사":8219,"계열":8220,"곳을":8221,"군에":8222,"마를":8223,"목으로":8224,"저우":8225,"철도":8226,"통화":8227,"프리":8228,"▁지진":8229,"▁하긴":8230,"▁정밀":8231,"▁자.":8232,"▁자가":8233,"▁‘나":8234,"▁주의":8235,"▁해마다":8236,"▁공익":8237,"▁부적":8238,"▁부총":8239,"▁여수":8240,"▁의문":8241,"▁만날":8242,"▁42":8243,"▁결론을":8244,"▁후에":8245,"▁알바":8246,"▁데서":8247,"▁번씩":8248,"▁의원과":8249,"▁이상한":8250,"하면,":8251,"▁있었는데\r\n":8252,"▁선수들의":8253,"▁금융위기":8254,"▁분석한":8255,"▁개인의":8256,"▁외교관":8257,"▁나라의":8258,"▁1997년":8259,"▁직원들이":8260,"▁겁니까?\r\n":8261,"▁언니가":8262,"▁이해가":8263,"▁대회에서":8264,"▁그리스":8265,"▁개정안":8266,"▁똑같이":8267,"▁삭제":8268,"▁수수료":8269,"▁여의도":8270,"31":8271,"’이다.\r\n":8272,"▁日":8273,"▁쇄":8274,"곳에":8275,"당과":8276,"법의":8277,"비의":8278,"시장에서":8279,"위안":8280,"지인":8281,"▁이병":8282,"▁이혼":8283,"▁1%":8284,"▁1개":8285,"▁가자":8286,"▁것인":8287,"▁거친":8288,"▁나서는":8289,"▁‘무":8290,"▁일어난":8291,"▁오피스":8292,"▁않다는":8293,"▁되면은\r\n":8294,"▁방사":8295,"▁결코":8296,"▁스물":8297,"▁적도":8298,"▁뒤를":8299,"▁포스코":8300,"▁먹으":8301,"▁높이는":8302,"▁식초":8303,"▁최근에는":8304,"▁경찰의":8305,"▁태도":8306,"▁사용할":8307,"더라\r\n":8308,"▁기술이":8309,"▁지방자치단체":8310,"’이란":8311,"▁이사장은":8312,"▁회의에서":8313,"▁좌우":8314,"▁오른쪽":8315,"▁죄송":8316,"▁철저히":8317,"장애인":8318,"▁나름대로":8319,"▁지자체":8320,"▁붕괴":8321,"▁으로":8322,"결과":8323,"국에서":8324,"물에":8325,"방에":8326,"번홀":8327,"시리즈":8328,"이의":8329,"차별":8330,"환을":8331,"효과":8332,"▁한정":8333,"▁가려":8334,"▁전원":8335,"▁정착":8336,"▁보육":8337,"▁거.\r\n":8338,"▁내비":8339,"▁않기":8340,"▁고정":8341,"▁3명":8342,"▁최경":8343,"▁신중":8344,"▁계란":8345,"▁박수":8346,"▁박지":8347,"▁박원순":8348,"▁배추":8349,"▁뒤,":8350,"▁매장":8351,"▁민정수석":8352,"▁경우에":8353,"▁증인":8354,"▁그렇게\r\n":8355,"▁시작됐다.\r\n":8356,"▁찾았다.\r\n":8357,"▁리포":8358,"▁군대":8359,"▁권고":8360,"위원회에":8361,"▁기준이":8362,"▁급여":8363,"▁경쟁을":8364,"▁그때는":8365,"▁자체를":8366,"▁있고요.\r\n":8367,"▁테이":8368,"▁붙어":8369,"▁지나치게":8370,"▁꼽았다.\r\n":8371,"▁끝나고":8372,"▁법무부":8373,"▁백악관":8374,"(사진":8375,"군사":8376,"다,":8377,"다'는":8378,"대결":8379,"로그":8380,"로도":8381,"웠던":8382,"이도":8383,"작업":8384,"타수":8385,"하느냐":8386,"향을":8387,"황이":8388,"▁1명":8389,"▁자민":8390,"▁‘가":8391,"▁인민":8392,"▁미친":8393,"▁저장":8394,"▁저항":8395,"▁문건":8396,"▁그래.\r\n":8397,"▁신호":8398,"▁당부":8399,"▁4만":8400,"▁회계":8401,"▁할아버":8402,"▁명령":8403,"▁북쪽":8404,"▁7시":8405,"▁금강":8406,"▁번에":8407,"▁점은":8408,"▁담겨":8409,"▁손님":8410,"▁벌금":8411,"▁사업이":8412,"▁로켓":8413,"▁금융위":8414,"▁이용한":8415,"▁친구가":8416,"▁K리그":8417,"▁따르면,":8418,"▁하루에":8419,"▁중심의":8420,"▁않아도":8421,"▁끊임":8422,"▁수익을":8423,"▁아닙니까?\r\n":8424,"▁비서실":8425,"\"며":8426,"0)":8427,"it":8428,"’...":8429,"▁벼":8430,"개인":8431,"됐을":8432,"로가":8433,"상태":8434,"와\r\n":8435,"일)":8436,"졌을":8437,"지고\r\n":8438,"크스":8439,"확인":8440,"▁지목":8441,"▁수영":8442,"▁전주":8443,"▁정년":8444,"▁시점":8445,"▁“1":8446,"하고는":8447,"▁선포":8448,"▁들은":8449,"▁54":8450,"▁5년간":8451,"▁노후":8452,"▁적절":8453,"▁명문":8454,"▁먹고\r\n":8455,"▁만들기":8456,"▁이번엔":8457,"▁교육부":8458,"▁형식":8459,"(27":8460,"▁토지":8461,"▁평가가":8462,"▁라디오":8463,"▁나타난":8464,"▁봤다.\r\n":8465,"▁서울시장":8466,"▁인간의":8467,"▁즐길":8468,"▁밑에":8469,"▁약속을":8470,"▁바꾸는":8471,"▁객관":8472,"▁눌러":8473,">의":8474,"~8":8475,"관,":8476,"동성":8477,"리랑":8478,"면으로":8479,"배우":8480,"부대":8481,"선에서":8482,"셔츠":8483,"화,":8484,"▁이사회":8485,"▁지어":8486,"▁정몽":8487,"▁정수":8488,"▁보냈다.\r\n":8489,"▁‘그":8490,"▁일에":8491,"▁중시":8492,"▁부른":8493,"▁소셜":8494,"▁유학":8495,"▁문화를":8496,"▁개월":8497,"▁알리는":8498,"에게도":8499,"▁6자회담":8500,"▁특혜":8501,"▁매주":8502,"▁청소":8503,"▁청약":8504,"▁대표를":8505,"▁걸릴":8506,"▁간담":8507,"▁193":8508,"▁각오":8509,"▁식의":8510,"▁버디":8511,"▁리스트":8512,"▁메뉴":8513,"▁좋아하":8514,"▁운영하고":8515,"▁과정이":8516,"▁헌재":8517,"▁건강보험":8518,"▁고려대":8519,"▁사무실":8520,"▁밥을":8521,"▁풍부":8522,"보다는\r\n":8523,"▁갈등이":8524,"▁치열한":8525,"▁칭찬":8526,"YT":8527,"공연":8528,"등포":8529,"라서":8530,"바람":8531,"지않":8532,"친구":8533,"켰다.\r\n":8534,"평도":8535,"하니":8536,"▁대장":8537,"▁사기":8538,"▁가라":8539,"▁시위를":8540,"▁“인":8541,"▁자영업":8542,"▁네덜란드":8543,"▁부자":8544,"▁부패":8545,"▁때보다":8546,"▁관찰":8547,"▁관리를":8548,"▁\"사":8549,"▁\"우":8550,"▁김일":8551,"▁동해":8552,"▁현안":8553,"▁맞게":8554,"▁정부에서":8555,"▁삼아":8556,"▁데리고":8557,"▁피부":8558,"▁정도\r\n":8559,"▁취지":8560,"▁아이폰":8561,"▁이어진":8562,"▁이어졌다.\r\n":8563,"▁연구원은":8564,"▁메모":8565,"▁토대로":8566,"▁측이":8567,"▁가족이":8568,"▁머리를":8569,"▁회사에":8570,"▁답답":8571,"▁주민들이":8572,"▁일단은":8573,"학년도":8574,"▁콘서트":8575,"▁땅을":8576,"▁제시했다.\r\n":8577,"▁밖으로":8578,"▁넷":8579,"급식":8580,"대요.\r\n":8581,"두에":8582,"바른":8583,"비서":8584,"용으로":8585,"일은":8586,"장기":8587,"화\r\n":8588,"▁대량":8589,"▁가기":8590,"▁가만":8591,"▁“국민":8592,"▁나갔":8593,"▁일고":8594,"▁예외":8595,"▁모았다.\r\n":8596,"▁모니터":8597,"▁원장":8598,"▁바쁘":8599,"▁대한\r\n":8600,"▁배상":8601,"▁그렇고\r\n":8602,"▁7개":8603,"▁된다\r\n":8604,"▁막아":8605,"▁걸리":8606,"▁높았다.\r\n":8607,"▁일본에서":8608,"▁지난해보다":8609,"▁치즈":8610,"▁사회복지":8611,"▁아이디":8612,"▁책이":8613,"▁환율":8614,"▁학생을":8615,"요.\"\r\n":8616,"▁삼성은":8617,"▁발표를":8618,"▁만들어진":8619,"▁면에서":8620,"▁포함돼":8621,"▁포함된":8622,"▁봐도":8623,"▁규모는":8624,"▁기대하고":8625,"▁그리구":8626,"▁듯\r\n":8627,"▁공연을":8628,"▁아버지가":8629,"▁주시구요.\r\n":8630,"▁그림을":8631,"▁느끼는":8632,"▁희망을":8633,"▁플레이오프":8634,"BM":8635,"관과":8636,"마켓":8637,"사정":8638,"수,":8639,"여대":8640,"으려":8641,"제이":8642,"체계":8643,"층을":8644,"편이":8645,"피해":8646,"▁이젠":8647,"▁이중":8648,"▁대가":8649,"▁사항":8650,"▁보급":8651,"▁시어머니":8652,"▁‘최":8653,"▁안민석":8654,"▁예능":8655,"▁오고":8656,"▁고생":8657,"▁선제":8658,"▁만만":8659,"▁소수":8660,"▁되니까":8661,"▁같고\r\n":8662,"▁마디":8663,"▁원,":8664,"▁실내":8665,"▁회사를":8666,"▁직장인":8667,"▁매력":8668,"▁정도다.\r\n":8669,"▁90%":8670,"▁치매":8671,"▁산림":8672,"▁이어지는":8673,"▁학생부":8674,"▁저희는":8675,"▁저희들이":8676,"▁좋아요.\r\n":8677,"▁추진하는":8678,"그룹의":8679,"▁참석했다.\r\n":8680,"▁우리나라의":8681,"▁노래를":8682,"▁것처럼\r\n":8683,"▁단순히":8684,"▁갤럭시":8685,"▁목숨을":8686,".kr":8687,"(D":8688,".co":8689,"IS":8690,"~1":8691,"·수":8692,"▁꼴":8693,"글랜드":8694,"랫폼":8695,"병을":8696,"사태":8697,"산의":8698,"용은":8699,"유로":8700,"추진":8701,"한데":8702,"할지":8703,"했다\"며":8704,"▁이례":8705,"▁한양":8706,"▁수습":8707,"▁것일":8708,"▁거절":8709,"▁다룬":8710,"▁다큐":8711,"▁‘자":8712,"▁‘한국":8713,"▁주기":8714,"▁등판":8715,"▁부각":8716,"▁안되":8717,"▁여부":8718,"▁고기를":8719,"▁선전":8720,"▁비결":8721,"▁소리가":8722,"▁유기":8723,"▁미치는":8724,"▁저런":8725,"▁많고":8726,"....":8727,"▁신입":8728,"▁신조":8729,"▁동시":8730,"▁성사":8731,"▁입사":8732,"▁맞고":8733,"▁배워":8734,"▁그렇기":8735,"▁그렇습니다.":8736,"▁포털":8737,"▁프레":8738,"▁국민을":8739,"거든요":8740,"▁아이가":8741,"▁나오면":8742,"▁것을\r\n":8743,"▁만들어야":8744,"▁요구한":8745,"▁축하":8746,"▁조금만":8747,"▁추진하고":8748,"▁개발을":8749,"▁개발한":8750,"▁잠수":8751,"▁언론에":8752,"▁마지막으로":8753,"▁사고가":8754,"▁CJ":8755,"▁작년에":8756,"▁해당하는":8757,"▁정권의":8758,"▁사랑을":8759,"▁싱가":8760,"주년을":8761,"▁텐데\r\n":8762,"▁촉구했다.\r\n":8763,"▁앨범":8764,"▁에어컨":8765,"99":8766,"▁x":8767,"공화":8768,"권은":8769,"네요\r\n":8770,"뉴욕":8771,"단독":8772,"문과":8773,"받침":8774,"세이":8775,"여성":8776,"정지":8777,"청소년":8778,"치에":8779,"파일":8780,"▁이렇":8781,"▁이론":8782,"▁이마트":8783,"▁수리":8784,"▁2조":8785,"▁시기에":8786,"▁“자":8787,"▁‘김":8788,"▁주제":8789,"▁해운":8790,"▁예쁘":8791,"▁없고,":8792,"▁유로":8793,"▁되돌":8794,"▁되죠.\r\n":8795,"▁생길":8796,"▁그래요?\r\n":8797,"▁'이":8798,"▁당분간":8799,"▁4차":8800,"▁불교":8801,"▁실행":8802,"▁건데":8803,"▁건조":8804,"▁확충":8805,"▁음반":8806,"▁단기":8807,"▁금호":8808,"▁대표적":8809,"▁심의":8810,"▁교육의":8811,"▁책은":8812,"▁버리":8813,"▁부분도":8814,"▁않는다는":8815,"▁검찰총":8816,"▁정말\r\n":8817,"▁내년에":8818,"▁상태가":8819,"▁1999년":8820,"습니다.”\r\n":8821,"▁빈곤":8822,"·15":8823,"▁공정거래":8824,"▁품질":8825,"▁냉장":8826,"▁뭐냐면":8827,"▁국토해양":8828,"▁중간에":8829,"▁색깔이":8830,"ing":8831,"▁무서워":8832,"▁동영상":8833,"▁6·25":8834,"▁도요타":8835,"'도":8836,"(0.":8837,"48":8838,"75":8839,"FC":8840,"he":8841,"▁컵":8842,"▁텔레":8843,"가능":8844,"든\r\n":8845,"라가":8846,"르기":8847,"먼트":8848,"부채":8849,"사항":8850,"슬림":8851,"아웃":8852,"학기":8853,"▁이비에스":8854,"▁그에":8855,"▁있다가":8856,"▁아픈":8857,"▁지표":8858,"▁한류":8859,"▁한창":8860,"▁한데\r\n":8861,"▁수색":8862,"▁전세계":8863,"▁보증":8864,"▁나간":8865,"▁‘안":8866,"▁내어":8867,"▁고쳐":8868,"▁상금":8869,"▁유가족":8870,"▁저를":8871,"▁많습니다.\r\n":8872,"▁요건":8873,"▁신세계":8874,"▁그러지":8875,"▁진정한":8876,"▁노벨":8877,"▁입맛":8878,"▁참사":8879,"▁직원이":8880,"▁설정":8881,"▁드라이":8882,"▁2017년":8883,"들을\r\n":8884,"처럼\r\n":8885,"▁경제가":8886,"(21":8887,"▁그럼에도":8888,"▁와이":8889,"▁개발에":8890,"▁결정할":8891,"▁위원장이":8892,"▁퇴진":8893,"▁읽고":8894,"▁대비해":8895,"▁푸틴":8896,"▁곱":8897,"능력":8898,"다’":8899,"대구":8900,"됐지만":8901,"료가":8902,"보기":8903,"사들은":8904,"성도":8905,"양을":8906,"역에서":8907,"자마자":8908,"트럼프":8909,"했으며":8910,"▁그저":8911,"▁대만":8912,"▁보시면":8913,"▁시상":8914,"▁거세":8915,"▁나란히":8916,"▁자국":8917,"▁‘1":8918,"▁인증":8919,"▁해임":8920,"▁내걸":8921,"▁내면":8922,"▁조카":8923,"▁연관":8924,"▁개설":8925,"▁남긴":8926,"▁추억":8927,"▁외면":8928,"▁배가":8929,"▁작전":8930,"▁금감":8931,"▁8개":8932,"▁드렸":8933,"▁점수를":8934,"▁높게":8935,"▁치른":8936,"습니다만\r\n":8937,"▁지역을":8938,"▁잡는":8939,"한테\r\n":8940,"▁토요일":8941,"▁친구들":8942,"▁이름으로":8943,"▁휴대":8944,"▁으~":8945,"정책을":8946,"▁끓이":8947,"▁다르다.\r\n":8948,"경찰청":8949,"▁판결을":8950,"▁제안했다.\r\n":8951,"▁PD":8952,"▁어우러":8953,"▁세종시":8954,"www":8955,"ic":8956,"겠죠.\r\n":8957,"고의":8958,"공장":8959,"구요":8960,"다면\r\n":8961,"두를":8962,"리즘":8963,"살이":8964,"여행":8965,"제작":8966,"집에":8967,"하우스":8968,"현은":8969,"▁사정":8970,"▁지명":8971,"▁지은":8972,"▁지향":8973,"▁한쪽":8974,"▁것”":8975,"▁“신":8976,"▁자금을":8977,"▁내놨다.\r\n":8978,"▁없게":8979,"▁\"어":8980,"▁구청":8981,"▁그러면은\r\n":8982,"▁당한":8983,"▁현장을":8984,"▁4강":8985,"▁남았":8986,"▁차가":8987,"▁차라리":8988,"▁과목":8989,"▁들어선":8990,"▁들어왔":8991,"▁미국을":8992,"▁살이":8993,"▁행동을":8994,"하지는":8995,"()가":8996,"▁담고":8997,"▁아이들을":8998,"▁세계적으로":8999,"▁독특":9000,"▁대학원":9001,"▁첫날":9002,"▁접속":9003,"▁않았을":9004,"▁범행":9005,"▁분석을":9006,"케이션":9007,"▁있으면\r\n":9008,"▁살아남":9009,"▁알아서":9010,"▁신뢰를":9011,"▁아시안":9012,"▁관측이":9013,"(201":9014,"▁압수수색":9015,"▁곽":9016,"군을":9017,"기능":9018,"리케":9019,"면적":9020,"뮤니":9021,"산화":9022,"선으로":9023,"설팅":9024,"소한":9025,"아는":9026,"영은":9027,"오고":9028,"으셨":9029,"즈니스":9030,"키는":9031,"평을":9032,"학규":9033,"에서는\r\n":9034,"▁지침":9035,"▁하드":9036,"▁전까지":9037,"▁2명":9038,"▁나빠":9039,"▁나는\r\n":9040,"▁인류":9041,"▁고개를":9042,"▁모색":9043,"▁소식을":9044,"▁유학생":9045,"▁김경":9046,"▁이제~":9047,"▁무력":9048,"▁통산":9049,"▁바꿀":9050,"▁근육":9051,"▁도서관":9052,"▁성장을":9053,"▁영등포":9054,"▁입원":9055,"▁적어":9056,"▁문제도":9057,"▁파업":9058,"▁80%":9059,"▁논의를":9060,"▁교육과":9061,"▁화성":9062,"▁벌여":9063,"▁기업에":9064,"▁완료":9065,"▁이유다.\r\n":9066,"▁(0":9067,"▁참여를":9068,"느냐\r\n":9069,"▁장관의":9070,"▁방송을":9071,"▁xxxx":9072,"▁기간이":9073,"▁붙여":9074,"▁전략을":9075,"▁IS":9076,"▁민간인":9077,"▁제출한":9078,"▁섞어":9079,"▁훌한":9080,"게는":9081,"기기":9082,"니\r\n":9083,"다리":9084,"된다”고":9085,"들로부터":9086,"번호":9087,"벌이":9088,"병우":9089,"보건":9090,"조의":9091,"주지":9092,"준표":9093,"집니다.\r\n":9094,"타르":9095,"평등":9096,"▁그들의":9097,"▁있다.":9098,"▁가질":9099,"▁2층":9100,"▁거거든요.\r\n":9101,"▁자제":9102,"▁해가지고":9103,"▁내각":9104,"▁공안":9105,"하고도":9106,"▁고수":9107,"▁3시":9108,"▁\"한":9109,"▁\"우리":9110,"▁서서":9111,"▁서해":9112,"▁원정":9113,"▁분들은":9114,"▁구워":9115,"▁바둑":9116,"▁강연":9117,"▁성폭력":9118,"▁학년":9119,"▁대한항공":9120,"▁6시":9121,"▁응시":9122,"▁민생":9123,"▁그렇고":9124,"▁포스트":9125,"▁번\r\n":9126,"▁아이돌":9127,"▁다음날":9128,"▁표정":9129,"▁교수(":9130,"▁호흡":9131,"▁연구개발":9132,"(17":9133,"▁놓고\r\n":9134,"위원회에서":9135,"▁트렌":9136,"▁향한":9137,"▁수준에":9138,"▁요즘에":9139,"▁규모로":9140,"▁답을":9141,"▁침체":9142,"▁어렵게":9143,"▁성공한":9144,"▁대부분이":9145,"▁현실을":9146,"▁꿈꾸":9147,"▁반면,":9148,"▁무엇을":9149,"▁사태가":9150,"▁억울":9151,"▁당국자는":9152,"▁2020년":9153,"▁“최근":9154,"▁종로구":9155,"▁하여튼":9156,"인터넷":9157,")·":9158,"65":9159,"▁딜":9160,"고도":9161,"곳의":9162,"공정":9163,"내지":9164,"냐면\r\n":9165,"네트워크":9166,"디자인":9167,"봐\r\n":9168,"위,":9169,"체제":9170,"치면":9171,"학습":9172,"화해":9173,"▁있나":9174,"▁사우":9175,"▁것들":9176,"▁시나":9177,"▁시대에":9178,"▁기타":9179,"▁거리가":9180,"▁“다":9181,"▁‘우":9182,"▁‘유":9183,"▁‘지":9184,"▁인기가":9185,"▁주면":9186,"▁주셨":9187,"▁말이다.\r\n":9188,"▁내보":9189,"▁미칠":9190,"▁서른":9191,"▁교도":9192,"▁아니야?\r\n":9193,"▁들을":9194,"▁강릉":9195,"▁박태":9196,"▁대통령에":9197,"▁서울에서":9198,"▁배를":9199,"▁양쪽":9200,"▁포착":9201,"▁대표하는":9202,"▁중국인":9203,"▁점심":9204,"▁증명":9205,"▁규정을":9206,"▁쓰레":9207,"▁기업을":9208,"▁대학의":9209,"▁선수들은":9210,"▁조사됐다.\r\n":9211,"▁여기다가":9212,"▁천연":9213,"▁설명이다.\r\n":9214,"▁축제":9215,"▁경쟁력":9216,"▁있고.\r\n":9217,"▁찍은":9218,"▁자연스럽게":9219,"▁느낌을":9220,"▁진출을":9221,"▁음악을":9222,"▁나아가":9223,"▁반박했다.\r\n":9224,"국정":9225,"두환":9226,"르크":9227,"리면서":9228,"바닥":9229,"석에":9230,"원자":9231,"트에":9232,"하긴":9233,"▁이백":9234,"▁그해":9235,"▁전개":9236,"▁2~3":9237,"▁시중":9238,"▁주류":9239,"▁주가가":9240,"▁경기에":9241,"▁말에":9242,"00억원":9243,"▁부르는":9244,"▁오이":9245,"▁여객":9246,"▁여행을":9247,"▁없으면":9248,"▁고전":9249,"▁유발":9250,"▁김진":9251,"▁신흥":9252,"▁진학":9253,"▁4대":9254,"▁올리고":9255,"▁실태":9256,"▁건\r\n":9257,"▁단어":9258,"▁뒤로":9259,"▁점이다.\r\n":9260,"▁높여":9261,"▁필요하다.\r\n":9262,"▁국가안보":9263,"▁편입":9264,"▁돈은":9265,"(22":9266,"(24":9267,"▁항목":9268,"▁수사에":9269,"▁상태로":9270,"▁빼고":9271,"▁비용이":9272,"관계가":9273,"▁잃은":9274,"▁뒷받침":9275,"▁이익을":9276,"▁따뜻한":9277,"▁민주통합당":9278,"▁오피스텔":9279,"(주":9280,"33":9281,"le":9282,"▁.\r\n":9283,"감도":9284,"겨울":9285,"고교":9286,"고용":9287,"공사는":9288,"술을":9289,"실점":9290,"이로":9291,"치기":9292,"프리카":9293,"▁이영":9294,"▁어떨":9295,"▁보겠습니다.\r\n":9296,"▁거잖아요.\r\n":9297,"▁거를\r\n":9298,"▁“새":9299,"▁해왔":9300,"▁없어서":9301,"▁또다시":9302,"▁신임":9303,"▁분은":9304,"▁강의를":9305,"▁장비":9306,"▁박물관":9307,"▁차원의":9308,"▁열릴":9309,"▁따져":9310,"▁출국":9311,"▁파키스탄":9312,"▁의원들은":9313,"▁정도를":9314,"▁위해선":9315,"▁담에":9316,"▁협박":9317,"▁돈으로":9318,"▁볼까요?\r\n":9319,"▁육수":9320,"▁아닌데":9321,"▁일부러":9322,"▁급격":9323,"은행의":9324,"▁존경":9325,"▁퇴근":9326,"▁정권이":9327,"▁실시한":9328,"▁정확하게":9329,"▁금메달을":9330,"▁태양광":9331,"▁융합":9332,"▁고구마":9333,"▁수험생":9334,"▁토마토":9335,"'과":9336,"'라고":9337,"55":9338,"67":9339,"is":9340,"고한":9341,"구속":9342,"국으로":9343,"당에서":9344,"법상":9345,"사이":9346,"선진":9347,"었고":9348,"임대":9349,"작가":9350,"청년":9351,"하다”며":9352,"▁이성":9353,"▁지사는":9354,"▁1회":9355,"▁전임":9356,"▁2주":9357,"▁기증":9358,"▁거뒀다.\r\n":9359,"▁나중":9360,"▁자리가":9361,"▁‘보":9362,"▁안방":9363,"▁위에서":9364,"▁상업":9365,"▁불투":9366,"▁불만을":9367,"▁받으면":9368,"▁재건축":9369,"▁장착":9370,"▁좀더":9371,"▁차기":9372,"▁게이트":9373,"▁적절한":9374,"▁새해":9375,"▁평범":9376,"▁작동":9377,"▁포르":9378,"▁사실은\r\n":9379,"▁타율":9380,"▁세계를":9381,"▁세계적":9382,"▁국내에":9383,"▁아주\r\n":9384,"▁보여준":9385,"▁대선후보":9386,"▁어렵다는":9387,"▁분야에":9388,"▁읽는":9389,"▁요렇게\r\n":9390,"▁나가서":9391,"▁나와서":9392,"▁넘어가":9393,"▁뿐만":9394,"▁즐거":9395,"30분":9396,"▁아빠가":9397,"교육청은":9398,"▁돕는":9399,"▁랭킹":9400,"(파":9401,"’인":9402,"감은":9403,"겁게":9404,"국과":9405,"국장은":9406,"기까지":9407,"대와":9408,"된다고":9409,"디언":9410,"려서":9411,"실장은":9412,"요한":9413,"유산":9414,"인사":9415,"졌다는":9416,"청을":9417,"축제":9418,"투쟁":9419,"패를":9420,"회장":9421,"▁이겨":9422,"▁대략":9423,"▁아파":9424,"▁자기는":9425,"▁다수":9426,"▁‘동":9427,"▁해주시":9428,"▁해가지고\r\n":9429,"▁내렸":9430,"▁공약을":9431,"▁소외":9432,"▁연다.\r\n":9433,"▁저거":9434,"▁저축은행":9435,"▁요금":9436,"▁신경을":9437,"▁무효":9438,"▁분들도":9439,"▁그런거":9440,"▁당근":9441,"▁두부":9442,"▁못하게":9443,"▁열렸다.\r\n":9444,"▁문제와":9445,"▁것이었다.\r\n":9446,"▁너는":9447,"()에":9448,"▁의원도":9449,"▁손질":9450,"▁돼있":9451,"▁학생들을":9452,"▁태어나":9453,"▁트로":9454,"▁병역":9455,"더라.\r\n":9456,"▁문화재":9457,"▁돌아온":9458,"▁급속":9459,"▁만나는":9460,"▁노동당":9461,"▁인사청문":9462,"민주주의":9463,"▁빨간":9464,"▁합의가":9465,"▁판단을":9466,"▁증가했다.\r\n":9467,"▁걱정이":9468,"▁방안도":9469,"▁원칙을":9470,"▁누리꾼":9471,"▁삼성전자는":9472,"▁대단히":9473,"·사진)":9474,"PGA":9475,"▁춘천":9476,"2000":9477,"고와":9478,"길이":9479,"까요":9480,"동에서":9481,"들,":9482,"리다":9483,"명)":9484,"배를":9485,"비시":9486,"스에서":9487,"아의":9488,"었다”고":9489,"역에":9490,"위와":9491,"이한":9492,"장한":9493,"포럼":9494,"행사":9495,"환자":9496,"▁그죠?\r\n":9497,"▁아쉽":9498,"▁어서":9499,"▁것인지":9500,"▁보게":9501,"▁기재":9502,"▁‘노":9503,"▁‘세":9504,"▁경상":9505,"▁제안을":9506,"▁오세":9507,"▁상한":9508,"▁되도록":9509,"▁\"내":9510,"▁최신":9511,"▁같습니다\r\n":9512,"▁동계":9513,"▁우리가\r\n":9514,"▁바다.\r\n":9515,"▁발전을":9516,"▁성명":9517,"▁장례":9518,"▁스티":9519,"▁배당":9520,"▁직무":9521,"▁줄일":9522,"▁관련이":9523,"▁담보":9524,"▁시간은":9525,"억원으로":9526,"▁됐을":9527,"▁쪽에서":9528,"▁태풍":9529,"▁사용한":9530,"이었습니다.\r\n":9531,"▁정책에":9532,"▁향상":9533,"▁격려":9534,"▁티켓":9535,"▁웃었다.\r\n":9536,"▁제시한":9537,"▁상품을":9538,"▁필요하다는":9539,"▁니가":9540,"스러워":9541,"▁뛰어넘":9542,"▁혈압":9543,"자이너":9544,"47":9545,"돈을":9546,"래는":9547,"러시아":9548,"르트":9549,"마크":9550,"세요.":9551,"소연":9552,"실,":9553,"실의":9554,"요금":9555,"인,":9556,"타로":9557,"플러스":9558,"하더라도":9559,"허가":9560,"▁그중":9561,"▁1호":9562,"▁가공":9563,"▁것도\r\n":9564,"▁정지":9565,"▁보다는":9566,"▁다를":9567,"▁다운":9568,"▁경주":9569,"▁국외":9570,"▁예전에":9571,"▁의장":9572,"▁유형":9573,"▁유전자":9574,"▁분열":9575,"▁아니다”라고":9576,"▁외에도":9577,"▁손학규":9578,"▁하나씩":9579,"▁교수의":9580,"▁지역구":9581,"▁준비하고":9582,"▁몰래":9583,"▁폭행":9584,"▁년에":9585,"▁추진할":9586,"▁문화체육관광":9587,"▁민주당이":9588,"▁경쟁이":9589,"▁약간\r\n":9590,"▁패러":9591,"▁자유한국":9592,"▁성공했다.\r\n":9593,"▁논의가":9594,"▁이뤄지지":9595,"▁CEO":9596,"▁이것은":9597,"▁위험이":9598,"▁흥미":9599,"▁재미있":9600,"▁무료로":9601,"▁대우조선":9602,"▁관람객":9603,"▁정규리그":9604,"▁초등학생":9605,"'와":9606,"B)":9607,"NN":9608,"▁듭":9609,"▁텍":9610,"곳이":9611,"국어":9612,"단과":9613,"동강":9614,"들고":9615,"리,":9616,"세와":9617,"심한":9618,"운용":9619,"웨덴":9620,"지능":9621,"터를":9622,"토론":9623,"하러":9624,"하죠.\r\n":9625,"▁사전에":9626,"▁어게":9627,"▁전담":9628,"▁전에는":9629,"▁기도":9630,"▁일간":9631,"▁조례":9632,"▁비가":9633,"▁3%":9634,"▁3위":9635,"▁생기는":9636,"▁그래도\r\n":9637,"▁같다\"고":9638,"▁마리":9639,"▁교섭":9640,"▁원)":9641,"▁세무":9642,"▁무용":9643,"▁당의":9644,"▁불출":9645,"▁결제":9646,"▁도대체":9647,"▁도널드":9648,"▁반대로":9649,"▁5시":9650,"▁평택":9651,"▁역량을":9652,"▁간장":9653,"위원장이":9654,"▁점포":9655,"▁9개":9656,"▁준공":9657,"▁돼지":9658,"▁규칙":9659,"▁120":9660,"▁잡았다.\r\n":9661,"다면,":9662,"▁농구":9663,"▁곳이다.\r\n":9664,"▁국회가":9665,"▁보인다”고":9666,"▁별도의":9667,"(30":9668,"▁마련해":9669,"▁침묵":9670,"▁같아.\r\n":9671,"▁통일부":9672,"▁개정안을":9673,"▁잇달아":9674,"▁협력업체":9675,"▁필요하다”고":9676,"▁GS":9677,"▁유일하게":9678,"▁밝히지":9679,"▁안팎의":9680,"▁예예.\r\n":9681,"▁멸치":9682,"▁성폭행":9683,"▁앞세워":9684,"▁비례대표":9685,"▁띠":9686,"▁슨":9687,"▁니다.\r\n":9688,"가며":9689,"구.\r\n":9690,"나라는":9691,"디션":9692,"라의":9693,"만9":9694,"만여":9695,"문재인":9696,"백을":9697,"법과":9698,"변호":9699,"보증":9700,"부처":9701,"상담":9702,"소의":9703,"스턴":9704,"식에서":9705,"으니까.\r\n":9706,"잡고":9707,"하니까":9708,"홈런":9709,"▁이라크":9710,"▁대대":9711,"▁어릴":9712,"▁등이다.\r\n":9713,"▁중산":9714,"▁해설":9715,"▁안산":9716,"▁위주로":9717,"다”라며":9718,"▁관할":9719,"▁비핵":9720,"는데요\r\n":9721,"▁그런데\r\n":9722,"▁동성":9723,"▁발탁":9724,"▁발효":9725,"▁도망":9726,"▁성적이":9727,"▁사람이\r\n":9728,"▁남부":9729,"▁감동":9730,"▁생각할":9731,"▁맞습니다.\r\n":9732,"▁75":9733,"▁금액":9734,"▁대표님":9735,"보다\r\n":9736,"▁심한":9737,"▁줄이는":9738,"▁채워":9739,"▁광복":9740,"▁광화문":9741,"▁대학을":9742,"▁최고경영":9743,"▁육군":9744,"▁현대자동차":9745,"▁결정이":9746,"느냐”고":9747,"▁보여준다.\r\n":9748,"▁전체를":9749,"▁전체의":9750,"▁새누리당이":9751,"▁않아요.\r\n":9752,"▁퇴출":9753,"▁환경을":9754,"▁활용할":9755,"▁50여":9756,"▁선언했다.\r\n":9757,"▁부회장":9758,"▁괴롭":9759,"스티벌":9760,"▁최악의":9761,"www.":9762,"38":9763,"▁멍":9764,"▁찰":9765,"기본":9766,"문에":9767,"물은":9768,"본부는":9769,"심은":9770,"졌다고":9771,"합의":9772,"행복":9773,"▁그간":9774,"▁2%":9775,"▁거죠":9776,"▁“원":9777,"▁자위":9778,"▁자택":9779,"▁주식을":9780,"▁없어.\r\n":9781,"▁유해":9782,"▁\"당":9783,"▁또다른":9784,"▁방과":9785,"▁신동":9786,"▁신체":9787,"▁41":9788,"▁사람한테":9789,"▁더\r\n":9790,"▁했고\r\n":9791,"▁좋게":9792,"▁행보":9793,"▁후보자가":9794,"▁교육이":9795,"▁현재의":9796,"▁눈물을":9797,"▁정책이":9798,"▁용의":9799,"▁모르고":9800,"(33":9801,"▁강조하는":9802,"▁테마":9803,"▁1990년대":9804,"▁방법은":9805,"▁해결할":9806,"▁견제":9807,"▁비교해":9808,"▁옆에서":9809,"▁사태를":9810,"▁쇼트":9811,"▁“지금":9812,"▁조건을":9813,"▁맥주":9814,"▁“지난해":9815,"▁내다봤다.\r\n":9816,"▁전교조":9817,"ou":9818,"▁둥":9819,"▁탕":9820,"개선":9821,"관으로":9822,"민은":9823,"배상":9824,"서치":9825,"업무":9826,"욕을":9827,"으면은":9828,"크라":9829,"키로":9830,"풀이":9831,"회로":9832,"▁이쪽":9833,"▁있습니까?\r\n":9834,"▁있잖아\r\n":9835,"▁아랍":9836,"▁사내":9837,"▁지점":9838,"▁지분을":9839,"▁가전":9840,"▁다문화":9841,"▁‘일":9842,"▁인상을":9843,"▁내수":9844,"▁예금":9845,"▁관행":9846,"▁연어":9847,"▁바르":9848,"▁당신":9849,"▁도박":9850,"▁재개발":9851,"▁장난":9852,"▁감정을":9853,"▁과일":9854,"▁물었다.\r\n":9855,"▁검사를":9856,"▁처방":9857,"▁처분":9858,"▁점차":9859,"이라던":9860,"▁사회에서":9861,"▁아이들은":9862,"▁찾지":9863,"▁종사":9864,"▁식사":9865,"▁사업의":9866,"▁날아":9867,"▁날짜":9868,"▁카레":9869,"▁잡았":9870,"▁됐어요.\r\n":9871,"▁만들어서":9872,"교육을":9873,"▁일부를":9874,"▁그랬는데\r\n":9875,"▁떨어뜨":9876,"▁떨어졌다.\r\n":9877,"▁아직은":9878,"▁죽을":9879,"▁마련한":9880,"▁휴가":9881,"▁드러냈다.\r\n":9882,"▁혐의(":9883,"▁지도부":9884,"▁뿐이다.\r\n":9885,"▁딸이":9886,"▁IC":9887,"▁벗어":9888,"▁믿고":9889,"▁주목된다.\r\n":9890,"▁MB":9891,"▁나선다.\r\n":9892,"▁규정하고":9893,"▁늘어났다.\r\n":9894,"▁대체로":9895,"▁피아노":9896,"▁탱":9897,"권과":9898,"글로벌":9899,"나,":9900,"나리":9901,"내야":9902,"모임":9903,"물의":9904,"받지":9905,"부담":9906,"비,":9907,"상공":9908,"순위":9909,"익을":9910,"진영":9911,"타운":9912,"피를":9913,"함에":9914,"▁이석":9915,"▁아저":9916,"에서만":9917,"▁하는데,":9918,"▁수급":9919,"▁수를":9920,"▁가락":9921,"▁정성":9922,"▁“조":9923,"▁네트워크":9924,"▁‘중":9925,"▁인건":9926,"▁인문":9927,"▁주부":9928,"▁오를":9929,"▁우린":9930,"▁우병우":9931,"▁고가루":9932,"▁상생":9933,"▁모비스":9934,"▁유세":9935,"▁원조":9936,"▁요소":9937,"▁근대":9938,"▁올렸":9939,"▁성범죄":9940,"▁사람들에게":9941,"▁특유의":9942,"▁물질":9943,"▁음성":9944,"▁삼성이":9945,"▁7년":9946,"▁법안을":9947,"▁초래":9948,"▁192":9949,"▁후보와":9950,"▁판사":9951,"▁국민에게":9952,"▁채무":9953,"▁편하게":9954,"▁갈라":9955,"▁허가":9956,"▁대학교":9957,"▁창단":9958,"▁농촌":9959,"▁병원에":9960,"▁이용하는":9961,"▁돌아오":9962,"▁확인한":9963,"▁터져":9964,"▁선거에서":9965,"▁국정조사":9966,"▁죽은":9967,"▁주민들의":9968,"민주화":9969,"▁방법으로":9970,"▁참석해":9971,"▁마지막에":9972,"▁플랫폼":9973,"▁이뤄질":9974,"▁방문한":9975,"▁공무원연금":9976,"▁걔가":9977,"▁여야가":9978,"생활을":9979,"▁형태의":9980,"했으나,":9981,"▁자원봉사":9982,"▁냄새가":9983,"▁멈추":9984,"▁타임스":9985,"▁과도한":9986,"▁프리미엄":9987,"▁끊임없이":9988,">(":9989,"·신":9990,"▁족":9991,"나갈":9992,"랑이":9993,"로드":9994,"를린":9995,"모든":9996,"법으로":9997,"아트":9998,"었다":9999,"인인":10000,"트랙":10001,"하진":10002,"호의":10003,"▁이화":10004,"▁기사를":10005,"▁“앞으로":10006,"▁다닐":10007,"▁네가":10008,"▁‘소":10009,"▁일시":10010,"▁여기는":10011,"▁없는데\r\n":10012,"▁조달":10013,"▁\"전":10014,"▁방안이":10015,"▁신기":10016,"▁바라는":10017,"▁아니에요.\r\n":10018,"▁도중":10019,"▁재활":10020,"▁실망":10021,"▁영토":10022,"▁사람들도":10023,"▁남의":10024,"▁참전":10025,"▁단축":10026,"▁문제다.\r\n":10027,"▁것이죠.\r\n":10028,"▁그렇습니다":10029,"▁막판":10030,"▁양보":10031,"▁걸고":10032,"▁간이":10033,"▁피곤":10034,"위원회의":10035,"▁어떤\r\n":10036,"▁아이티":10037,"▁각자":10038,"▁상황은":10039,"▁호박":10040,"▁날이":10041,"(12":10042,"(13":10043,"▁폭로":10044,"레이드":10045,"▁로드":10046,"▁면담":10047,"▁면제":10048,"▁참여할":10049,"▁포함됐다.\r\n":10050,"▁마음으로":10051,"은행이":10052,"▁우려를":10053,"▁으흠":10054,"▁뛰어나":10055,"▁어디에":10056,"▁활동에":10057,"▁집중적으로":10058,"습니다.\"\r\n":10059,"▁기본적인":10060,"▁인터뷰를":10061,"▁주시고\r\n":10062,"▁사례를":10063,"▁마찬가지로":10064,"▁최저임금":10065,"▁삭감":10066,"▁권한을":10067,"▁흡수":10068,"▁서울중앙지법":10069,"▁말하자면":10070,"▁싱가포르":10071,"-미":10072,"44":10073,"·대":10074,"·박":10075,"·사":10076,"·연":10077,"금지":10078,"대회를":10079,"만6":10080,"말을":10081,"명도":10082,"문에서":10083,"밀한":10084,"캠프":10085,"타워":10086,"테러":10087,"플루":10088,"하면은":10089,"하지만,":10090,"▁이룬":10091,"▁대검":10092,"▁사외":10093,"▁지연":10094,"▁가처분":10095,"▁2,":10096,"▁기독교":10097,"▁“남":10098,"▁“비":10099,"▁“세":10100,"▁“저":10101,"▁자사고":10102,"▁‘시":10103,"▁인식이":10104,"▁중독":10105,"▁제이":10106,"▁공사를":10107,"▁오지":10108,"▁우수한":10109,"▁위축":10110,"▁\"김":10111,"▁교회":10112,"▁무렵":10113,"▁재발":10114,"▁56":10115,"▁영원":10116,"▁노릇":10117,"▁출제":10118,"▁명칭":10119,"▁처리를":10120,"▁데가":10121,"▁피고":10122,"▁본다.\r\n":10123,"▁일본과":10124,"▁하고.\r\n":10125,"▁있었다고":10126,"▁있었습니다.\r\n":10127,"▁허브":10128,"▁항공사":10129,"▁삼성물":10130,"▁가운데,":10131,"▁주장하고":10132,"▁떨어질":10133,"▁나타났":10134,"▁뜻이":10135,"▁강조한":10136,"업체인":10137,"▁퇴임":10138,"▁변호사가":10139,"▁영국의":10140,"▁반응이":10141,"프로골프":10142,"▁남편이":10143,"▁기다리고":10144,"▁둘러싸":10145,"▁바꿔야":10146,"▁처벌을":10147,"▁비중은":10148,"▁물어보":10149,"▁측면에서":10150,"고속도로":10151,"▁집어넣":10152,"브리드":10153,"~7":10154,"·유":10155,"▁윈":10156,"▁칸":10157,"▁톱":10158,"과도":10159,"그래":10160,"료는":10161,"명),":10162,"분야":10163,"세한":10164,"소와":10165,"십시오":10166,"양은":10167,"원도":10168,"음에도":10169,"전\r\n":10170,"전으로":10171,"져\r\n":10172,"지노":10173,"지요\r\n":10174,"취를":10175,"퍼드":10176,"하니까\r\n":10177,"▁그야말로":10178,"▁가산":10179,"▁정서":10180,"▁나쁘":10181,"▁우유":10182,"▁의지가":10183,"▁만화":10184,"▁세웠다.\r\n":10185,"▁방해":10186,"▁성능":10187,"▁남는":10188,"▁못지않":10189,"▁할지":10190,"▁서울에":10191,"▁단백":10192,"▁외무":10193,"▁집이":10194,"▁앞당":10195,"▁총장이":10196,"▁10년간":10197,"▁법원이":10198,"보다도":10199,"▁약한":10200,"▁높였다.\r\n":10201,"▁줄을":10202,"▁치고":10203,"▁씨와":10204,"▁교육과학기술":10205,"▁넣은":10206,"▁증여":10207,"▁속도":10208,"▁지역은":10209,"▁있었지만":10210,"▁국가정보":10211,"▁업종":10212,"▁형제":10213,"거나,":10214,"(16":10215,"▁순환":10216,"▁15년":10217,"▁오늘도":10218,"▁금융감독":10219,"▁십이":10220,"▁민주당의":10221,"▁역사적":10222,"▁내놓고":10223,"▁요청했다.\r\n":10224,"▁걔는":10225,"▁헤어":10226,"▁MBC":10227,"▁대출을":10228,"▁담당하는":10229,"▁\"이번":10230,"▁가르쳐":10231,"▁근거로":10232,"▁음~\r\n":10233,"▁고속도로":10234,"▁“현재":10235,"▁구제역":10236,"'이란":10237,"77":10238,"DP":10239,"FA":10240,"견을":10241,"고추":10242,"그러":10243,"네요.":10244,"던\r\n":10245,"들인":10246,"로서는":10247,"록을":10248,"순환":10249,"얀마":10250,"인천":10251,"층은":10252,"페라":10253,"회복":10254,"▁아사":10255,"▁한\r\n":10256,"▁기분이":10257,"▁거기는":10258,"▁‘원":10259,"▁제도가":10260,"▁내릴":10261,"▁않지만":10262,"▁없는데":10263,"다”면서도":10264,"▁생생":10265,"▁문과":10266,"▁마크":10267,"▁신형":10268,"▁진지":10269,"▁학업":10270,"▁과장":10271,"▁작가는":10272,"▁매매":10273,"▁민감한":10274,"▁10명":10275,"▁걸\r\n":10276,"▁프랑":10277,"▁85":10278,"▁있어도":10279,"▁일본을":10280,"▁교육부는":10281,"▁화재":10282,"▁필요할":10283,"▁찾고":10284,"▁호응":10285,"▁계획이":10286,"▁진행된":10287,"▁결정했다.\r\n":10288,"센터를":10289,"▁맡았다.\r\n":10290,"▁아무튼":10291,"▁기자들과":10292,"▁25%":10293,"▁상당수":10294,"▁싸우":10295,"▁강화하는":10296,"▁내놓았다.\r\n":10297,"▁됩니다\r\n":10298,"▁이것을":10299,"▁주목을":10300,"▁작가의":10301,"00만원을":10302,"▁제조업":10303,"부(부장":10304,"▁해명했다.\r\n":10305,"at":10306,"곳에서":10307,"공헌":10308,"과거":10309,"버리":10310,"복합":10311,"사령":10312,"스리그":10313,"아서":10314,"에프":10315,"일로":10316,"절을":10317,"정과":10318,"져서":10319,"주세요.\r\n":10320,"테크":10321,"파가":10322,"판매":10323,"포스트":10324,"▁그쪽":10325,"▁사각":10326,"▁한계가":10327,"▁2루":10328,"▁2회":10329,"▁거에요.\r\n":10330,"▁“특":10331,"▁‘3":10332,"▁‘내":10333,"▁일선":10334,"▁경호":10335,"▁중대":10336,"▁조문":10337,"▁되면은":10338,"▁개가":10339,"▁마시고":10340,"▁많을":10341,"▁요리를":10342,"▁방치":10343,"▁방통":10344,"▁무슬림":10345,"▁아니지만":10346,"▁발급":10347,"▁못하면":10348,"▁적합":10349,"▁단호":10350,"▁청탁":10351,"▁먹은":10352,"▁논문을":10353,"▁취급":10354,"▁늘리는":10355,"▁체제를":10356,"▁찾았":10357,"▁협력을":10358,"▁협의를":10359,"▁싶다”고":10360,"▁학생들에게":10361,"▁아니라,":10362,"(11":10363,"▁메달":10364,"▁1500":10365,"▁요구하고":10366,"▁전체가":10367,"기관의":10368,"▁제품의":10369,"▁유럽연합":10370,"▁에~\r\n":10371,"▁워크":10372,"▁시행령":10373,"▁40여":10374,"▁FA":10375,"▁입장이다.\r\n":10376,"▁행복한":10377,"▁짓는":10378,"▁보유하고":10379,"▁그쵸.":10380,"▁개성공단":10381,")이다.\r\n":10382,"끄는":10383,"됐고":10384,"말이":10385,"브라":10386,"소프트":10387,"심리":10388,"월에":10389,"주영":10390,"표가":10391,"환은":10392,"▁이듬":10393,"▁하라":10394,"▁하버":10395,"▁수감":10396,"▁정유":10397,"▁시대의":10398,"▁“201":10399,"▁자진":10400,"▁‘남":10401,"▁‘반":10402,"▁해제":10403,"▁말했다고":10404,"▁때의":10405,"▁오.\r\n":10406,"▁여학생":10407,"▁없다\"며":10408,"▁고스":10409,"▁상정":10410,"▁조리":10411,"▁조율":10412,"▁비닐":10413,"▁연수":10414,"▁유죄":10415,"▁서부":10416,"▁마쳤다.\r\n":10417,"▁불어":10418,"▁장성":10419,"라는\r\n":10420,"▁노력이":10421,"▁스코":10422,"▁막는":10423,"▁합작":10424,"▁초점을":10425,"▁드리고":10426,"▁본인의":10427,"▁2018년":10428,"이라든지":10429,"▁필요성을":10430,"▁군데":10431,"▁권력을":10432,"억원,":10433,"▁눈치":10434,"▁병행":10435,"▁월드":10436,"▁어려움":10437,"▁청와대가":10438,"▁거예요":10439,"▁나라를":10440,"▁출신으로":10441,"▁name3":10442,"▁자유무역":10443,"▁얻는":10444,"▁들어가서":10445,"▁발생할":10446,"▁사고를":10447,"▁내려가":10448,"▁클럽":10449,"▁이사장":10450,"▁겪는":10451,"▁납치":10452,"▁얼굴이":10453,"▁과학기술":10454,"경찰서":10455,"하라”고":10456,"▁뉴욕타임":10457,"▁내세운":10458,"▁유리한":10459,"▁비상대책":10460,"▁메르스":10461,"’다.\r\n":10462,"까요?":10463,"다?\r\n":10464,"리티":10465,"문의":10466,"밴드":10467,"아파트":10468,"였다고":10469,"오십":10470,"장치":10471,"주류":10472,"차로":10473,"편을":10474,"학원":10475,"했는지":10476,"▁이자":10477,"▁지닌":10478,"▁한동안":10479,"▁1분":10480,"▁1·2":10481,"▁시기를":10482,"▁거둔":10483,"▁오셨":10484,"▁오스트":10485,"▁의지":10486,"▁의사가":10487,"▁3억":10488,"▁김지":10489,"▁무섭":10490,"▁구현":10491,"▁아니야.\r\n":10492,"▁당국이":10493,"▁실수":10494,"▁성추":10495,"▁노하우":10496,"에게서":10497,"▁생각하지":10498,"▁67":10499,"▁물류":10500,"▁잘하는":10501,"▁것이고\r\n":10502,"▁에너":10503,"▁행위를":10504,"▁먹기":10505,"▁본질":10506,"▁점수":10507,"▁관계자들은":10508,"▁야당이":10509,"▁독도":10510,"▁기업은":10511,"▁권리를":10512,"▁학생은":10513,"▁보고서는":10514,"▁준비한":10515,"▁않았지만":10516,"▁갔을":10517,"▁수준을":10518,"시키기":10519,"▁말이죠.\r\n":10520,"▁해결을":10521,"▁건강한":10522,"▁활용한":10523,"▁업체가":10524,"▁지도자":10525,"연합회":10526,"▁움직이는":10527,"▁설치된":10528,"▁오래된":10529,"▁썰어서":10530,"▁이하의":10531,"▁흥행":10532,"▁맥락":10533,"▁기소된":10534,"▁분위기다.\r\n":10535,"▁성격이":10536,"▁김기춘":10537,"모델링":10538,"▁오징어":10539,"45":10540,"CTV":10541,"ch":10542,"∼3":10543,"두는":10544,"려고\r\n":10545,"료로":10546,"문은":10547,"법원":10548,"선생":10549,"소설":10550,"스플레이":10551,"십니다.\r\n":10552,"였지만":10553,"자책":10554,"저히":10555,"전과":10556,"점과":10557,"주와":10558,"줄이":10559,"집이":10560,"측이":10561,"탄을":10562,"판이":10563,"▁이끄는":10564,"▁그릏게":10565,"▁대치":10566,"▁사유":10567,"▁지났":10568,"▁하시면":10569,"▁한데":10570,"▁한중":10571,"▁전두환":10572,"▁정한":10573,"▁거다.\r\n":10574,"▁“안":10575,"▁나은":10576,"▁다짐":10577,"▁네이버":10578,"▁경매":10579,"▁제의":10580,"▁국군":10581,"▁공론":10582,"▁여는":10583,"▁고대":10584,"▁상하이":10585,"▁비준":10586,"▁만이다.\r\n":10587,"▁되나":10588,"▁분당":10589,"▁강도":10590,"▁영광":10591,"▁63":10592,"▁집필":10593,"▁양산":10594,"▁포괄":10595,"▁일본인":10596,"▁치킨":10597,"▁크고":10598,"▁벌이는":10599,"▁독재":10600,"▁경제의":10601,"▁있었어요.\r\n":10602,"▁편이":10603,"▁커질":10604,"▁급등":10605,"▁16강":10606,"▁얻고":10607,"▁언니\r\n":10608,"▁이해를":10609,"▁찬반":10610,"▁매출이":10611,"▁뽑는":10612,"▁소득이":10613,"▁NC":10614,"▁시험을":10615,"▁염두에":10616,"▁부정적인":10617,"▁불구속":10618,"▁하이브리드":10619,"▁성향의":10620,"▁며느":10621,"▁장면이":10622,"▁흐름을":10623,"▁맞춤형":10624,"▁화려한":10625,"▁꼼꼼":10626,"▁시나리오":10627,"(H":10628,"~9":10629,"거야.\r\n":10630,"군요\r\n":10631,"급여":10632,"득점":10633,"시장을":10634,"울러":10635,"자금을":10636,"적의":10637,"주인":10638,"즈는":10639,"포로":10640,"하늘":10641,"학이":10642,"합니다":10643,"▁대다":10644,"▁아끼":10645,"▁하겠다는":10646,"▁수렴":10647,"▁1~2":10648,"▁정원":10649,"▁시의":10650,"▁거품":10651,"▁거죠.":10652,"▁“상":10653,"▁다름":10654,"▁일일이":10655,"▁인양":10656,"▁인식을":10657,"▁주에":10658,"▁주체":10659,"▁제보":10660,"▁해주는":10661,"▁공조":10662,"▁공짜":10663,"▁안심":10664,"▁예선":10665,"▁조명":10666,"▁선도":10667,"▁소집":10668,"▁연루":10669,"▁저자는":10670,"▁\"대":10671,"▁뭐지":10672,"▁김광":10673,"▁아니야\r\n":10674,"▁불만이":10675,"▁후추":10676,"▁노선":10677,"▁스크":10678,"▁달하는":10679,"▁작곡":10680,"▁치는":10681,"▁씨(4":10682,"▁화물":10683,"▁하나를":10684,"▁규제를":10685,"▁종종":10686,"▁싶다.\r\n":10687,"▁창립":10688,"▁창원":10689,"▁않는다”고":10690,"▁말씀하셨":10691,"▁현재는":10692,"▁눈물":10693,"▁발표할":10694,"▁조사에서":10695,"▁병원을":10696,"▁접어":10697,"▁곳을":10698,"▁진행하고":10699,"▁디자이너":10700,"▁정보가":10701,"들과의":10702,"▁시민들이":10703,"▁윤석":10704,"▁책임이":10705,"▁name4":10706,"▁겨우":10707,"▁레스토":10708,"▁50대":10709,"▁과거에":10710,"▁밤에":10711,"▁겪은":10712,"▁정신을":10713,"대회에서":10714,"시설을":10715,"▁기능이":10716,"▁컨설팅":10717,"▁즉시":10718,"▁교통사고":10719,"▁SK텔레콤":10720,"▁출마를":10721,"▁비중을":10722,"▁EU":10723,"▁진술을":10724,"▁긍정적인":10725,"▁소식통은":10726,"▁수시로":10727,"▁다행히":10728,"▁소프트웨어":10729,"▁이듬해":10730,"·영":10731,"거죠.\r\n":10732,"공무원":10733,"극장":10734,"라든지":10735,"리와":10736,"버트":10737,"자들도":10738,"조치":10739,"주석":10740,"테인":10741,"통제":10742,"학의":10743,"혈압":10744,"▁이창":10745,"▁대륙":10746,"▁지혜":10747,"▁하더라고\r\n":10748,"▁가중":10749,"▁전파":10750,"▁정교":10751,"▁기원":10752,"▁기지":10753,"▁“시":10754,"▁‘어":10755,"▁인구가":10756,"▁때,":10757,"▁때만":10758,"▁비극":10759,"▁3배":10760,"▁모래":10761,"▁되었":10762,"▁\"정":10763,"▁개를":10764,"▁'대":10765,"▁'사":10766,"▁무인":10767,"▁그런게":10768,"▁동작":10769,"▁받기":10770,"▁57":10771,"▁영유":10772,"▁사람에게":10773,"▁좋고":10774,"▁생각한":10775,"▁할려고":10776,"▁살리기":10777,"▁막대한":10778,"▁사실\r\n":10779,"▁아이스":10780,"▁체류":10781,"▁야외":10782,"▁협약":10783,"▁싶습니다.\r\n":10784,"▁이어지고":10785,"▁쓰러":10786,"▁있었을":10787,"▁학생의":10788,"▁잡을":10789,"하겠습니다.\r\n":10790,"▁전문대학":10791,"▁홍준표":10792,"▁길어":10793,"▁예정된":10794,"▁금융당":10795,"▁않았다”고":10796,"▁이미지":10797,"▁보여주고":10798,"▁수준이":10799,"▁묻자":10800,"▁벌어졌다.\r\n":10801,"▁캠페인":10802,"▁공간을":10803,"▁등록금":10804,"▁동아시아":10805,"▁이재용":10806,"▁홀로":10807,"▁코스닥":10808,"▁지식경제":10809,"▁스위스":10810,"▁리포니아":10811,"-5":10812,"·재":10813,"▁힌":10814,"고로":10815,"공사가":10816,"권도":10817,"께서\r\n":10818,"만7":10819,"명이다.\r\n":10820,"물질":10821,"바이트":10822,"식의":10823,"이든":10824,"이오":10825,"졌지만":10826,"직한":10827,"체험":10828,"추어":10829,"프랑스":10830,"▁이분":10831,"▁대회를":10832,"▁아삭":10833,"▁사면":10834,"▁어지":10835,"▁어찌":10836,"▁전과":10837,"▁시정":10838,"▁“무":10839,"▁“주":10840,"▁나옵":10841,"▁다이어":10842,"▁일로":10843,"▁일하고":10844,"▁주신":10845,"▁중립":10846,"▁부근":10847,"▁의해서":10848,"▁관점에서":10849,"▁3D":10850,"▁3학년":10851,"▁유아":10852,"▁미니":10853,"▁\"오":10854,"▁서명":10855,"▁생애":10856,"▁최하":10857,"▁마라톤":10858,"▁김포":10859,"▁바랍":10860,"▁발레":10861,"▁도서":10862,"▁재혼":10863,"▁실시간":10864,"▁후속":10865,"▁두루":10866,"▁감상":10867,"▁했기":10868,"▁추신":10869,"▁맞았다.\r\n":10870,"▁들어보":10871,"▁집회를":10872,"▁삼천":10873,"▁양자":10874,"▁판정을":10875,"▁줄이기":10876,"▁타이어":10877,"▁돌고":10878,"▁넣어서":10879,"▁시작을":10880,"▁시간)":10881,"▁[단독":10882,"▁속도가":10883,"▁충실":10884,"▁충족":10885,"▁끝나는":10886,"▁첫째":10887,"억원에":10888,"▁됐다”고":10889,"▁선수는":10890,"▁코너":10891,"▁글이":10892,"▁대선에서":10893,"▁공동으로":10894,"▁주민들은":10895,"▁“이런":10896,"▁서울시가":10897,"▁의혹에":10898,"▁미래에":10899,"인가?\r\n":10900,"▁실제로는":10901,"▁욕설":10902,"▁높아진":10903,"▁여야는":10904,"▁지켜보":10905,"▁언급한":10906,"▁재산을":10907,"~200":10908,"▁소설가":10909,"▁늘어나고":10910,"▁늘어나는":10911,"▁안타깝":10912,"▁안녕하세요.\r\n":10913,"▁정상회담을":10914,"▁밴드":10915,"다시피":10916,"▁아하\r\n":10917,"'이라고":10918,"MF":10919,"m,":10920,"▁닥":10921,"▁켜":10922,"경북":10923,"구와":10924,"나가는":10925,"네?\r\n":10926,"들끼리":10927,"로로":10928,"로워":10929,"린이":10930,"무는":10931,"민의":10932,"산은":10933,"세점":10934,"시장이":10935,"식과":10936,"어준":10937,"인에게":10938,"작은":10939,"팀의":10940,"협약":10941,"▁하하":10942,"▁한계":10943,"▁한진":10944,"▁가고\r\n":10945,"▁기운":10946,"▁거니까\r\n":10947,"▁“부":10948,"▁“일본":10949,"▁위성":10950,"▁의외":10951,"▁비율을":10952,"▁3조":10953,"▁3000":10954,"▁\"여":10955,"▁김장":10956,"▁원인을":10957,"▁구멍":10958,"▁우리나라는":10959,"▁아니면은":10960,"▁발간":10961,"▁당원":10962,"▁결심":10963,"▁반갑":10964,"▁계파":10965,"▁박사는":10966,"▁스웨덴":10967,"▁감세":10968,"▁감수":10969,"▁했고":10970,"▁생각에":10971,"▁물건":10972,"▁정부를":10973,"▁외모":10974,"▁평등":10975,"▁설비":10976,"▁경우는\r\n":10977,"▁관련해서":10978,"▁이후에도":10979,"▁식구":10980,"▁속으로":10981,"▁리모델링":10982,"▁얘기했":10983,"▁계획”이라고":10984,"▁농축":10985,"▁커뮤니":10986,"▁진행되는":10987,"▁그랬는데":10988,"케이팅":10989,"▁엄마는":10990,"▁영향력을":10991,"그룹이":10992,"▁특별히":10993,"▁빨라":10994,"▁논의할":10995,"▁배우는":10996,"▁번째로":10997,"▁엘리":10998,"▁믿는":10999,"▁개혁을":11000,"▁충분한":11001,"▁뜨거":11002,"▁블로그":11003,"▁달러(약":11004,"▁“대통령":11005,"▁홈런을":11006,"▁조합원":11007,"·기아":11008,"▁앞장서":11009,"▁잉글랜드":11010,"▁김일성":11011,"▁[단독]":11012,"(서울":11013,"4대강":11014,"▁V":11015,"▁꿀":11016,"▁리고":11017,"가니":11018,"거리는":11019,"나의":11020,"낸다.\r\n":11021,"냐고\r\n":11022,"되고,":11023,"된다는":11024,"됩니다.\r\n":11025,"림을":11026,"미는":11027,"보장":11028,"비와":11029,"세포":11030,"소시":11031,"속에":11032,"에겐":11033,"인\r\n":11034,"주면":11035,"지며":11036,"통이":11037,"플러":11038,"형으로":11039,"▁있긴":11040,"▁있잖아요\r\n":11041,"▁사후":11042,"▁하죠.\r\n":11043,"▁전제":11044,"▁보낼":11045,"▁기후":11046,"▁거리를":11047,"▁거기가":11048,"▁“정부":11049,"▁‘강":11050,"▁‘기":11051,"▁일요일":11052,"▁경력":11053,"▁국경":11054,"▁공장을":11055,"하고자":11056,"▁않다”고":11057,"▁상처를":11058,"▁미얀마":11059,"▁문의":11060,"▁같이\r\n":11061,"▁방영":11062,"▁신선":11063,"▁동의를":11064,"▁그러다가":11065,"▁그러더라고\r\n":11066,"▁당했다.\r\n":11067,"▁53":11068,"▁영남":11069,"▁더해":11070,"▁장소":11071,"▁건물을":11072,"▁박씨는":11073,"▁알지":11074,"▁게임을":11075,"▁생각하면":11076,"▁열려":11077,"▁68":11078,"▁특성화":11079,"▁삼백":11080,"▁그렇군요.\r\n":11081,"▁간다":11082,"▁있어?\r\n":11083,"▁언젠":11084,"위원장을":11085,"▁심화":11086,"▁변신":11087,"▁식민":11088,"▁독서":11089,"▁누적":11090,"▁버렸":11091,"▁얼음":11092,"기업의":11093,"▁쪽의":11094,"▁놓으":11095,"스트리트":11096,"▁조사에":11097,"▁예정인":11098,"▁기록하며":11099,"▁별다른":11100,"▁범위":11101,"▁골라":11102,"▁골을":11103,"▁아직까지":11104,"▁규모를":11105,"▁키우는":11106,"▁1995년":11107,"▁1994년":11108,"▁1996년":11109,"▁어디로":11110,"▁합의한":11111,"▁사람들이\r\n":11112,"▁증가한":11113,"▁꾸려":11114,"▁조직을":11115,"▁제기한":11116,"▁좌파":11117,"▁어머니가":11118,"▁곤란":11119,"▁뭐냐면\r\n":11120,"축구연맹":11121,"▁신용카드":11122,"▁일주일에":11123,"▁코스피":11124,"▁고통을":11125,"▁뒤집어":11126,"▁인공지능":11127,"▁“우리는":11128,"▁일어날":11129,"▁편의점":11130,"▁국세청":11131,"▁쇄신":11132,"▁가만히":11133,"▁레스토랑":11134,"(가":11135,">에":11136,"”라는":11137,"▁흠":11138,"▁었다.\r\n":11139,"가와":11140,"게요\r\n":11141,"겠다\r\n":11142,"공학":11143,"과장은":11144,"데이":11145,"동생":11146,"동원":11147,"들하고":11148,"림이":11149,"명에게":11150,"민이":11151,"백화점":11152,"본을":11153,"사들의":11154,"색이":11155,"세력":11156,"스카":11157,"시지":11158,"시면\r\n":11159,"씨도":11160,"역으로":11161,"운전":11162,"입을":11163,"전시":11164,"집단":11165,"집에서":11166,"트롤":11167,"▁이\r\n":11168,"▁이들에게":11169,"▁그니깐":11170,"▁한다\"며":11171,"▁1시":11172,"▁1층":11173,"▁가방":11174,"▁정진":11175,"▁2학년":11176,"▁2분기":11177,"▁시대가":11178,"▁“중국":11179,"▁주간":11180,"▁해도\r\n":11181,"▁말하면":11182,"▁공기":11183,"▁오케":11184,"▁오르는":11185,"▁유독":11186,"▁미역":11187,"▁저질":11188,"▁\"'":11189,"▁생일":11190,"▁뭐.\r\n":11191,"▁마스터":11192,"▁김민":11193,"▁김병":11194,"▁동결":11195,"▁바닷":11196,"▁아니\r\n":11197,"▁그러기":11198,"▁진실을":11199,"▁51":11200,"▁장르":11201,"▁회동":11202,"▁적게":11203,"▁맞았":11204,"▁물려":11205,"▁외신":11206,"▁집으로":11207,"▁명분":11208,"▁검정":11209,"▁가지가":11210,"▁초·중":11211,"▁점에":11212,"▁임용":11213,"▁하나만":11214,"▁목적으로":11215,"▁표명":11216,"▁버티":11217,"▁기업인":11218,"▁충격을":11219,"▁민주노총":11220,"(14":11221,"▁삼성의":11222,"▁곳으로":11223,"▁참여했다.\r\n":11224,"센터는":11225,"▁여성은":11226,"▁자기네":11227,"▁골목":11228,"▁최대의":11229,"▁나타나는":11230,"인데도":11231,"▁그걸로":11232,"▁황금":11233,"▁자유롭게":11234,"▁방식이":11235,"▁깨달":11236,"▁구체적":11237,"▁공부하는":11238,"▁숙박":11239,"▁판결이":11240,"▁억제":11241,"▁바라보는":11242,"▁단순한":11243,"▁챔피언십":11244,"▁헬스":11245,"▁손해배상":11246,"▁동북아":11247,"▁최우수":11248,"▁두드러":11249,"▁평범한":11250,"▁고스란히":11251,"et":11252,"·소":11253,"▁렌":11254,"▁톡":11255,"▁퓨":11256,"계에서":11257,"광주":11258,"기인":11259,"던데\r\n":11260,"되며":11261,"바겐":11262,"상과":11263,"상승":11264,"습을":11265,"었어.\r\n":11266,"절이":11267,"제재":11268,"주교":11269,"집행":11270,"차량":11271,"채널":11272,"풍을":11273,"행동":11274,"호남":11275,"▁이은":11276,"▁지음":11277,"▁지주":11278,"▁지냈다.\r\n":11279,"▁수신":11280,"▁전격":11281,"▁보도를":11282,"▁시를":11283,"▁‘영":11284,"▁주검":11285,"▁중견":11286,"▁해경":11287,"▁부끄":11288,"▁안양":11289,"▁않나":11290,"▁않습니까.\r\n":11291,"▁위헌":11292,"▁상봉":11293,"▁조처를":11294,"▁만찬":11295,"▁되살":11296,"▁되찾":11297,"▁그래요.\r\n":11298,"▁개척":11299,"▁김승":11300,"▁원장이":11301,"▁동창":11302,"▁불만":11303,"▁후진":11304,"▁박인":11305,"▁스카":11306,"▁차원":11307,"▁회고":11308,"▁했어":11309,"▁때문이":11310,"▁특성":11311,"▁총리를":11312,"▁가지를":11313,"▁얘네":11314,"▁막내":11315,"▁데도":11316,"▁데쳐":11317,"▁합니다\r\n":11318,"▁드실":11319,"▁독점":11320,"▁경제를":11321,"▁잡지":11322,"▁학교가":11323,"▁선수를":11324,"▁글로":11325,"▁여기까지":11326,"▁대해서는\r\n":11327,"▁철도":11328,"▁분석도":11329,"▁공개적으로":11330,"▁낮춰":11331,"▁선거에":11332,"▁시민사회":11333,"▁있으니":11334,"▁영향이":11335,"▁논란에":11336,"▁어렵지":11337,"▁합의했다.\r\n":11338,"▁역할이":11339,"▁달라진":11340,"▁요청을":11341,"▁매출을":11342,"▁공식적으로":11343,"▁꼽히는":11344,"주시고\r\n":11345,"▁졸업한":11346,"▁불과하다.\r\n":11347,"▁푸른":11348,"▁이동통신":11349,"▁G20":11350,"▁실패한":11351,"(SK":11352,"▁안정적인":11353,"▁맺은":11354,"▁신문은":11355,"만으로도":11356,"▁호소했다.\r\n":11357,"▁탑재":11358,"▁아이디어를":11359,"▁독특한":11360,"-4":11361,"5일":11362,"66":11363,"72":11364,"I)":11365,"·시":11366,"▁았":11367,"계와":11368,"교체":11369,"내며":11370,"냐는":11371,"는지\r\n":11372,"다란":11373,"만8":11374,"맛이":11375,"미터":11376,"보도":11377,"비드":11378,"상한":11379,"상에서":11380,"수준":11381,"신당":11382,"악한":11383,"연설":11384,"연승":11385,"연한":11386,"지주":11387,"▁이호":11388,"▁그에게":11389,"▁하기도":11390,"▁하셔도":11391,"▁한해":11392,"▁1년간":11393,"▁거대한":11394,"▁다저":11395,"▁일치":11396,"▁인지":11397,"▁내달":11398,"▁부양":11399,"▁부지":11400,"▁안경":11401,"▁안으로":11402,"▁없도록":11403,"▁고소득":11404,"▁모금":11405,"▁\"최":11406,"▁서구":11407,"▁마약":11408,"▁원장님":11409,"▁아니었다.\r\n":11410,"▁그러자":11411,"▁발을":11412,"▁당직":11413,"▁59":11414,"▁성실":11415,"▁성매매":11416,"▁사람과":11417,"▁장을":11418,"▁남을":11419,"▁회장과":11420,"▁못했던":11421,"▁입찰":11422,"▁64":11423,"▁서울고":11424,"▁매운":11425,"▁10억":11426,"▁파주":11427,"▁언어를":11428,"▁본지":11429,"▁정도로\r\n":11430,"▁높이기":11431,"▁이번에도":11432,"▁씨(3":11433,"▁체크":11434,"▁시작하는":11435,"▁애를":11436,"▁힘입":11437,"▁쓰면":11438,"▁지원이":11439,"▁권위":11440,"▁질을":11441,"▁중요하다고":11442,"▁선생님께서":11443,"▁측정":11444,"▁베를린":11445,"▁잠실":11446,"▁장관을":11447,"▁가족들이":11448,"▁거예요?\r\n":11449,"▁AI":11450,"▁일반적인":11451,"▁작품이":11452,"▁국방부는":11453,"▁징계를":11454,"▁위험한":11455,"▁자료가":11456,"▁성과가":11457,"경찰서는":11458,"▁밝혀졌다.\r\n":11459,"▁여러분들":11460,"▁빚을":11461,"▁소통을":11462,"▁정리해":11463,"▁기반을":11464,"▁마이너":11465,"▁흡연":11466,"▁꺾고":11467,"▁탈북자":11468,"▁고맙습니다.\r\n":11469,"▁저소득층":11470,"▁하버드":11471,"▁자유무역협정":11472,"kW":11473,"·아":11474,"▁쾌":11475,"건에":11476,"겠지":11477,"되게":11478,"로에":11479,"버린":11480,"베르":11481,"심판":11482,"입니까?\r\n":11483,"종이":11484,"천안":11485,"체로":11486,"팀장은":11487,"▁이따":11488,"▁대충":11489,"▁하마":11490,"▁어렸을":11491,"▁가속":11492,"▁보자":11493,"▁“해":11494,"▁인적":11495,"▁인력을":11496,"▁국물이":11497,"▁말아야":11498,"▁내리는":11499,"▁부천":11500,"▁안고":11501,"▁없이\r\n":11502,"▁고마":11503,"▁조짐":11504,"▁300여":11505,"▁소련":11506,"▁유대":11507,"▁되는\r\n":11508,"▁마르":11509,"▁교원":11510,"▁세월":11511,"▁분도":11512,"▁아니다":11513,"▁불확":11514,"▁차량을":11515,"▁두번째":11516,"▁회장을":11517,"적인\r\n":11518,"▁했으면":11519,"▁추경":11520,"▁따르":11521,"▁입건":11522,"▁입력":11523,"▁66":11524,"▁과시":11525,"▁응급":11526,"▁7회":11527,"▁200여":11528,"하지도":11529,"▁8강":11530,"▁정도만":11531,"▁줄곧":11532,"▁타결":11533,"▁손실을":11534,"▁싶지":11535,"▁속도를":11536,"▁있었다는":11537,"▁보고를":11538,"▁창당":11539,"▁됐던":11540,"▁순위":11541,"▁선생이":11542,"▁트리":11543,"▁길러":11544,"▁대상에서":11545,"▁예정”이라고":11546,"▁결정하는":11547,"▁갔는데\r\n":11548,"▁청와대에서":11549,"▁선거를":11550,"▁뜻으로":11551,"▁시민들의":11552,"▁황교":11553,"▁앞으로는":11554,"▁테스트":11555,"▁의견도":11556,"▁통합진보":11557,"니다.”\r\n":11558,"▁행사에":11559,"▁대응을":11560,"▁발견된":11561,"▁다르게":11562,"대한민":11563,"▁빌딩":11564,"▁아프간":11565,"▁군사적":11566,"▁챙기":11567,"시켜야":11568,"▁말씀드렸":11569,"투자증권":11570,"▁선보였다.\r\n":11571,"▁간단한":11572,"▁텐데":11573,"▁모른다.\r\n":11574,"▁저지른":11575,"▁스피드":11576,"▁동남아":11577,"▁어떠한":11578,"ECD":11579,"▁만만치":11580,"원자력":11581,"LL":11582,"O)":11583,"es":11584,"·공":11585,"▁:":11586,"▁쯤":11587,"갖고\r\n":11588,"건으로":11589,"겠습니다\r\n":11590,"결혼":11591,"는가":11592,"도서관":11593,"동아":11594,"되고\r\n":11595,"만4":11596,"방위":11597,"범위":11598,"성한":11599,"실과":11600,"울산":11601,"음\r\n":11602,"인들":11603,"정신":11604,"졌다”고":11605,"출을":11606,"팀을":11607,"파로":11608,"패로":11609,"한을":11610,"▁이윤":11611,"▁아바":11612,"▁한층":11613,"▁수사가":11614,"▁어리":11615,"▁가도":11616,"▁가맹":11617,"▁전·":11618,"▁시기가":11619,"▁기숙":11620,"▁“나":11621,"▁자.\r\n":11622,"▁‘진":11623,"▁해봤":11624,"▁해산":11625,"▁부시":11626,"▁부풀":11627,"하고.\r\n":11628,"▁김수":11629,"▁불이익":11630,"▁영구":11631,"▁한국방송":11632,"▁한국시리즈":11633,"▁학기":11634,"▁노트":11635,"▁감당":11636,"▁감옥":11637,"▁했지만,":11638,"다\"\r\n":11639,"▁입국":11640,"▁입에":11641,"▁과잉":11642,"▁들어오는":11643,"▁명백":11644,"▁청춘":11645,"▁된다\"고":11646,"▁많이\r\n":11647,"▁양극":11648,"▁법사":11649,"▁행태":11650,"▁정도면":11651,"▁활성":11652,"습니다만은\r\n":11653,"▁사회적인":11654,"▁될지":11655,"▁협동조합":11656,"▁종일":11657,"▁올해도":11658,"▁리비아":11659,"▁지원할":11660,"▁절대로":11661,"▁질환":11662,"▁중요하다.\r\n":11663,"▁병원에서":11664,"▁십일":11665,"▁상태를":11666,"▁올라오":11667,"▁이름은":11668,"▁전국의":11669,"▁러드":11670,"▁SNS":11671,"▁발생하는":11672,"▁확보한":11673,"니다.\"\r\n":11674,"▁전략적":11675,"▁아버지는":11676,"▁결혼을":11677,"▁야당의":11678,"▁남아공":11679,"▁던져":11680,"▁양념이":11681,"▁입장에서는":11682,"▁이끌고":11683,"▁느끼고":11684,"▁당연한":11685,"▁빚어":11686,"▁깔려":11687,"▁시설을":11688,"▁시청률":11689,"000만원을":11690,"▁간단하게":11691,"▁걷어":11692,"▁제목의":11693,"▁감안하면":11694,"▁상관없이":11695,"▁추구하는":11696,"▁자세히":11697,"▁널리":11698,"▁금강산":11699,"▁패러다":11700,">,":11701,"▁롤":11702,"단에서":11703,"됐다”고":11704,"됐습니다.\r\n":11705,"두산":11706,"메이":11707,"미널":11708,"서.\r\n":11709,"었기":11710,"에다가\r\n":11711,"일으":11712,"째를":11713,"취업":11714,"토록":11715,"플랜":11716,"히고":11717,"▁이인":11718,"▁대상을":11719,"▁사정이":11720,"▁1분기":11721,"▁보복":11722,"▁거두":11723,"▁자부":11724,"▁‘2":11725,"▁일할":11726,"▁해방":11727,"▁해온":11728,"▁공원":11729,"▁고성":11730,"▁조종":11731,"▁선을":11732,"▁미드":11733,"▁\"현":11734,"▁개관":11735,"▁마땅":11736,"▁김은":11737,"▁'미":11738,"▁신년":11739,"▁통진":11740,"▁바삭":11741,"▁진화":11742,"▁4명이":11743,"▁올릴":11744,"▁실적을":11745,"▁후쿠":11746,"▁건지":11747,"▁출동":11748,"▁것으로,":11749,"▁포럼":11750,"▁파산":11751,"▁관련,":11752,"▁넣으면":11753,"▁넘기":11754,"▁시간도":11755,"▁표를":11756,"▁이어져":11757,"▁편지를":11758,"▁얘기할":11759,"▁카카오":11760,"▁카타르":11761,"▁현재까지":11762,"▁태어":11763,"▁빠지":11764,"▁년간":11765,"▁철수":11766,"▁맞아요.":11767,"▁와인":11768,"연구원은":11769,"▁송도":11770,"기관이":11771,"▁1993년":11772,"문화재":11773,"▁같아요\r\n":11774,"▁이해할":11775,"▁1980년대":11776,"▁엔진":11777,"▁작업이":11778,"▁부회장은":11779,"▁철저한":11780,"▁곳곳에서":11781,"▁다루는":11782,"▁경향이":11783,"▁집계됐다.\r\n":11784,"▁돼지고기":11785,"▁당부했다.\r\n":11786,"▁으흠\r\n":11787,"VP":11788,"ro":11789,"un":11790,"·외":11791,"∼201":11792,"▁록":11793,"▁엑스":11794,"거리가":11795,"단으로":11796,"돌이":11797,"됐기":11798,"르신":11799,"별로는":11800,"사한":11801,"어.":11802,"적은":11803,"집회":11804,"책이":11805,"치면서":11806,"카데":11807,"표준":11808,"▁있죠\r\n":11809,"▁1사":11810,"▁정권을":11811,"▁보며":11812,"▁보셨":11813,"▁기자의":11814,"▁“법":11815,"▁“연":11816,"▁‘실":11817,"▁인쇄":11818,"▁주무":11819,"▁중에\r\n":11820,"▁공영":11821,"▁부검":11822,"▁부를":11823,"▁안정을":11824,"▁조사가":11825,"▁생물":11826,"▁신촌":11827,"▁우리에게":11828,"▁그러니깐":11829,"▁당당":11830,"▁52":11831,"▁실력":11832,"▁실효":11833,"▁영웅":11834,"▁영상을":11835,"▁스페":11836,"▁했다":11837,"▁추격":11838,"▁달이":11839,"▁민심":11840,"▁너네":11841,"▁너도":11842,"▁검거":11843,"▁피디":11844,"▁2013":11845,"▁심사를":11846,"▁타는":11847,"▁북한과":11848,"▁교육부가":11849,"▁증상이":11850,"▁버린":11851,"가지고.\r\n":11852,"▁승용차":11853,"▁편리":11854,"▁편지":11855,"▁자신감을":11856,"억원이":11857,"▁됐는데\r\n":11858,"주의를":11859,"▁오늘날":11860,"▁감독을":11861,"▁그럼\r\n":11862,"▁베스트":11863,"▁진행되고":11864,"▁현대·기아":11865,"▁참여해":11866,"느냐는":11867,"▁영화는":11868,"▁모습은":11869,"▁위해서다.\r\n":11870,"▁정상회의":11871,"▁얻었다.\r\n":11872,"▁환경이":11873,"▁CNN":11874,"▁조선시대":11875,"▁부모가":11876,"▁착공":11877,"▁잇는":11878,"▁야당은":11879,"▁감소했다.\r\n":11880,"▁까닭":11881,"▁부정적":11882,"▁모양새":11883,"▁측면이":11884,"▁신용등급":11885,"▁아름다":11886,"▁심사위원":11887,"▁실질적으로":11888,"▁컬렉":11889,"tion":11890,"▁힘입어":11891,">가":11892,"G)":11893,"▁몬":11894,"▁층":11895,"감에":11896,"검토":11897,"구단":11898,"까진":11899,"대장":11900,"대?\r\n":11901,"드릴":11902,"마다\r\n":11903,"만3":11904,"모가":11905,"반을":11906,"병이":11907,"보수":11908,"산가족":11909,"슈퍼":11910,"시장에":11911,"실점으로":11912,"아를":11913,"였고,":11914,"우가":11915,"우지":11916,"졌기":11917,"졌고,":11918,"주도":11919,"질환":11920,"하되":11921,"희정":11922,"▁이끈":11923,"▁그들이":11924,"▁있죠?\r\n":11925,"▁아들을":11926,"에서부터":11927,"▁지경":11928,"▁지고":11929,"▁보강":11930,"▁시속":11931,"▁“재":11932,"▁나고":11933,"▁자라":11934,"▁자발":11935,"▁자격을":11936,"▁‘성":11937,"▁‘수":11938,"▁‘재":11939,"▁‘국민":11940,"▁인사는":11941,"▁주시는":11942,"▁중기":11943,"▁중진":11944,"▁제재를":11945,"▁말레이":11946,"▁오백":11947,"▁오프":11948,"▁여지가":11949,"▁소홀":11950,"▁유혹":11951,"▁최강":11952,"▁김해":11953,"▁원고":11954,"▁분산":11955,"▁구경":11956,"▁4시":11957,"▁4억":11958,"▁58":11959,"▁5위":11960,"▁성균":11961,"▁좋다고":11962,"▁특목":11963,"▁파워":11964,"▁때문에.\r\n":11965,"▁행진":11966,"▁행사가":11967,"▁본선":11968,"▁후보자의":11969,"▁교육에":11970,"▁늘릴":11971,"▁애기":11972,"▁싶어서":11973,"▁따라서\r\n":11974,"▁복용":11975,"▁지원에":11976,"▁기업들의":11977,"▁승부를":11978,"기업이":11979,"▁순수":11980,"▁사용을":11981,"▁정말로":11982,"▁년이":11983,"레이션":11984,"▁로비":11985,"▁않았다고":11986,"▁와서\r\n":11987,"▁탄탄":11988,"▁라인":11989,"인데.\r\n":11990,"▁극장":11991,"▁인정한":11992,"▁의미에서":11993,"▁예산이":11994,"▁나가야":11995,"▁나와야":11996,"▁감사원":11997,"▁보내고":11998,"▁목표는":11999,"▁매출은":12000,"▁높아지고":12001,"▁소개해":12002,"▁불과했다.\r\n":12003,"▁짜증":12004,"▁NH":12005,"▁칼럼":12006,"▁솔로":12007,"▁불러일으":12008,"▁탓이다.\r\n":12009,"▁바이러스":12010,"▁지키는":12011,"▁일으키":12012,"▁상담을":12013,"미술관":12014,"▁감안해":12015,"▁움직임이":12016,"▁김성태":12017,"▁갖추고":12018,"▁획득":12019,"▁밀어붙":12020,"▁일방적으로":12021,"▁로스쿨":12022,"▁유니폼":12023,"(한":12024,"MW":12025,"▁웅":12026,"경기에":12027,"국내":12028,"군과":12029,"김치":12030,"되기도":12031,"라던":12032,"레일":12033,"보안":12034,"시장의":12035,"유예":12036,"이니":12037,"작전":12038,"장관은":12039,"저기":12040,"중이다.\r\n":12041,"처음":12042,"초를":12043,"해운":12044,"회,":12045,"▁이수":12046,"▁이완":12047,"▁그릏":12048,"▁아울러":12049,"▁한자":12050,"▁한다면":12051,"▁수차례":12052,"▁어어.\r\n":12053,"▁다닌":12054,"▁‘경":12055,"▁‘다":12056,"▁‘불":12057,"▁‘연":12058,"▁인종":12059,"▁국산":12060,"▁국장은":12061,"▁공존":12062,"▁않고,":12063,"▁없던":12064,"라고.\r\n":12065,"▁상반":12066,"▁비자금":12067,"▁모인":12068,"▁소장은":12069,"▁소금을":12070,"▁되거든요.\r\n":12071,"▁개선을":12072,"▁교황":12073,"▁원인이":12074,"▁세탁":12075,"▁방북":12076,"▁무대를":12077,"▁구호":12078,"▁실용":12079,"▁성숙":12080,"▁성형":12081,"▁장면을":12082,"▁이런\r\n":12083,"▁감각":12084,"▁했더니\r\n":12085,"▁20분":12086,"▁확대를":12087,"▁역사가":12088,"▁법원에":12089,"▁걸렸":12090,"▁중국에서":12091,"▁간접":12092,"▁치과":12093,"▁타격을":12094,"▁담화":12095,"▁가능할":12096,"▁크지":12097,"▁세계의":12098,"▁각국":12099,"▁학교는":12100,"▁내용도":12101,"이었다고":12102,"▁국제사회의":12103,"시간을":12104,"시간이":12105,"▁몇몇":12106,"▁전체적으로":12107,"▁대선을":12108,"▁구조를":12109,"▁되고요.\r\n":12110,"▁끌려":12111,"▁통합을":12112,"▁틀어":12113,"▁가져가":12114,"▁거래를":12115,"▁블루":12116,"▁반발하고":12117,"▁대법관":12118,"▁강력히":12119,"▁사라진":12120,"▁국토교통":12121,"▁지시를":12122,"▁근로자":12123,"▁레이더":12124,"▁무서운":12125,"입니다.”\r\n":12126,"▁그녀는":12127,"▁겨냥한":12128,"▁\"지난":12129,"▁팽팽":12130,"▁오리온":12131,"▁구속영장을":12132,"▁모니터링":12133,"▁듭니다.\r\n":12134,"▁황교안":12135,")에게":12136,"IT":12137,"·오":12138,"’란":12139,"▁혁명":12140,"겠어요?\r\n":12141,"경필":12142,"고사":12143,"달라는":12144,"둘러":12145,"락을":12146,"령이":12147,"명에서":12148,"바다":12149,"상,":12150,"야드":12151,"역이":12152,"연수":12153,"음료":12154,"이게":12155,"인재":12156,"일까.\r\n":12157,"종일":12158,"중독":12159,"태희":12160,"특위":12161,"판사":12162,"해요":12163,"▁있잖아":12164,"▁대지":12165,"▁대행":12166,"▁아트":12167,"으로도":12168,"▁사서":12169,"▁하다가\r\n":12170,"▁수강":12171,"▁1학년":12172,"▁가졌다.\r\n":12173,"▁것\r\n":12174,"▁보러":12175,"▁“강":12176,"▁“올해":12177,"▁다고":12178,"▁인명":12179,"▁인문학":12180,"▁중학생":12181,"▁공정한":12182,"▁안을":12183,"▁여성을":12184,"▁않겠다는":12185,"▁고혈압":12186,"▁의장은":12187,"▁만의":12188,"▁소요":12189,"▁연쇄":12190,"▁미뤄":12191,"▁그래갖고":12192,"▁요것":12193,"▁신생":12194,"▁진압":12195,"▁4개월":12196,"▁불필":12197,"▁더블":12198,"▁남짓":12199,"▁감면":12200,"▁열흘":12201,"▁대통령도":12202,"▁과세":12203,"▁맞붙":12204,"▁배정":12205,"▁뒤에는":12206,"▁뒤에도":12207,"▁프린":12208,"▁있어요":12209,"▁먹지":12210,"▁2014":12211,"▁씨에게":12212,"▁손흥":12213,"▁야채":12214,"▁속도로":12215,"▁프로파일":12216,"만원,":12217,"만원씩":12218,"▁경찰관":12219,"▁맛도":12220,"▁있을까":12221,"▁태극":12222,"▁홍익":12223,"▁좋은데\r\n":12224,"▁빠질":12225,"기로\r\n":12226,"▁측에":12227,"▁아닌데\r\n":12228,"▁탄도미사일":12229,"▁확인해":12230,"▁130":12231,"▁가족의":12232,"▁봐요.\r\n":12233,"▁머리가":12234,"▁죽는":12235,"▁마련했다.\r\n":12236,"▁예산안":12237,"▁말이에요.\r\n":12238,"▁뛰는":12239,"달러(약":12240,"▁LH":12241,"▁작품은":12242,"▁있도록\r\n":12243,"▁아마도":12244,"▁안전한":12245,"▁괜히":12246,"▁알아보":12247,"▁질문이":12248,"▁아시아나":12249,"▁남북관계":12250,"▁고민이":12251,"▁40대":12252,"▁던진":12253,"▁1000만":12254,"▁강력하게":12255,"▁든든":12256,"▁기름을":12257,"▁총선에서":12258,"▁짧게":12259,"▁핵실험을":12260,"▁동원해":12261,"▁“당시":12262,"▁셋째":12263,"-0으로":12264,"▁이로써":12265,"(김":12266,"68":12267,"PS":12268,"가,":12269,"감과":12270,"대행":12271,"동맹":12272,"리조":12273,"방의":12274,"변화":12275,"씨에":12276,"외과":12277,"용품":12278,"우주":12279,"이십":12280,"장학":12281,"저널":12282,"점의":12283,"청의":12284,"태평양":12285,"투를":12286,"풍이":12287,"하듯":12288,"▁이길":12289,"▁이적":12290,"▁아냐":12291,"▁하위":12292,"▁수면":12293,"▁어?":12294,"▁것”\r\n":12295,"▁“3":12296,"▁나흘":12297,"▁자고":12298,"▁‘여":12299,"▁등산":12300,"▁해가":12301,"▁국악":12302,"▁내신":12303,"▁안전을":12304,"▁의류":12305,"▁관료":12306,"▁관절":12307,"▁3,":12308,"▁모터":12309,"▁유신":12310,"▁미세":12311,"▁\"박":12312,"▁같기도":12313,"▁마운드":12314,"▁세력이":12315,"▁구자":12316,"▁4위":12317,"▁결핵":12318,"▁실력을":12319,"▁박상":12320,"▁박정":12321,"▁박찬":12322,"▁알파":12323,"▁감정이":12324,"▁20만":12325,"▁적당":12326,"▁적혀":12327,"▁적힌":12328,"▁단단":12329,"▁집값":12330,"▁명단을":12331,"▁같은\r\n":12332,"▁파기":12333,"()은":12334,"▁있어요.":12335,"▁줄이고":12336,"▁하나인":12337,"▁사회공헌":12338,"▁아이고":12339,"▁아이들의":12340,"▁시작했":12341,"▁규명":12342,"▁독려":12343,"▁경제협력":12344,"▁리스크":12345,"▁지원해":12346,"▁지원하고":12347,"▁대학에서":12348,"▁됐다는":12349,"▁진짜.\r\n":12350,"▁폭넓":12351,"▁요구에":12352,"▁기록이":12353,"▁범위를":12354,"▁바로잡":12355,"▁개인적인":12356,"▁뜻하는":12357,"▁소비자가":12358,"▁만나서":12359,"▁공동체":12360,"▁딱딱":12361,"▁플루":12362,"▁이러는":12363,"▁유지하고":12364,"▁현실적으로":12365,"▁선택을":12366,"▁아파트를":12367,"▁여론이":12368,"▁벌어지는":12369,"▁인간이":12370,"▁즐겨":12371,"▁즐기는":12372,"▁캠페":12373,"▁토론을":12374,"▁분명한":12375,"▁지켜야":12376,"▁범죄를":12377,"중국해":12378,"(SNS":12379,"▁슬로":12380,"▁나머지는":12381,"▁쌓아":12382,"▁카드를":12383,"▁마찬가지다.\r\n":12384,"▁회담을":12385,"▁안녕하십":12386,"▁실질적인":12387,"▁콘텐츠를":12388,"▁동반성장":12389,"▁멋진":12390,"▁곳곳에":12391,"▁아르바이트":12392,"▁깎아":12393,"▁항소심":12394,"▁핀란드":12395,"▁전당대회":12396,"▁다큐멘":12397,"▁불투명":12398,"98":12399,"ac":12400,"·강":12401,"·일본":12402,"▁.":12403,"▁옵":12404,"간을":12405,"거를":12406,"근로":12407,"답게":12408,"두\r\n":12409,"리나":12410,"리\r\n":12411,"서와":12412,"예방":12413,"월)":12414,"유지":12415,"자들과":12416,"자(C":12417,"처벌":12418,"총생산":12419,"하구":12420,"▁이태":12421,"▁이메일":12422,"▁아나":12423,"▁아휴":12424,"▁하려":12425,"▁하시고":12426,"▁전성":12427,"▁정세":12428,"▁기성":12429,"▁기호":12430,"▁‘해":12431,"▁공시":12432,"▁오일":12433,"▁여유":12434,"▁없죠.\r\n":12435,"▁고\r\n":12436,"▁상설":12437,"▁상환":12438,"▁의대":12439,"▁비즈니스":12440,"▁소극":12441,"▁연애":12442,"▁또래":12443,"▁교사가":12444,"▁많다는":12445,"▁김밥":12446,"▁김한":12447,"▁'한국":12448,"▁무사":12449,"▁무침":12450,"▁분의":12451,"▁아니지":12452,"▁강화를":12453,"▁현황":12454,"▁5·18":12455,"▁실장은":12456,"▁계층":12457,"▁더민주":12458,"▁장병":12459,"▁한국전":12460,"▁건가요?\r\n":12461,"▁남성이":12462,"▁감자":12463,"▁감찰":12464,"이라고\r\n":12465,"▁때문이었다.\r\n":12466,"▁맞이":12467,"▁들어올":12468,"▁배웠":12469,"▁역량":12470,"▁2000년대":12471,"▁막고":12472,"▁막상":12473,"▁법관":12474,"▁파란":12475,"▁합법":12476,"▁8년":12477,"▁드린":12478,"▁드물":12479,"▁씨(5":12480,"▁채취":12481,"▁화해":12482,"▁체력":12483,"▁시작할":12484,"▁있었다”고":12485,"▁프로농구":12486,"▁권유":12487,"▁날씨가":12488,"▁카톡":12489,"▁자신들의":12490,"▁형식으로":12491,"▁눈앞":12492,"▁준비하는":12493,"▁온갖":12494,"위원회(":12495,"▁월요일":12496,"▁대상에":12497,"▁정보통신":12498,"▁잠을":12499,"▁공개된":12500,"▁청와대에":12501,"▁청와대의":12502,"▁상태에":12503,"▁논란\r\n":12504,"▁제품은":12505,"▁건강을":12506,"▁달라”고":12507,"▁발언은":12508,"▁참가한":12509,"▁반응은":12510,"▁안보리":12511,"▁바뀌었다.\r\n":12512,"▁PC":12513,"▁덕분":12514,"▁스마트폰을":12515,"▁기다리":12516,"▁대표팀은":12517,"▁이래서":12518,"▁증거를":12519,"▁쳐다":12520,"▁불가능한":12521,"▁삼성전자가":12522,"▁특징이다.\r\n":12523,"▁일어났":12524,"▁쌍용차":12525,"▁탑승":12526,"▁인용해":12527,"▁이벤트":12528,"▁휴대폰":12529,"▁쓰레기":12530,"▁방과후":12531,"▁오케스트":12532,"&D":12533,"ad":12534,"·부":12535,"▁e":12536,"는지를":12537,"담에":12538,"라기":12539,"라든가":12540,"막을":12541,"봐.\r\n":12542,"비도":12543,"상황":12544,"생의":12545,"스’":12546,"시와":12547,"양이":12548,"연승을":12549,"위험":12550,"재산":12551,"지던":12552,"직으로":12553,"질랜드":12554,"차의":12555,"커녕":12556,"텐데\r\n":12557,"트라":12558,"티나":12559,"편의":12560,"프를":12561,"하다\r\n":12562,"현직":12563,"▁이진":12564,"▁하라고":12565,"▁한가":12566,"▁가면서":12567,"▁전설":12568,"▁전수":12569,"▁정면":12570,"▁보행":12571,"▁보선거":12572,"▁기온":12573,"▁“노":12574,"▁내게":12575,"▁공인":12576,"▁오오":12577,"▁우상":12578,"▁없으니까\r\n":12579,"▁선관":12580,"▁모의":12581,"▁모호":12582,"▁연평도":12583,"▁되면서":12584,"▁\"중":12585,"▁김어준":12586,"▁'스":12587,"▁세제":12588,"▁신발":12589,"▁4·1":12590,"▁후임":12591,"적으로도":12592,"▁남해":12593,"▁스토":12594,"▁특조":12595,"▁적립":12596,"▁맞대결":12597,"▁단위":12598,"▁직권":12599,"▁명목으로":12600,"▁청산":12601,"▁10분":12602,"▁금속":12603,"▁에프":12604,"▁포장":12605,"▁대표도":12606,"▁간을":12607,"▁간판":12608,"▁합니다":12609,"▁후보에":12610,"▁높일":12611,"▁관계없이":12612,"▁담임":12613,"▁손쉽":12614,"▁손해를":12615,"▁손가락":12616,"▁하나에":12617,"▁정치에":12618,"▁정치적인":12619,"▁식으로\r\n":12620,"▁누워":12621,"▁핵무":12622,"▁길게":12623,"▁농림":12624,"▁년대":12625,"▁육수를":12626,"▁그러니까.\r\n":12627,"▁기록해":12628,"▁그런데도":12629,"▁문화가":12630,"▁돌아다니":12631,"▁분석해":12632,"▁갔다가":12633,"▁나타냈다.\r\n":12634,"▁소비자들이":12635,"▁노동조합":12636,"▁인정하는":12637,"기관인":12638,"▁강화하고":12639,"▁귀찮":12640,"▁들어가면":12641,"▁직원들의":12642,"▁예상되는":12643,"▁사진이":12644,"▁이러고":12645,"▁구성해":12646,"▁대회에":12647,"▁과거의":12648,"▁받았던":12649,"▁묻혀":12650,"▁차지한":12651,"▁통과한":12652,"▁믿을":12653,"▁좌절":12654,"▁어머니는":12655,"▁넓은":12656,"전문가":12657,"▁확실한":12658,"▁트위터에":12659,"▁동영상을":12660,"▁근본적인":12661,"크스바겐":12662,"플루엔":12663,"▁둘러싸고":12664,"▁말레이시아":12665,"37":12666,"▁덴":12667,"개입":12668,"거리를":12669,"겠지만\r\n":12670,"곳,":12671,"놓고\r\n":12672,"다'고":12673,"도어":12674,"독립":12675,"러나":12676,"례가":12677,"루에서":12678,"벤처":12679,"보좌":12680,"선과":12681,"세종":12682,"스팅":12683,"심으로":12684,"일랜드":12685,"졌고":12686,"주고\r\n":12687,"차에":12688,"파운드":12689,"학적":12690,"▁그쳤":12691,"▁그들은":12692,"▁대박":12693,"▁지사":12694,"▁하야":12695,"▁하얀":12696,"▁한림":12697,"▁한명":12698,"▁거고":12699,"▁“문":12700,"▁“소":12701,"▁“제":12702,"▁나랑":12703,"▁자회사":12704,"▁‘상":12705,"▁‘우리":12706,"▁인테":12707,"▁주장은":12708,"▁중에서도":12709,"▁국물을":12710,"▁여겨":12711,"▁조속":12712,"니까?":12713,"▁소재로":12714,"▁연일":12715,"▁유입":12716,"▁미쳤":12717,"▁미치지":12718,"▁마산":12719,"▁요것도":12720,"▁신종":12721,"▁도달":12722,"▁반환":12723,"▁장거리":12724,"▁남겼다.\r\n":12725,"▁때문”이라고":12726,"▁추징":12727,"▁과제를":12728,"▁들어서\r\n":12729,"▁음주":12730,"▁것이냐":12731,"▁같은데.\r\n":12732,"▁그렇습니까?\r\n":12733,"▁검출":12734,"▁금리가":12735,"▁양상":12736,"▁에.\r\n":12737,"▁걸림":12738,"▁파고":12739,"▁약화":12740,"▁본사":12741,"▁정도에":12742,"▁경우에는\r\n":12743,"▁국민들":12744,"▁하지만,":12745,"▁돌입":12746,"▁산악":12747,"▁속속":12748,"▁완성이":12749,"▁광고를":12750,"▁대학이":12751,"▁돈도":12752,"▁있을까.\r\n":12753,"▁발표된":12754,"▁오늘의":12755,"▁빠졌다.\r\n":12756,"▁커졌다.\r\n":12757,"▁이야기는":12758,"▁철강":12759,"▁정책의":12760,"▁개발해":12761,"▁문화예술":12762,"▁모르게":12763,"▁팀장은":12764,"(32":12765,"▁가족과":12766,"▁회사에서":12767,"▁지지하는":12768,"▁휴게":12769,"▁1990년":12770,"▁자유를":12771,"자로서":12772,"▁페미":12773,"▁기존에":12774,"▁구조가":12775,"▁제공한다.\r\n":12776,"▁도입을":12777,"▁지나면":12778,"▁CCTV":12779,"▁익혀":12780,"▁배우고":12781,"▁남북한":12782,"▁요청한":12783,"▁벌어지고":12784,"▁티셔츠":12785,"▁가입자":12786,"▁주시면\r\n":12787,"▁무엇인가":12788,"▁소개했다.\r\n":12789,"▁원내대표가":12790,"▁LG화학":12791,"▁냉동":12792,"▁컨트롤":12793,"▁경남도":12794,"▁줬다.\r\n":12795,"▁닭고기":12796,"재판장":12797,"▁가슴을":12798,"▁개헌을":12799,"에이치":12800,"▁위치한":12801,"▁조언했다.\r\n":12802,"▁담배를":12803,"▁연예인":12804,"▁떠오른":12805,"▁쇼핑몰":12806,"▁데이비드":12807,"▁테이블":12808,"86":12809,"SC":12810,"▁쳤":12811,"▁험":12812,"격이":12813,"경원":12814,"그라":12815,"년을":12816,"다던":12817,"다면서":12818,"들여":12819,"등을":12820,"론가":12821,"방한":12822,"수지":12823,"실장":12824,"억여":12825,"이,":12826,"조가":12827,"조는":12828,"폭탄":12829,"▁지냈":12830,"▁하천":12831,"▁하기로":12832,"▁보편":12833,"▁“두":12834,"▁인재를":12835,"▁말부터":12836,"▁내기":12837,"▁오해":12838,"▁상의":12839,"▁선대":12840,"▁3분기":12841,"▁저가":12842,"▁저의":12843,"▁같았":12844,"▁같지":12845,"▁교훈":12846,"▁'무":12847,"▁'한":12848,"▁원천":12849,"▁신라":12850,"▁신화":12851,"▁분담":12852,"▁동대문":12853,"▁바쁜":12854,"▁현상을":12855,"▁5000":12856,"▁실장":12857,"▁영장":12858,"▁후퇴":12859,"▁차관은":12860,"▁했다\"고":12861,"▁했어\r\n":12862,"▁203":12863,"▁할까":12864,"▁음료":12865,"▁작가가":12866,"▁북미":12867,"▁양해":12868,"대로\r\n":12869,"▁심어":12870,"▁국민들에게":12871,"▁넘긴":12872,"▁애매":12873,"▁애들은":12874,"▁종전":12875,"▁싶다는":12876,"▁싶어요.\r\n":12877,"▁버려":12878,"▁올해부터":12879,"▁있었고\r\n":12880,"▁국가를":12881,"▁절실":12882,"▁<뉴욕":12883,"▁동안에":12884,"▁지적을":12885,"▁주장한":12886,"▁여성들이":12887,"▁장관과":12888,"▁갔는데":12889,"▁팀은":12890,"▁청와대와":12891,"▁가족을":12892,"▁외국어":12893,"▁송파":12894,"▁“이제":12895,"▁기간을":12896,"▁없어요\r\n":12897,"▁겁니다\r\n":12898,"▁빼돌":12899,"▁유지할":12900,"▁인천공항":12901,"▁끓는":12902,"▁움직임을":12903,"▁사랑하는":12904,"▁비용은":12905,"▁무엇이":12906,"▁토론회":12907,"▁대한민국의":12908,"▁이끌었다.\r\n":12909,"▁1000여":12910,"▁주도한":12911,"▁영어로":12912,"▁보험료":12913,"▁볶음":12914,"▁생각해요.\r\n":12915,"▁내세워":12916,"▁밖에서":12917,"계획을":12918,"▁기반으로":12919,"▁득표":12920,"▁뚜을":12921,"▁홈페이지에":12922,"▁한-미":12923,"▁바란다”고":12924,"▁KBO":12925,"▁[수도권]":12926,"크라이나":12927,"카데미":12928,"'이다.\r\n":12929,")인":12930,"F)":12931,"SA":12932,"ve":12933,"·서울":12934,"∼4":12935,"감치":12936,"꾸로":12937,"년이":12938,"대응":12939,"레인":12940,"먹는":12941,"문으로":12942,"베이트":12943,"보유":12944,"상정":12945,"서,":12946,"우의":12947,"일의":12948,"작업을":12949,"지션":12950,"찌감치":12951,"천히":12952,"카쿠":12953,"프가":12954,"협회는":12955,"형제":12956,"▁있구요.\r\n":12957,"▁아스":12958,"▁하느냐":12959,"▁한계를":12960,"▁1주일":12961,"▁가짜":12962,"▁전락":12963,"▁보리":12964,"▁거?\r\n":12965,"▁“단":12966,"▁“마":12967,"▁나지":12968,"▁나다.\r\n":12969,"▁‘새":12970,"▁일괄":12971,"▁중고":12972,"▁해요\r\n":12973,"▁때와":12974,"▁오신":12975,"▁우연히":12976,"▁없는\r\n":12977,"▁상식":12978,"▁관악":12979,"▁비주류":12980,"▁만인":12981,"▁서면":12982,"▁서술":12983,"▁'제":12984,"▁원로":12985,"▁무거운":12986,"▁분기":12987,"▁통행":12988,"▁당면":12989,"▁도는":12990,"▁재난":12991,"▁재현":12992,"▁500만":12993,"▁건져":12994,"▁노리는":12995,"▁남양":12996,"▁남경필":12997,"▁감추":12998,"▁했어.\r\n":12999,"▁생각했":13000,"▁대통령,":13001,"▁적었다.\r\n":13002,"▁뒤인":13003,"▁대표적이다.\r\n":13004,"▁걸리는":13005,"▁초중":13006,"▁높다는":13007,"▁심장":13008,"▁담았다.\r\n":13009,"▁왜\r\n":13010,"▁목격":13011,"▁협조를":13012,"▁환자의":13013,"▁버무":13014,"▁리버":13015,"▁있었는데":13016,"▁편이다.\r\n":13017,"▁카이":13018,"▁많은데\r\n":13019,"▁끝으로":13020,"▁됐다\"고":13021,"▁선수로":13022,"▁백인":13023,"이었지만":13024,"▁그럼요.\r\n":13025,"▁문화방송":13026,"▁정보기술":13027,"▁별도":13028,"▁바로\r\n":13029,"(34":13030,"▁봐.\r\n":13031,"▁마련할":13032,"업체가":13033,"▁우려도":13034,"▁인정하고":13035,"▁인정하지":13036,"▁언론은":13037,"▁서울시교육청":13038,"▁발생했다.\r\n":13039,"▁LPGA":13040,"정보를":13041,"▁넣어서\r\n":13042,"하자고":13043,"▁왜냐면은":13044,"▁낙동강":13045,"▁딸을":13046,"▁옮긴":13047,"▁다니고":13048,"▁정신적":13049,"▁똑똑":13050,"▁납부":13051,"▁좋겠다.\r\n":13052,"▁사망한":13053,"▁NYT":13054,"▁공간이":13055,"▁국토부는":13056,"▁모델을":13057,"▁가르치는":13058,"▁베이비":13059,"▁이곳에서":13060,"▁DM":13061,"▁연락을":13062,"▁답변을":13063,"▁삼성전자의":13064,"▁타이틀":13065,"▁이내에":13066,"▁일제히":13067,"▁어머님":13068,"▁쟁점":13069,"▁간호사":13070,"▁박수홍":13071,".com":13072,"▁통합진보당":13073,"▁미드필":13074,">를":13075,"il":13076,"▁룰":13077,"▁즈":13078,"곡을":13079,"과,":13080,"교회":13081,"길에":13082,"동물":13083,"되던":13084,"라,":13085,"미르":13086,"반대":13087,"받는다.\r\n":13088,"방어":13089,"블릿":13090,"사법":13091,"셨어요.\r\n":13092,"시장은":13093,"였고":13094,"올린":13095,"와이":13096,"이카":13097,"자’":13098,"작년":13099,"장비":13100,"진과":13101,"타는":13102,"타이":13103,"합병":13104,"헌법":13105,"희망":13106,"▁이었다.\r\n":13107,"▁대를":13108,"▁사로":13109,"▁사장의":13110,"▁지리":13111,"▁가요":13112,"▁정동":13113,"▁시신":13114,"▁시월":13115,"▁“외":13116,"▁나이에":13117,"▁‘선":13118,"▁인원":13119,"▁인정을":13120,"▁주어":13121,"▁제철":13122,"▁말아":13123,"▁오천":13124,"▁오페라":13125,"▁여부에":13126,"▁의도가":13127,"▁3~4":13128,"▁소스를":13129,"▁연상":13130,"▁연세":13131,"▁유효":13132,"▁개정을":13133,"▁'공":13134,"▁원에서":13135,"▁방학":13136,"▁신부":13137,"▁우리를":13138,"▁올바른":13139,"▁도약":13140,"▁재·보":13141,"▁실적이":13142,"▁장남":13143,"▁학과":13144,"▁감청":13145,"▁게재":13146,"▁좋고\r\n":13147,"▁응용":13148,"▁응?\r\n":13149,"▁참배":13150,"▁물건을":13151,"▁새겨":13152,"▁음식이":13153,"▁외곽":13154,"▁배고":13155,"▁민사":13156,"▁금리를":13157,"▁84":13158,"▁88":13159,"▁드폰":13160,"▁의원,":13161,"▁변동":13162,"▁변수":13163,"▁갖다가":13164,"▁화를":13165,"▁목적이":13166,"▁사업자":13167,"▁그거\r\n":13168,"▁어떻게\r\n":13169,"▁처음엔":13170,"▁결과로":13171,"▁선수들을":13172,"▁코치":13173,"▁요구가":13174,"▁선생님과":13175,"▁진행하는":13176,"▁떨어지":13177,"▁떨어지고":13178,"▁정상화":13179,"▁전문가들이":13180,"▁방식의":13181,"▁나가고":13182,"▁놀러":13183,"▁제공하고":13184,"▁끌었다.\r\n":13185,"▁써서":13186,"▁선택한":13187,"▁번째는":13188,"방송>":13189,"▁시스템이":13190,"▁바람이":13191,"▁선언한":13192,"▁대기업의":13193,"▁대변인":13194,"▁GM":13195,"▁“그동안":13196,"▁몰라\r\n":13197,"▁지시했다.\r\n":13198,"▁할머니가":13199,"▁화장실":13200,"▁긍까":13201,"어요.”\r\n":13202,"▁받아들일":13203,"▁챔피언스리그":13204,"▁주문했다.\r\n":13205,"▁샌드":13206,"▁나타나고":13207,"▁에스케이텔레콤":13208,"▁터뜨렸다.\r\n":13209,"▁알겠습니다.":13210,"▁일각에서는":13211,"▁가난한":13212,"▁멘토":13213,"▁가라앉":13214,"▁불확실":13215,"!\r\n":13216,"-중":13217,"1일":13218,"·가":13219,"▁래":13220,"▁링":13221,"경의":13222,"계좌":13223,"관련":13224,"국회의":13225,"권력":13226,"금의":13227,"금리를":13228,"네요?\r\n":13229,"들.\r\n":13230,"듯이\r\n":13231,"레스타":13232,"법안":13233,"별한":13234,"슬러":13235,"았고,":13236,"인한":13237,"임이":13238,"점검":13239,"접촉":13240,"케어":13241,"쿠버":13242,"탱크":13243,"함과":13244,"했으면":13245,"회계":13246,"훈은":13247,"▁이순":13248,"▁이다.\r\n":13249,"▁그른":13250,"▁대가로":13251,"▁사연":13252,"▁어두":13253,"▁어허":13254,"▁가릭":13255,"▁전술":13256,"▁전제로":13257,"▁정통":13258,"▁2단계":13259,"▁보름":13260,"▁보태":13261,"▁보도가":13262,"▁거라":13263,"▁“만":13264,"▁“진":13265,"▁자는":13266,"▁다는":13267,"▁인물이":13268,"▁부부가":13269,"▁\"고":13270,"▁서대문":13271,"▁생겼다.\r\n":13272,"▁김세":13273,"▁김아무개":13274,"▁원형":13275,"▁세입":13276,"▁그런가":13277,"▁바가":13278,"▁당이":13279,"▁4%":13280,"▁재배":13281,"▁5명":13282,"▁계절":13283,"▁건가":13284,"▁건보":13285,"▁건전":13286,"▁노숙":13287,"▁스케":13288,"▁회수":13289,"▁달했다.\r\n":13290,"▁맞어":13291,"▁맞을":13292,"▁배달":13293,"▁명에":13294,"▁총무":13295,"▁양이":13296,"▁간섭":13297,"▁의원들의":13298,"▁투자가":13299,"▁2012":13300,"▁취지로":13301,"▁화면":13302,"▁돼서\r\n":13303,"▁규탄":13304,"▁책의":13305,"▁정치가":13306,"▁이어갔다.\r\n":13307,"▁복수":13308,"▁많은데":13309,"▁끝날":13310,"▁않는다”며":13311,"▁계속\r\n":13312,"▁놓인":13313,"▁이거\r\n":13314,"▁트레이":13315,"▁여기저기":13316,"▁국제적":13317,"▁금융회사":13318,"▁현대건설":13319,"▁참여하고":13320,"▁피해자가":13321,"▁결정적":13322,"▁자기의":13323,"▁브로":13324,"(31":13325,"(38":13326,"▁투자자":13327,"▁영화의":13328,"▁소비자들의":13329,"▁올라온":13330,"사업에":13331,"▁출신이":13332,"▁1992년":13333,"▁예산은":13334,"▁해외에서":13335,"▁판매가":13336,"▁플라스":13337,"▁이뤄졌다.\r\n":13338,"▁프로그램이":13339,"▁24시간":13340,"▁격차가":13341,"▁인터넷을":13342,"▁조선일보":13343,"▁낙관":13344,"▁비교하면":13345,"▁욕을":13346,"▁0.3":13347,"▁반발했다.\r\n":13348,"▁본격화":13349,"▁누구도":13350,"▁들었습니다.\r\n":13351,"▁말씀드리":13352,"▁물어봤":13353,"▁고추장":13354,"▁김치찌개":13355,"▁추정된다.\r\n":13356,"▁걷는":13357,"▁재밌는":13358,"▁지배구조":13359,"▁연락이":13360,"▁누리집":13361,"부(재판장":13362,"PGA)":13363,"▁목소리도":13364,"▁우울증":13365,"▁성균관":13366,"(北":13367,"AE":13368,"~30":13369,"∼6":13370,"▁?":13371,"▁v":13372,"▁튼":13373,"▁났다.\r\n":13374,"듯\r\n":13375,"마리":13376,"마에":13377,"매를":13378,"방에서":13379,"사\r\n":13380,"스테":13381,"실업":13382,"운하":13383,"자연":13384,"중이":13385,"증후":13386,"침해":13387,"프레":13388,"하시면":13389,"▁이산가족":13390,"▁하자는":13391,"▁어르신":13392,"▁가결":13393,"▁“미국":13394,"▁나눈":13395,"▁나라는":13396,"▁일찌감치":13397,"▁주시고":13398,"하는데\r\n":13399,"▁중계":13400,"▁해준":13401,"▁해줄":13402,"▁공적":13403,"▁부러":13404,"▁오렌":13405,"▁여태":13406,"▁여자가":13407,"▁여부는":13408,"▁여당이":13409,"▁않습니까\r\n":13410,"▁없으":13411,"▁의정부":13412,"▁비공":13413,"▁3회":13414,"▁소중한":13415,"▁연근":13416,"▁연기를":13417,"▁유물":13418,"▁저작":13419,"▁마른":13420,"▁마시고\r\n":13421,"▁교장":13422,"▁김선":13423,"▁김형":13424,"▁방에":13425,"▁무더":13426,"▁그러는데\r\n":13427,"▁4조":13428,"▁결선":13429,"▁박용":13430,"▁차분":13431,"▁차세대":13432,"▁추출":13433,"▁출자":13434,"▁참조":13435,"▁단행":13436,"▁직면":13437,"▁역설":13438,"▁얘는":13439,"▁처분을":13440,"▁법제":13441,"()는":13442,"▁19대":13443,"▁2015":13444,"▁심하게":13445,"▁함유":13446,"▁치안":13447,"▁취업을":13448,"▁정치학":13449,"▁버리고":13450,"▁경제에":13451,"▁날은":13452,"▁대학은":13453,"▁않는다고":13454,"▁선수들에게":13455,"▁백지":13456,"▁사용해":13457,"▁천천히":13458,"▁선생님?\r\n":13459,"▁결정한":13460,"▁떠났다.\r\n":13461,"▁갔다.\r\n":13462,"▁탈퇴":13463,"▁얼마든지":13464,"▁나타날":13465,"▁전국에서":13466,"▁새누리당의":13467,"▁영향으로":13468,"▁인정해":13469,"▁어렵다”고":13470,"▁성공적으로":13471,"▁예상했다.\r\n":13472,"▁확대할":13473,"▁플로":13474,"▁유럽의":13475,"▁공격수":13476,"▁이러면서":13477,"▁언니는":13478,"▁도입한":13479,"km를":13480,"▁대신에":13481,"▁재판을":13482,"▁알아야":13483,"▁낙지":13484,"▁가까워":13485,"▁많아요.\r\n":13486,"▁지속적인":13487,"▁종합하면,":13488,"▁촉진":13489,"▁근무하는":13490,"▁단계적으로":13491,"▁겨울올림픽":13492,"▁지키고":13493,"▁지키지":13494,"▁넓혀":13495,"▁이곳에":13496,"▁일어나는":13497,"▁나누는":13498,"▁묶어":13499,"▁무상급식":13500,"▁OECD":13501,"▁스트레스를":13502,"▁6·25전쟁":13503,"(미국":13504,"-6":13505,"PC":13506,"ol":13507,"·노":13508,"▁X":13509,"▁찌개":13510,"간접":13511,"개,":13512,"경남":13513,"계에서는":13514,"공제":13515,"국방":13516,"근무":13517,"나고":13518,"뉴얼":13519,"다오":13520,"닷컴":13521,"당시":13522,"되도록":13523,"들만":13524,"라우드":13525,"론은":13526,"루를":13527,"리안":13528,"목이":13529,"미의":13530,"방향":13531,"보조":13532,"비율":13533,"사용":13534,"석에서":13535,"성·":13536,"수입":13537,"여름":13538,"연료":13539,"영이":13540,"와서":13541,"왔던":13542,"우면":13543,"으려고":13544,"이즈":13545,"이니까\r\n":13546,"일수록":13547,"재료":13548,"적한":13549,"전철":13550,"조약":13551,"처가":13552,"티를":13553,"▁이한":13554,"▁아산":13555,"▁하러":13556,"▁전경":13557,"▁기가":13558,"▁‘도":13559,"▁‘모":13560,"▁‘친":13561,"▁일부는":13562,"▁주전":13563,"▁중대한":13564,"▁내외":13565,"▁부결":13566,"▁예민":13567,"▁예쁜":13568,"▁오승":13569,"▁위법":13570,"▁고립":13571,"▁고심":13572,"▁고조":13573,"▁상가":13574,"▁조세":13575,"▁관건":13576,"니까요.\r\n":13577,"▁3번":13578,"▁소주":13579,"▁되는데요.\r\n":13580,"▁\"수":13581,"▁뭐랄":13582,"▁김인":13583,"▁김씨가":13584,"▁신고를":13585,"▁구리":13586,"▁구실을":13587,"▁당을":13588,"▁불려":13589,"▁재보":13590,"▁5대":13591,"▁성분이":13592,"▁영혼":13593,"▁후유":13594,"▁노르":13595,"▁박병":13596,"▁박성":13597,"▁두는":13598,"▁했다”며":13599,"▁생각한다”고":13600,"▁확립":13601,"▁정부도":13602,"▁문제점을":13603,"▁민원":13604,"▁것이라":13605,"▁그렇다":13606,"▁가지는":13607,"▁금품":13608,"▁양은":13609,"▁걸었다.\r\n":13610,"▁걸렸다.\r\n":13611,"▁간다고":13612,"▁피할":13613,"▁99":13614,"▁9회":13615,"▁줄기":13616,"▁씨제이":13617,"거든요.":13618,"▁아이템":13619,"▁세계에":13620,"▁야\r\n":13621,"▁교수,":13622,"▁절차가":13623,"▁승점":13624,"▁얘기해":13625,"▁광주시":13626,"▁은폐":13627,"▁됐다고":13628,"▁눈으로":13629,"▁15%":13630,"▁사건과":13631,"▁평가하는":13632,"▁저희가\r\n":13633,"▁년을":13634,"▁용역":13635,"▁돌아가는":13636,"▁급하게":13637,"▁180":13638,"▁영화가":13639,"▁위원회":13640,"▁거예요.":13641,"▁패널":13642,"▁정상적인":13643,"▁방송에":13644,"업체에":13645,"기관에":13646,"▁기대가":13647,"▁만큼,":13648,"▁우리나라가":13649,"▁석사":13650,"▁살아야":13651,"▁익히":13652,"▁녹취":13653,"▁이사장이":13654,"▁티베":13655,"▁착각":13656,"▁끊이지":13657,"▁잇단":13658,"▁1988년":13659,"▁졸업생":13660,"▁국무부":13661,"▁약속했다.\r\n":13662,"▁사람들은\r\n":13663,"▁까다":13664,"▁출전해":13665,"▁전자랜드":13666,"▁부회장이":13667,"▁해석이":13668,"▁빠져나":13669,"▁부문에서":13670,"▁명예훼손":13671,"▁인생을":13672,"▁회원국":13673,"▁들어간다.\r\n":13674,"-1로":13675,"▁“내년":13676,"▁아닐까":13677,"▁크리스마":13678,"▁진상조사":13679,"나이티":13680,"▁피의자":13681,"▁꿈꾸는":13682,"▁쇼트트랙":13683,"▁삼성물산":13684,"▁손쉽게":13685,"\"라는":13686,"-7":13687,"83":13688,"▁끔":13689,"▁릴":13690,"감하게":13691,"걸음":13692,"구요.":13693,"규제":13694,"기부":13695,"단,":13696,"담보":13697,"라야":13698,"렉스":13699,"렬한":13700,"물가":13701,"배구":13702,"사이트":13703,"에요\r\n":13704,"였을":13705,"이면서":13706,"작품":13707,"직에":13708,"질의":13709,"청사":13710,"캠퍼스":13711,"파리":13712,"했었다.\r\n":13713,"회관":13714,"▁이가":13715,"▁이견":13716,"▁이시":13717,"▁대조":13718,"▁지는":13719,"▁지을":13720,"▁하니":13721,"▁어때":13722,"▁가벼":13723,"▁정황":13724,"▁2명이":13725,"▁2년간":13726,"▁기구":13727,"▁기를":13728,"▁기자가":13729,"▁“동":13730,"▁“양":13731,"▁일종":13732,"▁인삼":13733,"▁등\r\n":13734,"▁제압":13735,"▁제치고":13736,"▁예컨":13737,"▁우라":13738,"▁우크라이나":13739,"▁않다고":13740,"▁고가":13741,"▁만기":13742,"▁소고기":13743,"▁유가":13744,"▁유인":13745,"▁미흡":13746,"▁되자":13747,"▁되풀이":13748,"▁\"가":13749,"▁\"일":13750,"▁생선":13751,"▁마트":13752,"▁신축":13753,"▁동행":13754,"▁당황":13755,"▁불렀":13756,"▁재임":13757,"▁실세":13758,"▁성분":13759,"▁장편":13760,"▁후회":13761,"▁박종":13762,"▁스토리":13763,"▁차려":13764,"▁지금.\r\n":13765,"▁생각보다":13766,"▁못한다.\r\n":13767,"▁열두":13768,"▁열람":13769,"▁하는지":13770,"▁서울은":13771,"▁배포":13772,"▁밝은":13773,"▁매진":13774,"▁77":13775,"▁데\r\n":13776,"▁사실이다.\r\n":13777,"▁판교":13778,"▁이상인":13779,"▁활약을":13780,"▁돌연":13781,"▁화두":13782,"▁이후로":13783,"▁식약":13784,"▁식사를":13785,"▁싶다\"고":13786,"▁리엄":13787,"▁충전":13788,"▁카지노":13789,"▁연구가":13790,"▁연구소":13791,"▁학교폭력":13792,"▁내용이다.\r\n":13793,"▁조사할":13794,"▁거기다가":13795,"▁커다란":13796,"▁요구할":13797,"▁대상은":13798,"교육감":13799,"▁조금\r\n":13800,"▁결정에":13801,"▁100m":13802,"▁확인했다.\r\n":13803,"▁어려움이":13804,"▁경쟁력이":13805,"▁올라갈":13806,"▁다양하게":13807,"▁나라에":13808,"▁언론들은":13809,"▁평균자책":13810,"▁않아?\r\n":13811,"▁드러났":13812,"▁역사상":13813,"달러를":13814,"▁변호인":13815,"▁사고로":13816,"▁방식이다.\r\n":13817,"▁같아\r\n":13818,"▁놀랐":13819,"km2":13820,"▁익은":13821,"▁찍고":13822,"들에겐":13823,"훈련을":13824,"▁듯하다.\r\n":13825,"▁공정위는":13826,"▁공급하는":13827,"▁수입을":13828,"▁등장하는":13829,"▁건축가":13830,"▁넣으시":13831,"▁근거가":13832,"▁두산은":13833,"▁혈액":13834,"▁자격이":13835,"▁그만두":13836,"▁프로젝트를":13837,"▁실험을":13838,"▁앉아서":13839,"▁폴크스바겐":13840,"▁도발을":13841,"▁name2이":13842,"▁정의당":13843,"▁잊지":13844,"▁사무총장은":13845,"▁작성한":13846,"사무소":13847,"▁시·도":13848,"▁벤처기업":13849,"▁기자간담회에서":13850,"▁프로파일러":13851,"(비":13852,"(지":13853,">을":13854,"OC":13855,"~10":13856,"▁Y":13857,"▁셀":13858,"광장":13859,"글라":13860,"금과":13861,"께서는":13862,"낸셜":13863,"됐다”며":13864,"되어야":13865,"로지":13866,"르시":13867,"마가":13868,"만.\r\n":13869,"바운드":13870,"빨리":13871,"설수":13872,"열을":13873,"였다”고":13874,"인력":13875,"제도를":13876,"중심":13877,"지마는\r\n":13878,"초등학교":13879,"추천":13880,"출산":13881,"티스트":13882,"프는":13883,"해준":13884,"▁이삼":13885,"▁그와":13886,"▁그랜드":13887,"▁대접":13888,"▁지도를":13889,"▁지위를":13890,"▁한발":13891,"▁가졌":13892,"▁가지만":13893,"▁보람":13894,"▁다뤄":13895,"▁일기":13896,"▁해병":13897,"▁해?\r\n":13898,"▁내시":13899,"▁내주":13900,"▁공소":13901,"▁공중":13902,"▁부어":13903,"▁때도\r\n":13904,"▁오찬":13905,"▁없다.":13906,"▁고집":13907,"▁비로":13908,"▁3명이":13909,"▁소식이":13910,"▁유감":13911,"▁유나이티":13912,"▁미루":13913,"▁교사는":13914,"▁많기":13915,"▁'가":13916,"▁'나":13917,"▁요인":13918,"▁방역":13919,"▁무의":13920,"▁통치":13921,"▁당국의":13922,"▁도우":13923,"▁5억":13924,"▁5개월":13925,"▁실어":13926,"▁장교":13927,"▁회전":13928,"▁감지":13929,"▁좋습니다.\r\n":13930,"▁추기":13931,"▁생각한다.\r\n":13932,"▁입단":13933,"▁600":13934,"▁과반":13935,"▁달라는":13936,"▁맞물":13937,"▁물고":13938,"▁새누리":13939,"▁직원은":13940,"하기에":13941,"▁매니":13942,"▁북부":13943,"▁78":13944,"▁에이스":13945,"▁법이":13946,"▁법원의":13947,"▁합계":13948,"()'":13949,"▁191":13950,"▁경우에도":13951,"▁심해":13952,"▁늘리고":13953,"▁화백":13954,"▁목을":13955,"▁크기의":13956,"▁책정":13957,"▁어떻습니까?\r\n":13958,"▁종이":13959,"▁속이":13960,"▁사업으로":13961,"▁교수를":13962,"▁쓰기":13963,"▁기업과":13964,"▁기업들은":13965,"▁군은":13966,"▁위한\r\n":13967,"▁순식":13968,"▁계속해서":13969,"▁사건으로":13970,"▁빠르":13971,"▁로열":13972,"▁육박":13973,"▁축구를":13974,"▁탄압":13975,"▁맡겨":13976,"▁범행을":13977,"▁분석이다.\r\n":13978,"▁보여줬":13979,"▁찾아볼":13980,"(37":13981,"▁선거운동":13982,"▁왔는데\r\n":13983,"▁있으신":13984,"▁AP":13985,"▁않을까\r\n":13986,"▁싸게":13987,"▁침략":13988,"▁어렵다고":13989,"▁어디까지":13990,"▁활동이":13991,"▁힘들게":13992,"▁페루":13993,"▁이뤄지는":13994,"▁있는데.\r\n":13995,"▁숨졌다.\r\n":13996,"개발기구":13997,"▁지나가":13998,"▁관리하는":13999,"죠.”\r\n":14000,"▁나서고":14001,"▁분위기는":14002,"▁제기됐다.\r\n":14003,"▁엄청나게":14004,"▁저~\r\n":14005,"▁내부의":14006,"▁끊어":14007,"▁선정된":14008,"▁쉬는":14009,"▁고용노동":14010,"스크포":14011,"노동조합":14012,"▁망가":14013,"▁그룹의":14014,"▁가정의":14015,"▁하셨는데\r\n":14016,"▁슬라이":14017,"▁방안에":14018,"▁국토부":14019,"▁늘어났":14020,"▁자녀를":14021,"▁파악하고":14022,"▁넣으셔도":14023,"▁김영삼":14024,"▁마이클":14025,"▁하이닉":14026,"▁철저하게":14027,"▁궁금한":14028,"▁US":14029,"▁자동으로":14030,"하는데,":14031,"▁“아직":14032,"▁“북한이":14033,"▁실종자":14034,"▁쫓겨":14035,"▁공무원이":14036,"▁누군가":14037,"▁서초구":14038,"▁무리한":14039,"▁최소한의":14040,"교과서":14041,"▁잠수함":14042,"▁급격히":14043,"▁문화체육관광부":14044,"▁톡톡":14045,"(www.":14046,"LS":14047,"TX":14048,"·하":14049,"”이라는":14050,"▁쳤다.\r\n":14051,"강도":14052,"군요":14053,"는지는":14054,"다섯":14055,"동,":14056,"되거나":14057,"디는":14058,"라를":14059,"메리카":14060,"미나":14061,"밀히":14062,"범이":14063,"변을":14064,"보단":14065,"분양":14066,"사카":14067,"석의":14068,"소기업":14069,"연의":14070,"위성":14071,"제’":14072,"조에":14073,"처는":14074,"총장":14075,"코패":14076,"타오":14077,"터테인":14078,"퇴근":14079,"학술":14080,"▁있습니다.":14081,"▁대입":14082,"▁대주주":14083,"▁아기":14084,"▁하거든요.\r\n":14085,"▁한·일":14086,"▁가령":14087,"▁가혹":14088,"▁정해진":14089,"▁기밀":14090,"▁“2":14091,"▁“구":14092,"▁자기를":14093,"▁자랑스":14094,"▁일인":14095,"▁중복":14096,"▁공채":14097,"▁안희정":14098,"▁우회":14099,"▁고기가":14100,"▁상조":14101,"▁3점":14102,"▁유예":14103,"▁\"자":14104,"▁서식":14105,"▁동상":14106,"▁동향":14107,"▁진로":14108,"▁받으며":14109,"▁도저히":14110,"▁재료를":14111,"▁사람에":14112,"▁건물이":14113,"▁남기고":14114,"▁했으나":14115,"▁달렸다.\r\n":14116,"▁배울":14117,"▁7%":14118,"▁74":14119,"▁프라":14120,"▁초고":14121,"▁정도였다.\r\n":14122,"▁2010":14123,"▁논술":14124,"▁타협":14125,"▁북한에서":14126,"▁교육청":14127,"▁하나하나":14128,"▁산은":14129,"▁독감":14130,"▁그거에":14131,"▁경제성장":14132,"▁얘기하":14133,"하면서,":14134,"▁경찰과":14135,"▁삼성그룹":14136,"▁핵무기":14137,"▁측의":14138,"▁국회를":14139,"▁아닌가\r\n":14140,"▁주장에":14141,"▁운영을":14142,"▁와.\r\n":14143,"센터가":14144,"▁직접적인":14145,"(35":14146,"▁16개":14147,"▁투자하는":14148,"▁비판하는":14149,"▁왔을":14150,"▁외교안보":14151,"▁뉴질랜드":14152,"▁나라에서":14153,"▁희토":14154,"▁판매하는":14155,"▁읽은":14156,"▁판단이":14157,"▁듣기":14158,"하자,":14159,"▁우리나라에서":14160,"▁석탄":14161,"▁업체들이":14162,"▁시절에":14163,"▁펼치고":14164,"▁기억을":14165,"▁매출액":14166,"▁정신이":14167,"▁1월부터":14168,"▁1987년":14169,"▁옷이":14170,"▁헤이":14171,"▁이건희":14172,"▁약속한":14173,"▁압박을":14174,"▁60대":14175,"▁잃어버":14176,"▁노조는":14177,"▁원칙에":14178,"▁분양가":14179,"(199":14180,"▁개념을":14181,"영화제":14182,"▁일으킨":14183,"▁“국내":14184,"▁“국정":14185,"▁왼손":14186,"▁좁아":14187,"▁긍정적":14188,"▁갤러리":14189,"▁어울리는":14190,"▁최고위원은":14191,"▁쫓아":14192,"▁대목이다.\r\n":14193,"▁브리핑에서":14194,"번홀(파":14195,"▁할아버지":14196,"▁정몽준":14197,"▁자유한국당":14198,"▁플라스틱":14199,"\";":14200,".\"\r\n":14201,"1억":14202,"79":14203,"NA":14204,"]‘":14205,"ig":14206,"·한":14207,"▁킹":14208,"▁폰":14209,"계약을":14210,"공격":14211,"관왕":14212,"너무":14213,"년대":14214,"레반":14215,"련의":14216,"론에":14217,"롭고":14218,"면접":14219,"무가":14220,"바지":14221,"방해":14222,"버렸":14223,"소개":14224,"수단":14225,"수리":14226,"시도":14227,"신청":14228,"언을":14229,"업계의":14230,"의)":14231,"일,":14232,"재의":14233,"지엄":14234,"키아":14235,"페이스":14236,"합리":14237,"화될":14238,"▁있거든요\r\n":14239,"▁대사는":14240,"▁대안을":14241,"▁수제":14242,"▁수퍼":14243,"▁1번":14244,"▁1.5":14245,"▁정답":14246,"▁시공":14247,"▁기득":14248,"▁거냐":14249,"▁거였":14250,"▁“모":14251,"▁“불":14252,"▁“실":14253,"▁중수":14254,"▁해안":14255,"▁국장":14256,"▁공군":14257,"▁상속":14258,"▁상을":14259,"▁상향":14260,"▁조항을":14261,"▁관세":14262,"▁소치":14263,"▁연평균":14264,"▁유망":14265,"▁미소":14266,"▁되나요?\r\n":14267,"▁생리":14268,"▁개원":14269,"▁요양":14270,"▁신사":14271,"▁신작":14272,"▁무지":14273,"▁동서":14274,"▁구로":14275,"▁구직":14276,"▁우리\r\n":14277,"▁강동":14278,"▁강호":14279,"▁사람으로":14280,"▁알레":14281,"▁두바이":14282,"▁하는게":14283,"▁62":14284,"▁69":14285,"▁출장":14286,"▁달을":14287,"▁단원":14288,"▁배임":14289,"▁뒤진":14290,"▁민노총":14291,"▁72":14292,"▁얘긴":14293,"▁포도":14294,"▁대표로":14295,"▁합참":14296,"▁있어,":14297,"▁먹어도":14298,"▁경우엔":14299,"▁심포":14300,"▁운항":14301,"▁임상":14302,"▁너무\r\n":14303,"▁취지의":14304,"▁넘은":14305,"▁세계가":14306,"▁종업":14307,"▁지역이":14308,"▁리우":14309,"▁있었기":14310,"▁지원한다.\r\n":14311,"▁업그":14312,"▁국내총생산":14313,"▁연구위원은":14314,"주의가":14315,"▁접목":14316,"이었어요.\r\n":14317,"▁지적이다.\r\n":14318,"▁육아":14319,"▁주장한다.\r\n":14320,"▁용어":14321,"▁추진\r\n":14322,"▁보여줄":14323,"▁찾아야":14324,"▁기술은":14325,"▁수준인":14326,"▁터진":14327,"▁외교통상":14328,"▁둘은":14329,"▁위원장의":14330,"사회적":14331,"업체의":14332,"▁해결해야":14333,"▁페이":14334,"▁혐의가":14335,"▁아까도":14336,"▁주변의":14337,"▁주변에서":14338,"▁레몬":14339,"▁있다며":14340,"▁미래가":14341,"(60":14342,"▁차지하고":14343,"▁설치해":14344,"▁벗겨":14345,"▁교과서를":14346,"▁즐기":14347,"▁되겠다":14348,"▁제외하고":14349,"▁하겠다고":14350,"▁하겠다”고":14351,"▁쉬워":14352,"▁제출했다.\r\n":14353,"▁설립된":14354,"▁설립한":14355,"199":14356,"▁예술의":14357,"▁아빠는":14358,"▁궁극":14359,"▁챙긴":14360,"▁고위급":14361,"▁제안한":14362,"▁전쟁을":14363,"▁에스엔":14364,"▁조건으로":14365,"본부장은":14366,"▁바이러":14367,"▁끝나면":14368,"▁저녁에":14369,"건설은":14370,"▁한화는":14371,"▁디자인을":14372,"▁입학사정":14373,"▁명의로":14374,"▁센카쿠":14375,"▁펴낸":14376,"▁획기":14377,"▁복잡한":14378,"▁벨기에":14379,"▁사령탑":14380,"▁미드필더":14381,"LG":14382,"·스":14383,"·조":14384,"’며":14385,"▁혁":14386,"겠습니다.":14387,"계층":14388,"구,":14389,"기소":14390,"롭지":14391,"름이":14392,"막이":14393,"발표":14394,"번역":14395,"벨트":14396,"성으로":14397,"셨습니다.\r\n":14398,"소리를":14399,"열이":14400,"였다는":14401,"오지":14402,"우기":14403,"워했다.\r\n":14404,"의약품":14405,"진에":14406,"청원":14407,"팔십":14408,"현장":14409,"▁이대로":14410,"▁있다”는":14411,"▁어학":14412,"▁전적으로":14413,"▁보류":14414,"▁보신":14415,"▁보디아":14416,"▁시점에":14417,"▁“하":14418,"▁“정치":14419,"▁“나는":14420,"▁자사":14421,"▁자의":14422,"▁‘국가":14423,"▁일정한":14424,"▁주제를":14425,"▁내셔널":14426,"▁공립":14427,"▁공청":14428,"▁공사가":14429,"▁여건":14430,"▁않으면서":14431,"▁상대를":14432,"▁비서관":14433,"지만은\r\n":14434,"▁소중":14435,"▁유용":14436,"▁유재":14437,"▁유포":14438,"▁최장":14439,"▁마인":14440,"▁'인":14441,"는데?\r\n":14442,"▁세상이":14443,"▁무대에서":14444,"▁분을":14445,"▁바짝":14446,"▁당신이":14447,"▁4명":14448,"▁반려":14449,"▁재원":14450,"▁5조":14451,"▁50년":14452,"▁성취":14453,"▁사람\r\n":14454,"▁차이를":14455,"▁게이":14456,"▁입는":14457,"▁입수":14458,"▁과제로":14459,"▁맞춘":14460,"▁단위로":14461,"▁집착":14462,"▁앞뒤":14463,"▁명은":14464,"▁너희":14465,"▁76":14466,"▁법원은":14467,"▁파격":14468,"()으로":14469,"▁초부터":14470,"▁의원에게":14471,"▁본보":14472,"▁점령":14473,"▁줄줄이":14474,"▁임진":14475,"▁이상은":14476,"▁치르":14477,"▁손잡고":14478,"▁아이들에게":14479,"▁야간":14480,"▁야생":14481,"▁싶을":14482,"▁올해의":14483,"▁리얼":14484,"▁12개":14485,"회의는":14486,"▁광저우":14487,"▁허리":14488,"▁<아":14489,"▁학교의":14490,"▁순천":14491,"▁태블릿":14492,"▁거기다":14493,"▁지적에":14494,"▁않았다는":14495,"▁진행한다.\r\n":14496,"▁현대중공업":14497,"대표팀":14498,"▁라운드":14499,"▁공개하지":14500,"▁찾아온":14501,"▁13개":14502,"(39":14503,"▁외교적":14504,"▁압축":14505,"▁언론의":14506,"▁기대한다”고":14507,"▁분야를":14508,"▁시즌을":14509,"▁페스티벌":14510,"▁생산하는":14511,"▁경영권":14512,"▁고려하면":14513,"▁살아가는":14514,"▁만든다.\r\n":14515,"▁인터넷에":14516,"▁적용해":14517,"인가요?\r\n":14518,"▁엘리트":14519,"▁내부에서":14520,"▁착용":14521,"▁틀린":14522,"▁총리와":14523,"▁소득세":14524,"▁반영해":14525,"▁설립을":14526,"▁혼자서":14527,"▁변화에":14528,"▁느끼게":14529,"▁의무를":14530,"▁흥분":14531,"▁보기에는":14532,"▁맺었다.\r\n":14533,"▁덜어":14534,"▁그치.\r\n":14535,"▁최저임":14536,"▁불편한":14537,"▁희생자":14538,"▁균형을":14539,"▁공직자":14540,"▁도착한":14541,"(이상":14542,"▁물러나":14543,"▁“내가":14544,"▁예예\r\n":14545,"▁보시면\r\n":14546,"▁임대주택":14547,"▁떠올랐다.\r\n":14548,"▁멈춰":14549,"▁유력한":14550,"(EU":14551,"▁가로막":14552,"▁떼어":14553,"▁질병관리":14554,"▁공산당":14555,"▁놀라운":14556,"▁동일한":14557,"▁본부장은":14558,"▁텔레비전":14559,"▁대우조선해양":14560,"▁아저씨":14561,"십시오.\r\n":14562,"▁아시아나항공":14563,"▁사로잡":14564,"\"(":14565,"\"이라는":14566,"(中":14567,")까지":14568,"56":14569,"5억":14570,"DA":14571,"ss":14572,"·동":14573,"·의":14574,"▁...":14575,"곡동":14576,"곳으로":14577,"공천":14578,"금자리":14579,"네스코":14580,"년도":14581,"니즘":14582,"람회":14583,"로.\r\n":14584,"메시":14585,"미리트":14586,"브이":14587,"비리":14588,"새누리당":14589,"서부터":14590,"수급":14591,"수첩":14592,"스레":14593,"습니":14594,"시위":14595,"영수":14596,"워드":14597,"원전":14598,"육십":14599,"으루":14600,"일치":14601,"임스":14602,"장관이":14603,"접한":14604,"조사가":14605,"지부":14606,"탄소":14607,"티아":14608,"편에":14609,"합을":14610,"홀에서":14611,"▁이력":14612,"▁지능":14613,"▁하더라도\r\n":14614,"▁한·중":14615,"▁1일부터":14616,"▁보면서\r\n":14617,"▁보십니까?\r\n":14618,"▁거고.\r\n":14619,"▁“6":14620,"▁“예":14621,"▁‘더":14622,"▁‘박":14623,"▁‘화":14624,"▁인사가":14625,"▁해적":14626,"▁해줬":14627,"▁국사":14628,"▁말했":14629,"▁공감을":14630,"▁부임":14631,"▁여전":14632,"▁없으니까":14633,"▁고런":14634,"▁상위권":14635,"▁조현":14636,"▁의학":14637,"▁3인":14638,"▁유적":14639,"▁서거":14640,"▁최재":14641,"▁최태":14642,"▁'1":14643,"▁'고":14644,"▁'박":14645,"▁신념":14646,"▁동화":14647,"▁구석":14648,"▁들지":14649,"▁불렀다.\r\n":14650,"▁불공정":14651,"▁반납":14652,"▁실정":14653,"▁후계":14654,"▁노선을":14655,"▁박탈":14656,"▁스님이":14657,"▁두께":14658,"▁때문이라는":14659,"▁출생":14660,"▁과자":14661,"▁과태":14662,"▁과장은":14663,"▁적시":14664,"▁매뉴얼":14665,"▁미국,":14666,"▁총재는":14667,"▁금요일":14668,"▁200만":14669,"▁막걸":14670,"▁양적":14671,"▁대표,":14672,"▁중국,":14673,"▁간사":14674,"()에서":14675,"▁86":14676,"▁8회":14677,"▁의원(":14678,"▁본다”고":14679,"▁일본군":14680,"이라든지\r\n":14681,"▁지난해부터":14682,"▁치유":14683,"▁돌며":14684,"▁늘면서":14685,"▁하나다.\r\n":14686,"▁목록":14687,"▁산책":14688,"▁산학":14689,"▁증인으로":14690,"▁크루":14691,"▁크다는":14692,"▁세계선수권":14693,"▁체제로":14694,"▁환승":14695,"▁이어진다.\r\n":14696,"▁있었고,":14697,"▁얘기한":14698,"▁얘기하고":14699,"만원의":14700,"▁몰고":14701,"▁동안\r\n":14702,"▁감독과":14703,"▁선생님들":14704,"▁선생님의":14705,"▁지적한다.\r\n":14706,"▁베네":14707,"센터에":14708,"▁마음대로":14709,"▁그랬을":14710,"▁급락":14711,"▁갔었":14712,"▁내년도":14713,"▁강조하고":14714,"사회가":14715,"▁패턴":14716,"▁있으나":14717,"▁250":14718,"▁정상에":14719,"시키지":14720,"▁싸이":14721,"▁특별법":14722,"▁귀가":14723,"▁드러낸":14724,"▁들어가야":14725,"▁판단한":14726,"▁삶에":14727,"▁있다가\r\n":14728,"▁내놓을":14729,"▁뭔지":14730,"▁제기되고":14731,"▁독일의":14732,"▁펼쳤다.\r\n":14733,"▁러시아의":14734,"▁결혼식":14735,"▁선정됐다.\r\n":14736,"▁지금까지는":14737,"통신은":14738,"▁수석은":14739,"▁LG전자":14740,"▁히로":14741,"▁전환을":14742,"▁최소화":14743,"▁이하로":14744,"▁바꾸고":14745,"▁60여":14746,"▁소통이":14747,"▁항공기":14748,"▁무기력":14749,"▁섬유":14750,"▁부드러운":14751,"▁대단한":14752,"바이오":14753,"▁연설에서":14754,"▁펼쳐진다.\r\n":14755,"▁시키는":14756,"▁정체성을":14757,"▁고양시":14758,"▁끄는":14759,"▁유사한":14760,"·경북":14761,"▁자치단체":14762,"▁아니에요?\r\n":14763,"▁설문조사":14764,"▁부적절":14765,"▁한양대":14766,"▁보다는\r\n":14767,"▁불출마":14768,"▁자유무역협정(F":14769,"자(CEO":14770,"\"...":14771,"39":14772,"46":14773,"el":14774,"▁뒀":14775,"▁웨이":14776,"갑니다.\r\n":14777,"객이":14778,"겠지\r\n":14779,"겠지.\r\n":14780,"경기를":14781,"고루":14782,"는가.\r\n":14783,"르르":14784,"밀하게":14785,"석은":14786,"싸움":14787,"아동":14788,"았을":14789,"에미리트":14790,"여\r\n":14791,"연은":14792,"영어":14793,"으면서\r\n":14794,"인들을":14795,"주에서":14796,"차관":14797,"차림":14798,"크가":14799,"타점":14800,"터널":14801,"평)":14802,"포먼":14803,"학력":14804,"해요\r\n":14805,"▁이쁘":14806,"▁아님":14807,"▁수녀":14808,"▁1단계":14809,"▁가면\r\n":14810,"▁가리지":14811,"▁것들은":14812,"▁전도":14813,"▁전지":14814,"▁2개월":14815,"▁시켰":14816,"▁기피":14817,"▁거꾸로":14818,"▁“민":14819,"▁“북":14820,"▁“서울":14821,"▁“다른":14822,"▁주저":14823,"▁중부":14824,"▁중장기":14825,"▁말라고":14826,"▁공백":14827,"▁부유":14828,"▁예~":14829,"▁오만":14830,"▁위장":14831,"▁고백":14832,"▁조윤":14833,"▁선사":14834,"▁비춰":14835,"▁비공개":14836,"▁3분":14837,"▁300만":14838,"▁3.3":14839,"▁만두":14840,"▁소지":14841,"▁소문이":14842,"▁유산":14843,"▁유흥":14844,"▁미치":14845,"▁\"나":14846,"▁\"중국":14847,"▁최후":14848,"▁개그":14849,"▁많다고":14850,"▁'신":14851,"▁원가":14852,"▁요번":14853,"▁분량의":14854,"▁그러니":14855,"▁강제로":14856,"▁40년":14857,"▁4년간":14858,"▁재해":14859,"▁재확인":14860,"▁실린":14861,"▁계셨":14862,"▁장점":14863,"▁한국사":14864,"▁학력":14865,"▁건네":14866,"▁스무":14867,"▁두꺼":14868,"▁입지":14869,"▁정부,":14870,"▁단식":14871,"▁직원의":14872,"▁밝힐":14873,"▁삼는":14874,"▁명단에":14875,"▁명령을":14876,"▁2009":14877,"▁파라":14878,"▁합성":14879,"▁190":14880,"▁높이고":14881,"▁관계에":14882,"▁치를":14883,"▁취직":14884,"▁넣지":14885,"▁목사":14886,"▁사회는":14887,"▁친한":14888,"▁넘지":14889,"▁필요로":14890,"▁벌일":14891,"▁속에서\r\n":14892,"▁표절":14893,"▁버터":14894,"▁국가주석":14895,"▁12시":14896,"▁편향":14897,"▁11개":14898,"▁날카":14899,"▁날\r\n":14900,"▁허가를":14901,"▁내용에":14902,"▁순방":14903,"▁태국":14904,"▁태평양":14905,"주의의":14906,"▁조사했다.\r\n":14907,"▁거기에서":14908,"▁농산물":14909,"▁커플":14910,"이었을":14911,"▁면이":14912,"▁마음은":14913,"▁팔레스타":14914,"대표는":14915,"느냐에":14916,"▁머릿":14917,"▁올라가는":14918,"▁만나고":14919,"▁키로":14920,"▁패키":14921,"▁상당의":14922,"▁보도자료를":14923,"▁언론이":14924,"▁자유로운":14925,"(44":14926,"▁전문가들의":14927,"▁합의에":14928,"▁제품이":14929,"▁확대해":14930,"▁붙인":14931,"▁변호사를":14932,"▁내려놓":14933,"▁제공할":14934,"▁달라질":14935,"▁레알":14936,"▁깨고":14937,"▁깨닫":14938,"▁꾸미":14939,"▁낙태":14940,"▁견해":14941,"▁반면에":14942,"▁제기했다.\r\n":14943,"▁국방장관":14944,"▁발견됐다.\r\n":14945,"▁사례는":14946,"▁원래는":14947,"▁위험을":14948,"▁가능성에":14949,"▁높아졌다.\r\n":14950,"▁가져야":14951,"m2(약":14952,"▁대책이":14953,"▁캠퍼스":14954,"▁납득":14955,"▁언어학":14956,"▁확정된":14957,"▁투표를":14958,"▁브랜드를":14959,"▁쏟아졌다.\r\n":14960,"▁선보인다.\r\n":14961,"▁사퇴를":14962,"▁뮤직":14963,"▁이재명":14964,"▁배경으로":14965,"▁돕기":14966,"▁꼬집":14967,"▁사무총장":14968,"▁“우리가":14969,"▁긍정적으로":14970,"▁끈다.\r\n":14971,"▁<한겨레>와":14972,"▁배제할":14973,"▁르노":14974,"▁신속하게":14975,"습니까?":14976,"▁부작용":14977,"▁주한미":14978,"▁자민당":14979,"공화국":14980,"▁아시안컵":14981,"▁(02)":14982,"▁서서히":14983,"▁트렌드":14984,"▁동계올림픽":14985,"▁중산층":14986,"▁동성애":14987,"▁최고경영자(CEO":14988,"선생님":14989,"소시엄":14990,"설수설":14991,"▁순식간에":14992,"(스":14993,">에서":14994,"·자":14995,"·경제":14996,"▁템":14997,"▁에서":14998,"갑을":14999,"값을":15000,"갔다":15001,"거\r\n":15002,"겠다”며":15003,"교섭":15004,"그만":15005,"드라마":15006,"래.\r\n":15007,"래도\r\n":15008,"럽게":15009,"려면\r\n":15010,"로만":15011,"모직":15012,"모비스":15013,"미디":15014,"버랜드":15015,"보니까":15016,"불을":15017,"상수":15018,"서에서":15019,"선택":15020,"셀로":15021,"신도시":15022,"았다고":15023,"워야":15024,"월세":15025,"자다.\r\n":15026,"재생":15027,"정으로":15028,"참모":15029,"창업":15030,"처장은":15031,"총회":15032,"콘텐츠":15033,"투갈":15034,"트,":15035,"틀랜드":15036,"퍼런":15037,"프란":15038,"해줄":15039,"현의":15040,"화’":15041,"회사가":15042,"▁이광":15043,"▁이아무개":15044,"▁사장을":15045,"▁한결":15046,"▁한식":15047,"▁한다”는":15048,"▁수분이":15049,"▁어휘":15050,"▁가면은\r\n":15051,"▁전화가":15052,"▁“도":15053,"▁“200":15054,"▁자를":15055,"▁‘5":15056,"▁‘바":15057,"▁‘서울":15058,"▁경희":15059,"▁국적":15060,"▁부부는":15061,"▁때에는":15062,"▁오브":15063,"▁우대":15064,"▁없다”는":15065,"▁고사":15066,"▁상주":15067,"▁선정한":15068,"▁3시간":15069,"▁유료":15070,"▁되어야":15071,"▁\"미국":15072,"▁마셨":15073,"▁많고\r\n":15074,"▁세트":15075,"▁세우고":15076,"▁무한":15077,"▁분들은\r\n":15078,"▁불신":15079,"▁성북":15080,"▁장벽":15081,"▁장식":15082,"▁장치":15083,"▁장점이":15084,"▁후손":15085,"▁건지\r\n":15086,"▁노원":15087,"▁했다가":15088,"▁했어요\r\n":15089,"▁달린":15090,"▁달한다.\r\n":15091,"▁달랐다.\r\n":15092,"▁적정":15093,"▁단말":15094,"▁배후":15095,"▁걸맞":15096,"▁행사는":15097,"▁간편":15098,"▁번역을":15099,"▁초상":15100,"▁97":15101,"면은요\r\n":15102,"▁화이트":15103,"▁산에":15104,"▁넘을":15105,"▁넘겼다.\r\n":15106,"▁증세":15107,"▁체계를":15108,"▁정치자금":15109,"▁정치권의":15110,"▁협정":15111,"▁지역으로":15112,"▁경제정책":15113,"▁리베이트":15114,"▁충당":15115,"▁자신에게":15116,"▁잡기":15117,"▁말씀해":15118,"주의적":15119,"▁홍대":15120,"▁길로":15121,"▁평가다.\r\n":15122,"▁난다.\r\n":15123,"▁로마":15124,"▁용납":15125,"▁진행된다.\r\n":15126,"▁이미지가":15127,"▁확인하는":15128,"▁라면":15129,"▁골퍼":15130,"▁골고루":15131,"▁찾아내":15132,"▁낮게":15133,"▁봐서":15134,"▁선거구":15135,"▁왔는데":15136,"▁약간의":15137,"▁친구들과":15138,"▁죽어":15139,"▁인사들이":15140,"▁name6":15141,"▁봤는데\r\n":15142,"▁1991년":15143,"▁일반적으로":15144,"▁얻기":15145,"▁헌신":15146,"▁성공을":15147,"▁퍼포먼":15148,"▁환경에":15149,"▁도입된":15150,"▁활용하는":15151,"▁유지하는":15152,"▁롯데마트":15153,"▁녹아":15154,"▁현실이":15155,"▁꿈이":15156,"▁끓어":15157,"▁기억에":15158,"▁상승세를":15159,"▁틀리":15160,"▁웃음":15161,"▁가져올":15162,"▁대화록":15163,"▁줄어드는":15164,"▁한나라당이":15165,"▁남아있":15166,"▁국무총":15167,"▁대법원은":15168,"▁작업에":15169,"▁등장한":15170,"▁멀티":15171,"▁쏟아져":15172,"▁증거가":15173,"기록을":15174,"서비스(SNS":15175,"티브이":15176,"▁튀겨":15177,"▁이재오":15178,"▁아내가":15179,"▁늘어난다.\r\n":15180,"▁이르렀다.\r\n":15181,"▁빛을":15182,"▁연습을":15183,"▁좁은":15184,"▁장학금":15185,"▁스님은":15186,"-2로":15187,"▁사립학교":15188,"호텔에서":15189,"▁부사장은":15190,"▁모범생":15191,"▁마포구":15192,"▁하도급":15193,"▁금감원":15194,"▁공론화":15195,"▁바랍니다.\r\n":15196,"천안함":15197,"(오":15198,"(친":15199,"43":15200,"49":15201,"59":15202,">이":15203,"IC":15204,"of":15205,"ot":15206,"·서":15207,"·최":15208,"▁촌":15209,"가에서":15210,"간이":15211,"거는":15212,"고에서":15213,"골로":15214,"공직":15215,"교류":15216,"구십":15217,"다'":15218,"동네":15219,"라인을":15220,"라비아":15221,"렸다고":15222,"루션":15223,"바논":15224,"박이":15225,"부족":15226,"브랜드":15227,"설이":15228,"소재":15229,"승점":15230,"시에서":15231,"신저":15232,"씨,":15233,"았지만":15234,"양의":15235,"언니":15236,"위치":15237,"쟁이":15238,"전,":15239,"정,":15240,"정일":15241,"주차":15242,"중계":15243,"지니어":15244,"칼텍":15245,"쿠르":15246,"판에서":15247,"했고\r\n":15248,"형사":15249,"형에":15250,"회와":15251,"회관에서":15252,"▁이규":15253,"▁이룰":15254,"▁이겼다.\r\n":15255,"▁사막":15256,"▁지식을":15257,"▁하지\r\n":15258,"▁한겨레":15259,"▁수록":15260,"▁수중":15261,"▁수혜":15262,"▁수위를":15263,"▁가다":15264,"▁전무":15265,"▁보라":15266,"▁시국":15267,"▁시카":15268,"▁거리로":15269,"▁“추":15270,"▁나토":15271,"▁자립":15272,"▁‘민":15273,"▁일일":15274,"▁일환":15275,"▁인연이":15276,"▁주된":15277,"▁주축":15278,"▁주셔야":15279,"▁해볼":15280,"▁말해서":15281,"▁공주":15282,"▁부당한":15283,"▁오토":15284,"▁고리":15285,"▁고유":15286,"▁상용":15287,"▁선물을":15288,"▁소매":15289,"▁미용":15290,"▁\"미":15291,"▁서재":15292,"▁문자를":15293,"▁김준":15294,"▁'오":15295,"▁원인은":15296,"▁아니죠.\r\n":15297,"▁그러시":15298,"▁발령":15299,"▁불허":15300,"▁불황":15301,"▁불고기":15302,"▁반대를":15303,"▁재가":15304,"▁재학":15305,"▁재학생":15306,"▁계시는":15307,"▁건국대":15308,"▁노란":15309,"▁좀처럼":15310,"▁남미":15311,"▁스쿨":15312,"▁회장,":15313,"▁했더니":15314,"▁추첨":15315,"▁61":15316,"▁과다":15317,"▁맞습니다\r\n":15318,"▁집은":15319,"▁문제\r\n":15320,"▁청양":15321,"▁청취":15322,"▁것이고,":15323,"▁금품을":15324,"▁걸음":15325,"▁행보를":15326,"▁피가":15327,"▁의원들":15328,"▁있어요?\r\n":15329,"▁하고요.\r\n":15330,"▁관계는":15331,"▁이상하게":15332,"▁타당":15333,"▁화상":15334,"▁화제가":15335,"▁목포":15336,"▁친이":15337,"▁친일":15338,"▁아이는":15339,"▁넘는다.\r\n":15340,"▁다음에는":15341,"▁필요하다":15342,"▁시작한다.\r\n":15343,"▁정치의":15344,"▁협상이":15345,"▁협상에":15346,"▁교수님이":15347,"▁힘으로":15348,"▁경제는":15349,"▁군산":15350,"▁민주노동":15351,"▁학생과":15352,"만원으로":15353,"▁연구원":15354,"▁나오기":15355,"▁됐으면":15356,"▁사이다":15357,"주의에":15358,"▁월스트리트":15359,"▁천주교":15360,"▁선생님은":15361,"▁받아서":15362,"▁맞아요\r\n":15363,"▁정책은":15364,"▁면역":15365,"▁마음의":15366,"▁잠정":15367,"▁확인된":15368,"느냐\"고":15369,"느냐”며":15370,"(36":15371,"▁압력을":15372,"▁소비자의":15373,"▁시민의":15374,"▁몸무":15375,"▁키가":15376,"(40":15377,"(48":15378,"▁삶이":15379,"▁구조조":15380,"▁업체에":15381,"▁업체들은":15382,"▁꾸며":15383,"▁넘어섰다.\r\n":15384,"▁나서야":15385,"▁확보를":15386,"▁내놓지":15387,"▁비슷하게":15388,"▁펼친":15389,"▁펼치는":15390,"▁선발한다.\r\n":15391,"▁복지부":15392,"▁이십일":15393,"▁땅에":15394,"▁1980년":15395,"▁하겠습니다\r\n":15396,"▁종합적으로":15397,"▁흐르는":15398,"▁뜨겁":15399,"▁반발이":15400,"▁보호를":15401,"▁선언을":15402,"▁싫은":15403,"한다’는":15404,"▁“그런":15405,"▁조건이":15406,"▁출연해":15407,"▁든다.\r\n":15408,"▁커피를":15409,"▁싱크":15410,"▁집행유예":15411,"▁심리적":15412,"▁가슴이":15413,"▁낳은":15414,"▁전반에":15415,"▁라이벌":15416,"▁머물고":15417,"▁경고했다.\r\n":15418,"▁흑인":15419,"(이하":15420,"▁바닥에":15421,"▁보조금":15422,"▁일각에선":15423,"▁고등학생":15424,"▁뇌물죄":15425,"▁최우선":15426,"▁편안하게":15427,"▁응응.\r\n":15428,"▁헌법재판소":15429,"▁추세다.\r\n":15430,"▁갤럭시S":15431,"▁이화여대":15432,"▁오스트리아":15433,"▁나옵니다.\r\n":15434,"▁다큐멘터리":15435,"▁비로소":15436,"53":15437,"GA":15438,"·한국":15439,"’.\r\n":15440,"▁율":15441,"▁첩":15442,"강을":15443,"계선":15444,"고시":15445,"곳은":15446,"년의":15447,"놀이":15448,"데스":15449,"데이터":15450,"동과":15451,"라든지\r\n":15452,"맞춤":15453,"배로":15454,"부도":15455,"불이":15456,"상금":15457,"상도":15458,"설계":15459,"성적":15460,"슨은":15461,"안의":15462,"야당":15463,"어요?":15464,"업이":15465,"으려는":15466,"인들에게":15467,"자나":15468,"자문":15469,"절차":15470,"정권":15471,"종은":15472,"중근":15473,"지고,":15474,"침을":15475,"카이":15476,"타이어":15477,"팅을":15478,"파를":15479,"프라이":15480,"해달라":15481,"했다면":15482,"행위를":15483,"▁이만":15484,"▁이우":15485,"▁대피":15486,"▁대화가":15487,"▁아들은":15488,"으로만":15489,"▁사귀":15490,"▁지붕":15491,"▁하잖아요.\r\n":15492,"▁1대":15493,"▁가셨":15494,"▁전액":15495,"▁2사":15496,"▁시위가":15497,"▁기금":15498,"▁“보":15499,"▁“청와대":15500,"▁자세를":15501,"▁자금이":15502,"▁인자":15503,"▁주먹":15504,"▁주소":15505,"▁주세요\r\n":15506,"▁경인":15507,"00명":15508,"▁부합":15509,"▁여유가":15510,"▁위탁":15511,"▁고의":15512,"▁의약품":15513,"▁3루":15514,"▁모를":15515,"▁모시고":15516,"▁연내":15517,"▁연동":15518,"▁유네스코":15519,"▁저널":15520,"▁저번":15521,"▁뭐야\r\n":15522,"▁최상":15523,"▁마구":15524,"▁교차":15525,"▁김이":15526,"▁세울":15527,"▁무선":15528,"▁통학":15529,"▁통계를":15530,"▁반등":15531,"▁실전":15532,"▁한국으로":15533,"▁학급":15534,"▁학살":15535,"▁건국":15536,"▁박모":15537,"▁스퍼드":15538,"▁차림":15539,"▁감싸":15540,"▁좋다":15541,"▁생각으로":15542,"▁할부":15543,"▁물량":15544,"▁외화":15545,"▁청원":15546,"▁7명":15547,"▁양도":15548,"(),":15549,"▁먹으면서":15550,"▁2016":15551,"▁92":15552,"▁높고":15553,"▁운송":15554,"▁늘렸다.\r\n":15555,"▁크기":15556,"▁함께\r\n":15557,"▁버는":15558,"▁올해로":15559,"▁복구":15560,"가지구":15561,"▁국가에":15562,"▁승무원":15563,"▁112":15564,"▁결과다.\r\n":15565,"▁결과적으로":15566,"▁순이었다.\r\n":15567,"▁놓는":15568,"▁삼성화":15569,"▁중요하다”고":15570,"▁트럭":15571,"이었다”고":15572,"▁육상":15573,"▁주장도":15574,"▁정책과":15575,"▁않았기":15576,"▁진행될":15577,"▁탄소":15578,"▁맡게":15579,"▁급식":15580,"▁상태에서\r\n":15581,"▁방송에서":15582,"▁답이":15583,"▁전망도":15584,"▁한번\r\n":15585,"▁말이죠\r\n":15586,"▁직원들은":15587,"▁판단했다.\r\n":15588,"▁나가면":15589,"▁숨어":15590,"▁지나친":15591,"▁살아있":15592,"▁적용할":15593,"▁검토할":15594,"▁시절부터":15595,"▁신청한":15596,"▁받았다는":15597,"▁듯했다.\r\n":15598,"▁됩니까?\r\n":15599,"▁3월부터":15600,"▁발언에":15601,"▁상승했다.\r\n":15602,"만큼은":15603,"▁다르지":15604,"▁트럼프가":15605,"▁높아질":15606,"▁당선자는":15607,"▁1만5000":15608,"▁지속가능":15609,"▁블라":15610,"▁칼로":15611,"▁한나라당은":15612,"▁전쟁이":15613,"▁짓고":15614,"▁달러를":15615,"▁부인했다.\r\n":15616,".5%로":15617,"▁재미가":15618,"▁지키기":15619,"▁사과를":15620,"▁선고했다.\r\n":15621,"▁불구하고\r\n":15622,"▁아닌가.\r\n":15623,"▁밝히고":15624,"▁응답자의":15625,"▁뚜한":15626,"▁생기면":15627,"▁혼란을":15628,"▁밴쿠버":15629,"▁절차에":15630,"▁연말까지":15631,"테이너":15632,"소비자":15633,"▁겹쳐":15634,"▁저렴한":15635,"▁중시하는":15636,"▁풍부한":15637,"▁드라이버":15638,"▁사우디":15639,"▁오세훈":15640,"▁앞당겨":15641,"▁활성화를":15642,"▁아나운":15643,"증후군":15644,"2의":15645,">(A":15646,"?”\r\n":15647,"IFA":15648,"]“":15649,"▁핑":15650,"공학과":15651,"국적":15652,"기에는":15653,"난을":15654,"담한":15655,"대우":15656,"동으로":15657,"됐지만,":15658,"드린":15659,"라도\r\n":15660,"렸다는":15661,"메르":15662,"비결":15663,"사스":15664,"서민":15665,"세\r\n":15666,"스케이팅":15667,"억6":15668,"역은":15669,"열에":15670,"용산":15671,"우승":15672,"이야.\r\n":15673,"자(":15674,"저가":15675,"전도":15676,"제약":15677,"졌어요.\r\n":15678,"조한":15679,"좋은":15680,"중의":15681,"즈를":15682,"지기도":15683,"진한":15684,"찰을":15685,"체는":15686,"티오":15687,"티즌":15688,"했다.":15689,"혐의":15690,"호와":15691,"회사의":15692,"희롱":15693,"▁아시는":15694,"으로서의":15695,"▁사모":15696,"▁한숨":15697,"▁한옥":15698,"▁수송":15699,"▁가상":15700,"▁가\r\n":15701,"▁정례":15702,"▁정시":15703,"▁정운":15704,"▁정당이":15705,"▁2연패":15706,"▁보훈":15707,"▁기쁘":15708,"▁“스":15709,"▁“영":15710,"▁주사":15711,"▁주인이":15712,"▁경기는":15713,"▁말하고":15714,"▁공고":15715,"▁부친":15716,"▁안해":15717,"▁여왕":15718,"▁위대한":15719,"▁고무":15720,"▁상원":15721,"▁조치가":15722,"▁서버":15723,"▁마무":15724,"▁마스크":15725,"▁김창":15726,"▁'그":15727,"▁'비":15728,"▁원작":15729,"▁요번에":15730,"▁4회":15731,"▁반군":15732,"▁반정부":15733,"▁재편":15734,"▁더구나":15735,"▁더이상":15736,"▁장수":15737,"▁학자":15738,"▁노는":15739,"다\"라고":15740,"▁때문으로":15741,"▁때문이라고":15742,"▁열리고":15743,"▁따돌":15744,"▁달고":15745,"▁달리는":15746,"▁맞어.\r\n":15747,"▁음란":15748,"▁외식":15749,"▁외무성":15750,"▁잘하고":15751,"하기를":15752,"▁미국으로":15753,"▁삼국":15754,"▁너가":15755,"▁살던":15756,"▁살리":15757,"▁살피":15758,"▁양심":15759,"▁법과":15760,"▁때문에,":15761,"▁피로":15762,"▁82":15763,"▁초에":15764,"▁임기를":15765,"▁변수가":15766,"▁지난해에는":15767,"▁담가":15768,"습니다마는\r\n":15769,"▁교육과정":15770,"▁목동":15771,"▁친척":15772,"▁아이의":15773,"▁필요는":15774,"▁속한":15775,"▁속에서도":15776,"▁복무":15777,"▁편한":15778,"▁광범위":15779,"▁<비":15780,"▁부분에서":15781,"▁순례":15782,"▁선수의":15783,"▁태스크포":15784,"▁온실":15785,"학교를":15786,"▁농어":15787,"▁선생님\r\n":15788,"▁좋아요\r\n":15789,"▁로버트":15790,"▁국회는":15791,"▁면세점":15792,"▁결정적인":15793,"▁일부가":15794,"▁탄력":15795,"▁맡았던":15796,"▁비판도":15797,"▁그때부터":15798,"▁요즘에는":15799,"▁뜻한다.\r\n":15800,"▁죽음을":15801,"▁극심한":15802,"▁KCC":15803,"▁있으니까.\r\n":15804,"▁않을까.\r\n":15805,"▁name8":15806,"▁인정했다.\r\n":15807,"▁중심에":15808,"▁의미로":15809,"▁작품이다.\r\n":15810,"▁페어":15811,"▁없었다”고":15812,"▁우리나라에":15813,"▁있다’는":15814,"▁업체는":15815,"▁롯데는":15816,"▁여자친구":15817,"▁표현이":15818,"▁캐머":15819,"▁내놓는":15820,"▁선택할":15821,"▁견디":15822,"이에요\r\n":15823,"▁요청에":15824,"▁착한":15825,"▁그럴까요?\r\n":15826,"▁차례로":15827,"m2당":15828,"▁1982년":15829,"▁고객이":15830,"▁자료에":15831,"▁MVP":15832,"▁수석이":15833,"▁청소년들이":15834,"니깐요.\r\n":15835,"▁지급하는":15836,"카드를":15837,"▁장기적으로":15838,"▁쿠데":15839,"▁유치원":15840,"▁수요를":15841,"▁대중교통":15842,"▁그치\r\n":15843,"BC)":15844,"▁가슴에":15845,"▁브라운":15846,"발전소":15847,"▁“박근혜":15848,"▁예전에는":15849,"▁일상생활":15850,"▁우즈베":15851,"▁안타까운":15852,"▁양반이":15853,"여자오픈":15854,"▁조용히":15855,"▁박태환":15856,"▁텍스트":15857,"▁불필요한":15858,"▁오렌지":15859,"▁예컨대":15860,"개발기구(O":15861,"(s":15862,"1만":15863,"AA":15864,"ED":15865,"IE":15866,"ed":15867,"·무":15868,"·안보":15869,"▁론":15870,"▁엑":15871,"가게":15872,"갈비":15873,"공급":15874,"과세":15875,"구르":15876,"구성":15877,"금속":15878,"던데":15879,"등한":15880,"러는":15881,"름을":15882,"물과":15883,"방안":15884,"방지":15885,"병은":15886,"봉을":15887,"뿐이다.\r\n":15888,"사다.\r\n":15889,"상\r\n":15890,"생태":15891,"설명":15892,"세,":15893,"스쿠":15894,"시,":15895,"야지":15896,"오염":15897,"요즘":15898,"위도":15899,"전부터":15900,"주간":15901,"주시면":15902,"지하":15903,"진,":15904,"착한":15905,"칠십":15906,"쾌한":15907,"터는":15908,"테르":15909,"토지":15910,"프의":15911,"하를":15912,"행사를":15913,"협동조합":15914,"횡설수설":15915,"▁이혜":15916,"▁그쳐":15917,"▁대공":15918,"▁사다":15919,"▁수만":15920,"▁1.":15921,"▁가는데\r\n":15922,"▁정하고":15923,"▁보전":15924,"▁보시는":15925,"▁시술":15926,"▁시인의":15927,"▁시선을":15928,"▁시니어":15929,"▁거가":15930,"▁나에게":15931,"▁‘4":15932,"▁‘광":15933,"▁‘양":15934,"▁‘장":15935,"▁주가는":15936,"▁경부":15937,"▁중의":15938,"▁제자":15939,"▁국영":15940,"▁말만":15941,"▁내건":15942,"▁공방":15943,"▁오키":15944,"▁위주의":15945,"▁위기의":15946,"▁의문을":15947,"▁의문이":15948,"▁3명의":15949,"▁소감을":15950,"▁되잖아요.\r\n":15951,"▁되잖아.\r\n":15952,"▁생명을":15953,"▁문서":15954,"▁최씨는":15955,"▁같다”며":15956,"▁교실":15957,"▁교양":15958,"▁김씨":15959,"▁신앙":15960,"▁신제품":15961,"▁무겁":15962,"▁근절":15963,"▁진단을":15964,"▁불꽃":15965,"▁불평등":15966,"▁받고\r\n":15967,"▁장비를":15968,"▁이런게":15969,"▁스폰":15970,"▁회피":15971,"▁감사를":15972,"▁좋죠.\r\n":15973,"▁입구":15974,"▁입당":15975,"▁단어를":15976,"▁매립":15977,"▁삼고":15978,"▁총회":15979,"▁가지구\r\n":15980,"▁700":15981,"▁처리가":15982,"▁법안은":15983,"▁행진을":15984,"▁피하기":15985,"▁초연":15986,"▁드리는":15987,"▁먹게":15988,"▁본인은":15989,"▁후보에게":15990,"▁국민은":15991,"이라서":15992,"▁치르는":15993,"▁이날도":15994,"▁손이":15995,"▁돼?\r\n":15996,"▁목적을":15997,"▁친노":15998,"해야”\r\n":15999,"▁넘치는":16000,"▁체제가":16001,"▁환수":16002,"▁[횡설수설":16003,"▁표기":16004,"▁이어가고":16005,"▁어떻게든":16006,"▁경제학":16007,"▁국가에서":16008,"▁프로축구":16009,"▁군포":16010,"▁자신감":16011,"▁질의":16012,"▁선생의":16013,"▁발표\r\n":16014,"▁중요성을":16015,"▁해야지":16016,"시간에":16017,"▁않았다\"고":16018,"▁않았다”며":16019,"▁진행한":16020,"▁진행할":16021,"▁맡는":16022,"▁확인하고":16023,"▁십만":16024,"▁왔습니다.\r\n":16025,"▁국정감사":16026,"▁기자들에게":16027,"▁규모다.\r\n":16028,"▁반대하고":16029,"▁방송은":16030,"▁먼저\r\n":16031,"▁뛰고":16032,"▁SBS":16033,"▁읽을":16034,"▁퍼져":16035,"▁생산을":16036,"▁방식은":16037,"▁삶은":16038,"▁아마추어":16039,"▁레바논":16040,"▁통일을":16041,"▁건설을":16042,"▁클리":16043,"▁넘어선":16044,"▁중앙정보":16045,"▁이야기하는":16046,"기술을":16047,"▁받았다고":16048,"▁요리비결":16049,"▁가입한":16050,"▁옮기":16051,"▁틀을":16052,"▁싶은데\r\n":16053,"▁반발을":16054,"▁암살":16055,"▁전달했다.\r\n":16056,"▁컨소시엄":16057,"▁잃고":16058,"▁한다’는":16059,"▁기다리는":16060,"▁쌓여":16061,"▁대한민국을":16062,"▁차별화된":16063,"▁벗어나지":16064,"지방경찰청":16065,"▁콩나물":16066,"▁애플리":16067,"▁부드러워":16068,"아버지":16069,"▁묘사":16070,"▁습관":16071,"▁김종인":16072,"▁띄는":16073,"▁시원한":16074,"·경남":16075,"▁명확한":16076,"▁무게를":16077,"▁두려워":16078,"▁내비쳤다.\r\n":16079,"▁2020년까지":16080,"▁ICBM":16081,"▁유럽연합(EU":16082,"▁성추행":16083,"▁며느리":16084,"▁불이익을":16085,"%로":16086,"96":16087,"OU":16088,"am":16089,"nt":16090,"oo":16091,"·6":16092,"·인":16093,"∼8":16094,"▁델":16095,"▁씩":16096,"강원":16097,"공립":16098,"교를":16099,"나들":16100,"놓았다.\r\n":16101,"눈에":16102,"더스":16103,"독일":16104,"독한":16105,"동\r\n":16106,"들도\r\n":16107,"디지털":16108,"라\"고":16109,"래를":16110,"리포":16111,"목적":16112,"법,":16113,"보지":16114,"분쟁":16115,"블루":16116,"사실":16117,"석유":16118,"성장을":16119,"세다.\r\n":16120,"센티브":16121,"어?":16122,"연소":16123,"원장":16124,"으면은\r\n":16125,"으려면":16126,"전선":16127,"젊은":16128,"점수":16129,"졌습니다.\r\n":16130,"즈의":16131,"증으로":16132,"첨단":16133,"체에":16134,"캐피":16135,"크리트":16136,"킬로":16137,"투수":16138,"파의":16139,"하면은\r\n":16140,"홍보":16141,"▁이관":16142,"▁이의":16143,"▁그라운드":16144,"▁있거든요?\r\n":16145,"▁아티스트":16146,"▁사죄":16147,"▁사직":16148,"▁지켰다.\r\n":16149,"▁하려면":16150,"▁한인":16151,"▁수의":16152,"▁1명이":16153,"▁가평":16154,"▁2번":16155,"▁보충":16156,"▁보기에":16157,"▁시계":16158,"▁시선":16159,"▁시한":16160,"▁나\r\n":16161,"▁네에.\r\n":16162,"▁‘피":16163,"▁인형":16164,"▁인원이":16165,"▁주둔":16166,"▁주춤":16167,"▁중에서\r\n":16168,"▁때에":16169,"▁때.\r\n":16170,"▁오르고":16171,"▁위기가":16172,"▁위치를":16173,"▁비린":16174,"▁3명을":16175,"▁만점":16176,"▁모순":16177,"▁모험":16178,"▁미지수":16179,"▁미나리":16180,"▁서둘러":16181,"▁그래?":16182,"▁같고":16183,"▁같긴":16184,"▁마신":16185,"▁김관":16186,"▁김효":16187,"▁김치를":16188,"▁원인으로":16189,"▁방문을":16190,"▁아니면\r\n":16191,"▁강사":16192,"▁도민":16193,"▁재검토":16194,"▁5회":16195,"▁실수를":16196,"▁실장님":16197,"▁성찰":16198,"▁영동":16199,"▁장의":16200,"▁한국문학":16201,"▁남기":16202,"▁남지":16203,"▁남자가":16204,"▁스을":16205,"▁스디오":16206,"▁차량이":16207,"▁했지만\r\n":16208,"▁20개":16209,"▁때문입니다.\r\n":16210,"▁달리고":16211,"▁적자":16212,"▁맞어\r\n":16213,"▁확신":16214,"▁확진":16215,"▁새끼":16216,"▁들어왔다.\r\n":16217,"▁배터리":16218,"▁가지로":16219,"▁살균":16220,"▁양을":16221,"▁법에":16222,"▁대표이":16223,"▁사실도":16224,"▁파일":16225,"▁운전자":16226,"▁줄인":16227,"▁임기가":16228,"▁국민적":16229,"▁준설":16230,"▁취향":16231,"▁넣었":16232,"▁이후의":16233,"▁이후에\r\n":16234,"▁싶다고":16235,"▁사업과":16236,"▁호랑이":16237,"▁군의":16238,"▁광장":16239,"▁날인":16240,"만원에":16241,"▁항만":16242,"▁사이가":16243,"▁15개":16244,"▁토로":16245,"▁조사하고":16246,"▁농담":16247,"▁설명한다.\r\n":16248,"▁주장이다.\r\n":16249,"▁운영할":16250,"▁않았고":16251,"▁맡기":16252,"▁엄마도":16253,"▁모습으로":16254,"▁모습이다.\r\n":16255,"▁외국계":16256,"▁외국에":16257,"▁대선에":16258,"▁마련된":16259,"▁전국적으로":16260,"▁새누리당과":16261,"▁봤습니다.\r\n":16262,"▁주민투표":16263,"▁테크":16264,"▁휴가를":16265,"▁특별감":16266,"(47":16267,"▁어렵고":16268,"▁판매를":16269,"▁활동하고":16270,"▁힘들다.\r\n":16271,"▁효과는":16272,"▁우승한":16273,"▁구성원":16274,"▁있다라는":16275,"▁성장할":16276,"▁깨한":16277,"▁표현한":16278,"▁표현하는":16279,"▁중앙대":16280,"▁프랑스의":16281,"▁7월부터":16282,"▁티비":16283,"▁옮김":16284,"▁40분":16285,"▁다니면서":16286,"▁겪었다.\r\n":16287,"▁사례도":16288,"▁모르겠다.\r\n":16289,"▁모르겠는데\r\n":16290,"▁반영된":16291,"▁반영한":16292,"▁1985년":16293,"▁불과한":16294,"▁팬들의":16295,"▁바뀌는":16296,"▁여러분들이":16297,"▁등장했다.\r\n":16298,"▁불안한":16299,"5000만":16300,"▁모델로":16301,"▁부회장의":16302,"▁남성의":16303,"▁맺고":16304,"▁내세우":16305,"▁개념이":16306,"▁주말에":16307,"▁싱글":16308,"▁돕고":16309,"▁값이":16310,"▁관광객이":16311,"▁라이프":16312,"▁이승엽":16313,"▁선두를":16314,"▁설탕을":16315,"▁좁혀":16316,"▁결의안":16317,"▁아쉬운":16318,"▁아니겠습니까?\r\n":16319,"▁앱을":16320,"▁엠비":16321,"▁근처에":16322,"▁쓰읍.":16323,"▁R&D":16324,"▁완벽하게":16325,"▁프리미어":16326,"▁수단으로":16327,"▁힐러리":16328,"▁기자간담회를":16329,"여자프로골프":16330,"▁최경환":16331,"▁소셜네트워크":16332,"▁포스트시즌":16333,"▁단백질":16334,"▁몸무게":16335,"(최":16336,"58":16337,"87":16338,"·구":16339,"·비":16340,"·제":16341,"·미국":16342,"·구속":16343,"거야?\r\n":16344,"겠습니까?\r\n":16345,"균형":16346,"기에서":16347,"내려":16348,"냐”고":16349,"니를":16350,"님의":16351,"드레":16352,"드의":16353,"라우":16354,"라이트":16355,"레나":16356,"렸고,":16357,"명(":16358,"문제를":16359,"바꿈":16360,"발이":16361,"백화":16362,"보게":16363,"부르크":16364,"사회를":16365,"세트":16366,"스런":16367,"식당":16368,"신고":16369,"실상":16370,"쓰고":16371,"아,":16372,"연수원":16373,"이)":16374,"인승":16375,"적일":16376,"지휘":16377,"차적으로":16378,"채로":16379,"천여":16380,"출판":16381,"테랑":16382,"퍼센트":16383,"폭이":16384,"향곡":16385,"현이":16386,"▁이긴":16387,"▁대부":16388,"▁사안이":16389,"▁하구요.\r\n":16390,"▁1위에":16391,"▁가사":16392,"▁가면은":16393,"▁가치는":16394,"▁것들이\r\n":16395,"▁전신":16396,"▁정리를":16397,"▁2대":16398,"▁기습":16399,"▁기용":16400,"▁거라는":16401,"▁“세계":16402,"▁‘거":16403,"▁‘명":16404,"▁‘북":16405,"▁‘알":16406,"▁‘조":16407,"▁‘정치":16408,"▁일가":16409,"▁일명":16410,"▁일원":16411,"▁일케":16412,"▁일한":16413,"▁일\r\n":16414,"▁인상이":16415,"▁인연을":16416,"▁등재":16417,"▁경력이":16418,"▁해지":16419,"▁내밀":16420,"▁공보":16421,"▁공언":16422,"▁공문을":16423,"▁고()":16424,"▁상시":16425,"▁조사는":16426,"▁의식을":16427,"▁비디오":16428,"▁3승":16429,"▁만하다.\r\n":16430,"▁소멸":16431,"▁유한":16432,"▁\"노":16433,"▁\"대통령":16434,"▁김원":16435,"▁원씩":16436,"▁원.\r\n":16437,"▁세수":16438,"▁신혼":16439,"▁무작":16440,"▁무책임":16441,"▁분들을":16442,"▁분이\r\n":16443,"면서,":16444,"▁그러고\r\n":16445,"▁결성":16446,"▁도지사":16447,"▁5분":16448,"▁실은":16449,"▁성희롱":16450,"▁차이는":16451,"▁못하고\r\n":16452,"▁열기로":16453,"▁6회":16454,"▁특성을":16455,"▁서울로":16456,"▁적잖":16457,"▁적자를":16458,"▁단맛":16459,"▁단편":16460,"▁배경을":16461,"▁설날":16462,"▁삼겹":16463,"▁삼진":16464,"▁명으로":16465,"▁청계":16466,"▁총재":16467,"▁살게":16468,"▁금액은":16469,"▁양평":16470,"▁초기에":16471,"▁본래":16472,"▁심층":16473,"000명":16474,"▁담백":16475,"▁채로":16476,"▁하나\r\n":16477,"▁애들도":16478,"▁식량":16479,"▁교수와":16480,"▁버스를":16481,"▁리서치":16482,"▁절약":16483,"▁권장":16484,"▁110":16485,"▁카운":16486,"▁끝이":16487,"▁허락":16488,"▁연구에":16489,"▁잡히":16490,"하겠다.\r\n":16491,"하겠다”며":16492,"▁그니까.\r\n":16493,"▁코이카":16494,"▁난리":16495,"▁천만":16496,"▁설명할":16497,"▁설명해":16498,"▁맞아.":16499,"더라구\r\n":16500,"▁아닌지":16501,"▁면적":16502,"▁문화의":16503,"▁그랬던":16504,"▁떠나는":16505,"▁기준에":16506,"▁맡을":16507,"▁돌아와":16508,"▁돌아왔다.\r\n":16509,"▁터치":16510,"▁압수":16511,"▁위해서는\r\n":16512,"▁키운":16513,"▁자체는":16514,"▁봤는데":16515,"▁지지율은":16516,"▁논란은":16517,"▁보도한":16518,"▁으응":16519,"▁분야는":16520,"▁가격에":16521,"▁들어가고":16522,"▁해결이":16523,"▁해결하기":16524,"▁성공할":16525,"▁사진과":16526,"▁판단할":16527,"▁넣어도":16528,"▁환경부":16529,"▁미래창조":16530,"▁지도부는":16531,"▁경험한":16532,"▁아버지의":16533,"▁발언이":16534,"▁벗어난":16535,"▁스스로를":16536,"▁나왔을":16537,"▁이십오":16538,"▁선정해":16539,"대회에":16540,"지원센터":16541,"시설이":16542,"▁1989년":16543,"▁숙주":16544,"▁늦은":16545,"▁제한하는":16546,"▁행정안전":16547,"▁수익률":16548,"▁주도하는":16549,"▁보험료를":16550,"▁덕에":16551,"▁감소한":16552,"▁스트라이":16553,"▁규정에":16554,"▁메이커":16555,"▁쌓인":16556,"▁쿠폰":16557,"(IT)":16558,"▁전기차":16559,"▁취임한":16560,"▁인근에":16561,"▁자격증":16562,"▁친박계":16563,"▁추정되는":16564,"▁벤치":16565,"▁평소에":16566,"▁마이크로":16567,"▁탐지":16568,"▁잠깐만":16569,"▁아름답":16570,"▁이란의":16571,"수수료":16572,"▁조언을":16573,"▁성남시":16574,"▁주석은":16575,"▁가계부채":16576,"▁바람직하지":16577,"▁엄격한":16578,"▁수치다.\r\n":16579,"▁부드럽게":16580,"▁한마디로":16581,"IST":16582,"▁비핵화":16583,"▁아랍에미리트":16584,"▁영원히":16585,"대한민국":16586,"▁브로커":16587,"▁성균관대":16588,"▁vs":16589,"'인":16590,"-일":16591,"BA":16592,"BK":16593,"~12":16594,"·해":16595,"·사회":16596,"∼200":16597,"▁젠":16598,"▁겠습니다.\r\n":16599,"▁섰다.\r\n":16600,"가정":16601,"간호":16602,"거야":16603,"겠죠?\r\n":16604,"경에":16605,"광고":16606,"다지":16607,"도도":16608,"두리":16609,"르도":16610,"르며":16611,"리라고":16612,"매출":16613,"면에서":16614,"무침":16615,"미로":16616,"미칼":16617,"부패":16618,"사퇴":16619,"살인":16620,"셀러":16621,"어의":16622,"어린이":16623,"었다”며":16624,"역의":16625,"영향":16626,"오를":16627,"이.\r\n":16628,"저는":16629,"전화":16630,"점유":16631,"정당이":16632,"즈가":16633,"출한":16634,"콘서트":16635,"콤한":16636,"태우":16637,"터가":16638,"통에":16639,"학)는":16640,"▁이청":16641,"▁그담에":16642,"▁있거나":16643,"▁있나요?\r\n":16644,"▁대고":16645,"▁대원":16646,"▁대타":16647,"▁사장님":16648,"에서다.\r\n":16649,"▁수령":16650,"▁수질":16651,"▁1점":16652,"▁정선":16653,"▁2위에":16654,"▁시점에서":16655,"▁“경제":16656,"▁나을":16657,"▁나면\r\n":16658,"▁‘당":16659,"▁‘외":16660,"▁‘북한":16661,"▁주실":16662,"▁주시고요.\r\n":16663,"▁경선을":16664,"▁부쳐":16665,"▁부상을":16666,"▁안되는":16667,"▁위조":16668,"▁고시":16669,"▁상실":16670,"▁상원의":16671,"▁조개":16672,"▁조계":16673,"▁의구":16674,"▁소나무":16675,"▁되고,":16676,"▁되구요.\r\n":16677,"▁되는데.\r\n":16678,"▁되었습니다.\r\n":16679,"▁저쪽":16680,"▁\"인":16681,"▁\"일본":16682,"▁'자":16683,"▁세이":16684,"▁신당":16685,"▁신도":16686,"▁무쳐":16687,"▁분향":16688,"▁분\r\n":16689,"▁불린다.\r\n":16690,"▁결집":16691,"▁재생":16692,"▁한국전쟁":16693,"▁학위를":16694,"▁지금부터":16695,"▁열악한":16696,"▁입양":16697,"▁6만":16698,"▁6명":16699,"▁과징":16700,"▁서울과":16701,"▁서울을":16702,"▁응~\r\n":16703,"▁물량을":16704,"▁들어야":16705,"▁평일":16706,"▁배럴":16707,"▁설명이":16708,"▁민영화":16709,"▁것이기":16710,"▁71":16711,"▁포격":16712,"▁대표이사":16713,"▁걸로\r\n":16714,"▁간주":16715,"()로":16716,"▁드시는":16717,"▁점거":16718,"▁2011":16719,"▁높인":16720,"▁운허":16721,"이라든가":16722,"▁갖췄":16723,"▁손상":16724,"▁넘었다.\r\n":16725,"▁체감":16726,"▁식이다.\r\n":16727,"▁환호":16728,"▁리조":16729,"▁끝났다.\r\n":16730,"▁허물":16731,"▁나오자":16732,"한테는":16733,"▁삼성에":16734,"▁이유도":16735,"▁길고":16736,"▁사용하고":16737,"▁폭으로":16738,"▁요구해":16739,"▁요구하며":16740,"▁천재":16741,"▁예정대로":16742,"▁금융권":16743,"▁운영에":16744,"▁베르":16745,"▁추진해":16746,"▁그랬어\r\n":16747,"▁자기소개":16748,"▁돌아갈":16749,"▁분석된다.\r\n":16750,"▁보여줬다.\r\n":16751,"▁팀에":16752,"▁189":16753,"정부의":16754,"▁140":16755,"▁위원장을":16756,"▁시민이":16757,"▁마련을":16758,"▁키울":16759,"▁키우고":16760,"▁패권":16761,"▁자체가\r\n":16762,"▁상당수가":16763,"▁우려했다.\r\n":16764,"▁우려하는":16765,"▁밀집":16766,"▁지지층":16767,"▁침투":16768,"(45":16769,"(46":16770,"(50":16771,"▁제품에":16772,"▁맛있어":16773,"▁예상보다":16774,"▁판단에":16775,"▁프로그램은":16776,"▁이러면":16777,"▁서비스가":16778,"▁제공한":16779,"▁아마\r\n":16780,"▁격차":16781,"▁살아온":16782,"지역의":16783,"▁조선의":16784,"▁확보할":16785,"▁과거에는":16786,"▁제작한":16787,"▁잘못을":16788,"▁여론을":16789,"▁옮기는":16790,"▁나왔던":16791,"▁맨유":16792,"▁회의가":16793,"▁싶은데":16794,"▁욕심":16795,"▁연결하는":16796,"▁옆으로":16797,"▁깊어":16798,"▁정당한":16799,"▁고객의":16800,"▁LG전":16801,"▁판결했다.\r\n":16802,"▁전통적인":16803,"▁탄핵을":16804,"▁인수위":16805,"▁짓을":16806,"▁심각하게":16807,"▁이곳을":16808,"스(N":16809,"▁투입해":16810,"▁출범한":16811,"▁휘발":16812,"▁여론조사에서":16813,"▁법인세":16814,"▁민주주의를":16815,"▁근본적으로":16816,"▁채널을":16817,"▁고령화":16818,"▁종류의":16819,"▁무죄를":16820,"▁마침내":16821,"▁예쁘게":16822,"변호사":16823,"▁사외이사":16824,"▁스코틀랜드":16825,"▁식민지":16826,"▁패러다임":16827,"▁특목고":16828,"담보대출":16829,"▁입학사정관":16830,"▁캐머런":16831,"(고":16832,"2로":16833,"2만":16834,"TO":16835,"·5":16836,"·안":16837,"▁a":16838,"▁큐":16839,"공을":16840,"과에":16841,"까봐":16842,"나요":16843,"된다”며":16844,"디에":16845,"론’을":16846,"르몬":16847,"밥을":16848,"방식":16849,"버려":16850,"보의":16851,"빌딩":16852,"상선":16853,"속으로":16854,"수익":16855,"수학":16856,"시안":16857,"시스코":16858,"연금을":16859,"오던":16860,"오롱":16861,"우를":16862,"원\r\n":16863,"의사":16864,"이니까":16865,"잡이":16866,"제철":16867,"주자":16868,"중을":16869,"청에서":16870,"총을":16871,"출자":16872,"칙을":16873,"컴퓨터":16874,"플레":16875,"했어.\r\n":16876,"▁이득":16877,"▁이원":16878,"▁그라":16879,"▁대항":16880,"▁대검찰":16881,"▁아들의":16882,"▁사천":16883,"▁한다\r\n":16884,"▁수분":16885,"▁전력을":16886,"▁시끄":16887,"▁시도를":16888,"▁기자는":16889,"▁거센":16890,"▁“평":16891,"▁“국가":16892,"▁“검찰":16893,"▁다다.\r\n":16894,"▁다리를":16895,"▁네티즌":16896,"▁‘구":16897,"▁‘올":16898,"▁‘주":16899,"▁주자":16900,"▁주어진":16901,"▁중징":16902,"▁해커":16903,"▁해주고":16904,"▁국조":16905,"▁공단":16906,"▁부도":16907,"▁부하":16908,"▁부총리":16909,"▁오사카":16910,"▁없다\r\n":16911,"▁없잖아요.\r\n":16912,"▁고졸":16913,"▁조형":16914,"▁조회":16915,"▁관영":16916,"▁관철":16917,"▁비록":16918,"▁있는가":16919,"▁3층":16920,"▁소니":16921,"▁연료":16922,"▁연체":16923,"▁\"국민":16924,"▁서류를":16925,"▁개도":16926,"▁마틴":16927,"▁마시는":16928,"▁김윤":16929,"▁'성":16930,"▁'유":16931,"▁원리":16932,"▁요약":16933,"▁요소가":16934,"▁방청":16935,"▁신장":16936,"▁신호를":16937,"▁신자유":16938,"▁무을":16939,"▁무척":16940,"▁분할":16941,"▁분들이\r\n":16942,"▁바빠":16943,"▁바지":16944,"▁그러면서도":16945,"▁진전":16946,"▁불펜":16947,"▁재고":16948,"▁5명이":16949,"▁장군":16950,"▁차에":16951,"▁했죠.\r\n":16952,"▁입소":16953,"▁출퇴근":16954,"▁특이한":16955,"▁참\r\n":16956,"▁잘해":16957,"▁북측":16958,"▁73":16959,"▁시작된다.\r\n":16960,"▁버릴":16961,"▁따라가":16962,"▁기업가":16963,"▁잡혀":16964,"▁<에이":16965,"▁당시에는":16966,"▁나오고\r\n":16967,"▁내용으로":16968,"▁순서":16969,"▁선수단":16970,"▁볼넷":16971,"주의자":16972,"▁토끼":16973,"▁트랙":16974,"▁30만":16975,"▁빠졌":16976,"▁빠지는":16977,"▁커지는":16978,"▁폭이":16979,"이었다는":16980,"이었는데\r\n":16981,"▁선생님.\r\n":16982,"▁디엔":16983,"▁어려웠":16984,"▁탈레반":16985,"▁탈바꿈":16986,"▁터널":16987,"▁영화에":16988,"▁기자들이":16989,"▁있으면서":16990,"▁자체적으로":16991,"▁있고요\r\n":16992,"▁방송통신":16993,"▁중심이":16994,"▁의미다.\r\n":16995,"▁되게\r\n":16996,"▁해외에":16997,"▁분야가":16998,"▁긴축":16999,"▁활동하는":17000,"▁플랜":17001,"▁숨은":17002,"▁건강에":17003,"▁석방":17004,"▁통일이":17005,"▁목표가":17006,"▁대회는":17007,"▁풍경":17008,"▁벌어질":17009,"▁1년에":17010,"▁공정위":17011,"▁공급을":17012,"▁늦어":17013,"▁엔씨":17014,"▁히는":17015,"▁밑으로":17016,"▁NLL":17017,"▁컨디션":17018,"▁끼어":17019,"▁신고했다.\r\n":17020,"▁슈리케":17021,"(IC":17022,"▁교과서에":17023,"▁메시지":17024,"▁위안화":17025,"▁케리":17026,"기간이":17027,"▁이틀간":17028,"▁상임위":17029,"▁고속철":17030,"▁의식한":17031,"이닝을":17032,"▁주석이":17033,"▁무너뜨":17034,"▁공무원의":17035,"▁부장검":17036,"▁한-일":17037,"▁이정현":17038,"▁명확히":17039,"▁겨냥해":17040,"▁식당에서":17041,"통상자원":17042,"▁불거진":17043,"▁박영선":17044,"▁익숙한":17045,"▁급속히":17046,"▁인건비":17047,"▁스크린":17048,"▁지주회사":17049,"▁전·현직":17050,"▁경제협력개발기구(O":17051,"▁정세균":17052,"▁인테리어":17053,"▁끔찍":17054,"▁[횡설수설/":17055,"(0":17056,"(연":17057,"4억":17058,"6명":17059,
[...]
